#version: 0.2 - Trained by `huggingface/tokenizers`
Ġ (
e n
en t
e r
f i
) )
i fi
ifi er
i d
id ent
ident ifier
a r
m e
m ent
o n
a t
i on
p e
a me
g u
gu ment
ar gument
s t
e c
Ġ n
Ġn ame
i n
at ion
l i
t y
ty pe
o d
o c
a l
t h
argument s
e s
th od
me thod
li st
Ġ arguments
c o
es s
ec t
o b
j ect
in v
ob ject
oc ation
inv ocation
)) ))
d ec
s co
sco pe
Ġ object
t er
o r
e x
p r
ex pr
ess ion
expr ession
l ar
dec lar
l e
)) )
at e
Ġ type
st ate
state ment
scope d
p ar
li ter
liter al
Ġ scope
declar ation
e l
Ġ Ġ
at or
l oc
el d
declar ator
fi eld
m al
ame ter
par ameter
a b
ab le
ar i
v ari
vari able
in g
st r
i g
str ing
f or
u e
Ġ r
parameter s
a c
loc k
b lock
for mal
h t
f t
ig ht
Ġ le
Ġr ight
Ġle ft
v al
val ue
r e
Ġ value
c on
in t
m od
od y
b ody
Ġ declarator
c ess
ac cess
a n
)))) )
mod ifier
modifier s
Ġ con
e g
Ġ field
int eg
Ġ body
ar y
i m
s e
loc al
b in
bin ary
a s
i t
i mal
dec imal
ĠĠ ĠĠ
c e
integ er
i c
as s
)))) ))
or t
e d
p ort
Ġ parameters
č Ċ
im port
c re
en er
i z
co m
g ener
cre ation
gener ic
iz ed
h es
par ent
parent hes
parenthes ized
u r
it ion
d ition
Ġcon dition
com ment
q u
en ce
se qu
sequ ence
Ġcon sequence
o t
i f
c h
u l
t ur
tur n
ig n
re turn
ass ign
assign ment
an n
i s
ann ot
annot ation
c l
r a
)))) )))
k er
ul l
n ull
th is
r o
m ar
v o
a v
mar ker
vo id
ra y
ar ray
av a
cl ass
j ava
integ r
integr al
p er
u n
t r
)))) ))))
a st
s ion
ro w
th row
Ġ <
ĠĠ Ġ
sion s
en sions
d im
dim ensions
ter n
or g
at ch
ĠĠĠĠ ĠĠĠĠ
Ġ in
i l
c atch
Ġ "
e t
i v
an d
< /
o o
t or
iv e
Ġ al
throw s
at ive
Ġ o
Ġal tern
Ġaltern ative
Ġ th
ĠĠĠĠ Ġ
u t
l o
s u
an s
c ast
an ce
a m
b e
ar ch
u c
Ġ org
tr ue
p o
a d
d ex
u p
f al
fal se
str uc
struc tor
a p
Ġ dimensions
e le
n et
Ġth e
b oo
le an
Ġo per
se arch
boo lean
Ġoper and
un ary
su per
Ġ t
t ion
)))) )))))
u se
po int
ele ment
con structor
at ing
d ate
ar d
Ġ w
f lo
f r
" :
fr ame
Â ł
a use
ast ic
o ur
flo ating
Ġ at
Ġin dex
be ans
tr y
a g
astic search
Ġ s
0 0
il d
e st
h ance
en hance
enhance d
in e
el asticsearch
Ġ array
up date
net beans
cl ause
I n
Ġ element
ĠĠĠĠ ĠĠĠ
p l
j ar
Ġ [
ul es
mod ules
fi le
` `
Ġt o
h e
C on
l ine
f ac
Ġ {
s w
es our
Ġ d
c ard
ild card
w ildcard
v er
E x
2 0
Ġ :
ter fac
ex t
ag e
st ance
o f
Ġ a
- -
it ch
Ġ b
sw itch
int s
pr ing
d a
super class
k e
in stance
instance of
Ġ }
i th
i r
)))) ))))))
ac he
pr o
am b
amb da
li c
l ambda
ac k
Ġ is
Ġ f
re ad
it i
o l
a se
a li
Ġ 1
Ġr e
f er
R e
p tion
r un
or k
Ġ c
T h
ac t
Ġ m
ap ache
B e
s pring
p lic
l ab
lab el
r esour
in terfac
i le
t ext
ali z
A c
Âł Âł
l y
" ,
20 1
par am
ut il
g ra
h ints
tern ary
ce ption
u s
ĠĠĠĠĠĠĠĠ ĠĠĠĠĠĠĠĠ
a in
er v
w ork
1 0
u m
p ack
od e
Ġ ~
o m
`` `
aliz er
1 2
Ġ~ [
Ġ -
Ġ update
Ġin it
a k
e m
: /
Ġ I
c es
o w
Ġo f
Ġ S
a f
Ġ `
iti alizer
Ġ be
p en
t p
Ġ< /
Ġ java
* *
l er
oc ess
)))) )))))))
in itializer
an g
b o
t i
Ġ on
n er
q ue
Ġ h
re ak
frame work
str act
A b
t est
Ab stract
Ġ and
Ġ for
gra m
Th read
s s
P ro
P r
or d
as k
spring framework
S t
S e
s p
que st
b reak
resour ce
g et
ke y
c ur
fi n
Ġ superclass
i st
1 4
Se arch
Ex ec
Ac tion
s h
] ,
pack age
$ {
Ex ception
h o
ht tp
u b
> ${
er y
pro gram
Ġn ot
Ġ ex
I m
Ġw ith
and ler
un d
li ent
C h
oo k
pe c
sp i
ul t
1 5
M e
S erv
fer ence
C l
Ġw h
0 4
in dex
interfac e
id e
T ask
Im pl
D ir
ch ar
ut e
T r
re d
Ġ it
ac ter
at a
e b
i o
I N
char acter
plic ation
Con text
Ġ '
r c
H andler
Be ans
i ce
8 0
fi gu
ann el
1 1
u st
ac tion
Ġ pr
C ol
. .
im pl
re ference
r ent
ĠĠĠĠĠĠĠĠ ĠĠĠ
al ly
R un
bo ot
s er
tor y
Ġ com
Ġth at
:/ /
ans port
net Beans
netBeans Dir
Cl ass
Me thod
p le
A p
l ang
ocess or
st or
lo g
ar t
Ġ 0
( )
T est
se t
ook up
2 2
y n
u tor
me ss
t e
1 3
u g
C om
1 9
w h
1 7
er t
Be an
our ce
r or
Ġ key
o pen
it or
interfac es
tern al
2 4
Exec utor
Ġin terfac
)))))))) ))))
Col or
Ġ an
mess age
r i
f l
v ent
Re quest
f a
Pr ocessor
Ġinterfac es
s ing
p a
R E
F O
h ase
A S
F il
plic it
-- --
2 5
Ġ =
] [
al l
a y
h ard
Ġcon structor
k a
u re
9 2
open ide
Serv ice
Ġ p
H ints
ĠĠĠĠĠĠĠĠ Ġ
L E
Ġ st
ast er
cur rent
ex plicit
co re
pa ir
ad er
con t
fer red
af ka
A P
Ġ this
oo l
fin ally
ul d
m on
U I
P hase
F ac
ro m
o g
qu ery
R es
ifi c
Fac tory
ass ert
Con t
i b
r ation
w ith
an t
201 8
Ap plication
ver sion
S H
wh ile
v el
p on
esour ces
Ġ T
con current
pr e
E n
P ar
Tr ansport
ar e
Ġ} ,
inv o
Ch annel
ap p
en um
ex ec
L ist
D e
ÂłÂł Ġ
s yn
i ty
s pec
0 3
resour ces
Ġ" _
1 6
ect ion
figu ration
u ild
invo ke
for m
O T
ific ation
iz e
in ternal
ĠĠĠĠĠĠĠĠ ĠĠĠĠĠĠĠ
e w
In iti
a il
U n
in d
Ġr esources
Ġ 2
in ferred
stor m
O b
lo w
d e
c ri
le t
Search Phase
Fil ter
su p
fa ult
spec ification
r ec
en d
AS E
cre ate
S N
Initi al
Ġb y
o p
at h
RE LE
RELE ASE
AP SH
APSH OT
Ġ F
SN APSHOT
2 7
Ġd o
Initial SearchPhase
sup port
Q u
er s
ĠĠĠĠĠĠĠĠ ĠĠĠĠ
In dex
java x
1 8
c at
o ut
E vent
C lient
fi l
par sing
Ac cess
sw ing
li b
Ġ as
00 00
or ker
er e
L ookup
S hard
l ob
t il
P ool
Ġ W
Ġ us
li s
Ġd e
A n
Ġ pro
Ġwh en
6 6
fl ect
E D
ust er
ti es
d o
spi impl
th read
Ġf rom
be am
pl af
Ġ are
Ġ e
J ava
o und
il lis
ec ur
st ant
ver y
o v
In vo
k afka
ile d
Thread Pool
6 4
ecur ity
Con figuration
v id
po s
3 4
3 7
t ed
Ġr es
U til
ain er
com mon
per ties
le vel
Ob ject
p ut
Ġ l
it e
t ing
m illis
ap i
ac h
Ġ C
0 2
un ner
E R
ti me
er ror
ThreadPool Executor
con stant
Invo ker
E r
net ty
il l
c ode
)))))))) )))))
exec ute
Ġ N
is k
http s
Ġ if
A A
i me
a w
Hints Invoker
re flect
Access or
esour ce
3 5
S T
i p
te str
rec ord
testr unner
U T
4 7
ro l
A d
Ġ co
Qu ery
or e
d k
3 0
p t
4 5
ÂłÂł ÂłÂł
o u
com p
Ġ ch
app ing
r on
Ġ M
w eb
as ic
u th
re am
Ġ B
/ _
c lient
p h
pon se
Ġ g
aster isk
Th is
} }
an ag
pre ad
Ġt est
8 5
s pread
D E
{ "
L o
Ġs o
' t
92 00
I O
ho uld
s erv
": "
run ner
er ver
R esource
3 2
3 6
R ec
Ġ version
A R
4 9
pr od
in ue
cl uster
Ġb ut
aw t
St ream
Ġs hould
4 8
St ate
ol low
cont inue
Ġf ail
0 1
a x
lo ad
P o
Ġw e
d ata
ho st
ate d
m s
S tor
x y
Ġ set
st em
con text
0 8
y stem
Ġr un
Method Accessor
Ġ use
un t
cur l
Ġdo es
ow n
W orker
o ot
ut ion
re g
oo p
ic es
A ut
b ase
in k
runner s
av e
u i
Ġ log
fi g
IN FO
a iled
Er ror
Run ner
Ġf ollow
Ġ or
anag er
ad d
10 9
tr ing
syn c
201 9
Ġ j
6 5
ĉ ĉ
o very
D ele
s ource
l ookup
0 5
.. .
W eb
i pe
D ata
Ġ --
n ame
Lo ader
un it
Ġ y
ec k
sh ard
V al
Ġ /
Ġc an
S ize
on e
A sync
d le
fil ter
Ġ 5
Ġ file
s ecurity
** :
0 9
Ġ su
flo w
m in
Ġ A
Ġ class
T o
ĠI N
) ;
O n
12 7
ch ron
e am
Pro vid
0 6
2 8
= =
T ext
3 9
q l
25 5
M ap
P UT
Ġ error
Ġre turn
B uild
De fault
2 6
Ġ H
t o
in al
Ġ tr
pos itor
E l
s o
local host
---- ----
MethodAccessor Impl
b ed
Pro xy
ut ure
ĠT he
K e
S pring
ipe line
m l
2 9
15 22
Ġw ill
M anager
Ġre quest
Color UI
ColorUI Resource
U R
Run n
ic h
ch annel
Stor e
Ġh ave
ĠIN FO
str eam
Dele g
F ile
8 6
List ener
j unit
Ġw ork
Ġ se
c c
Ġfollow ing
Ġ get
= ,
U p
Res ponse
Serv let
Ġ P
Ġ query
C T
F uture
comp ute
est ed
u le
? :
3 8
g reg
u ment
ac e
ord er
d is
Ġex ception
n um
cat al
am ple
A r
ser ver
cl u
) .
S ource
oc ument
al y
Ġn ode
sh ot
Util s
Ġn ew
i es
n ap
Ġ io
\ "
u ce
act u
Ġus ing
Bean Factory
Runn able
el ect
Provid er
Ġ ]
m ain
m it
f oo
nap shot
pen d
b er
Cont ainer
et ty
ug in
)))))))) ))))))
ho me
s c
N ode
t tp
y pe
3 3
Par ser
L og
ith ub
Ġ ap
ĠĠĠĠĠĠĠĠĠĠĠĠĠĠĠĠ ĠĠĠĠĠĠĠĠĠĠĠĠĠĠĠĠ
g ithub
ed itor
positor y
Ġ čĊ
s on
ra p
S tring
p atch
ob le
st at
Ke y
Class Loader
F or
per ty
M ain
F inal
g le
Con n
chron ized
tr ansport
Ġwh ich
at er
Ġ up
Ġn ull
H ttp
a z
r ite
Ġ li
8 7
( "
ation s
d oc
oo gle
O R
syn chronized
cl o
ause d
stor e
x pack
R est
5 6
T he
Ġ #
bo und
F i
fac tory
Ġt ime
L oc
le ase
ot e
e p
rol ler
En d
th er
Ġcon t
g n
Ġh as
4 3
le d
Ġ me
ex ception
fi x
Channel Handler
T ype
n ot
Ġ J
Build er
I d
d ed
Ġal l
i re
m ax
k et
oble m
gra dle
ub lic
tr ic
Ġ D
In t
El asticsearch
Ġso me
B ase
Ġw as
Ġ G
ect or
' s
l l
n o
S erver
Ġ _
figu re
? ]
W ith
d d
Ġ Ċ
Ġst art
IO N
ChannelHandler Context
able d
t om
Re ad
End point
Rec overy
Ġr ec
ang e
g er
Ġ This
p ath
im ple
Âł Ġ
E T
Ġ0 9
in ter
val u
ĠĠĠĠ ĠĠ
N ative
Abstract ChannelHandlerContext
ro up
h ad
P ipeline
par se
Ġs un
Ġ |
Task Processor
v e
ph a
le g
Deleg ating
Ġ un
a ut
s ue
IN G
m er
5 7
en c
Ġ O
Async Action
Ġ R
B y
2 1
Tr ans
UR L
leg al
0 7
s rc
pec ted
ĠĠĠĠĠĠĠĠ ĠĠĠĠĠ
Ġ 3
al pha
K afka
k ip
as on
d ing
ap ter
Ġy ou
Ġpr oblem
im um
g oogle
P l
f ter
Ġ .
", "
s cri
had oop
A CT
Ġf ound
Un it
and le
201 7
Ġ @
m and
i or
f f
Ġis sue
Ġ create
i str
Ġs hard
M ess
pr ocess
2 3
Ġ 4
Ġn o
g e
pro perties
Ġres ult
o uld
Ġ add
B asic
Ad apter
g ing
ind ow
Application Context
9 9
m y
bed ded
Ġin st
es cri
Abstract Search
AbstractSearch AsyncAction
od es
O per
t op
Aut o
An d
Mess age
b uild
b c
p y
, "
ĠĠĠĠĠĠĠĠĠĠĠĠĠĠĠĠ ĠĠĠ
Ġ~[ ?:
ar get
1522 80
s ql
aly z
Ġm ore
n ing
N ame
ib m
se d
A T
D is
Ġo ut
AA AA
w s
P er
K it
c all
catal og
ali gn
Ġ en
align ment
for e
4 4
s dk
Ġ int
em p
Ġ true
Text Color
imum Size
)))))))) )))))))
ul ti
W rap
] ]
su b
N ext
s kip
Ġ >
C ache
Ġ-- -
b asic
X PUT
A uth
3 24
w atch
Request Processor
r es
Ġon e
h en
Ġf ailed
g in
g ine
n ode
oc on
b us
ach ine
Ġr est
S h
Ġ fin
Delegating MethodAccessorImpl
Res ult
Con fig
st art
j dk
serv let
Exec ution
Ġ cluster
pro ject
Proxy Lookup
r t
Fi eld
Ġre prod
el l
Ġon ly
form at
Cont roller
pe d
at es
compute Hints
Conn ection
aut ocon
Pro perties
v c
a uth
w ord
par t
R eg
l legal
Ġ In
Ġ ag
autocon figure
skip Shard
Ġd ocument
Auto Configuration
f ul
Ġ L
Ġ 6
ch ed
c cess
Fil es
Ġs h
ust om
Ġ v
e vent
Ġbe h
ACT ION
re e
E m
] </
f o
r r
pon ent
5 8
Ġn e
9 0
un c
et ch
Po st
6 7
it s
D o
ing le
S et
ov y
Wrap per
O ST
ro ovy
su mer
Ġan y
I T
1 80
b lob
c ub
C aused
Ġ1 3
re lease
O ut
er i
U ser
ĠĠĠĠĠĠĠĠĠĠĠĠĠĠĠĠ Ġ
Ġn ested
Ġth ere
Ġ https
) :
cub ator
Ġ method
201 5
im bus
6 2
B lob
9 7
] :
C all
m ov
k en
Loc al
Ġ clo
a ke
1 14
able BeanFactory
Ġ state
av en
g r
Ġ po
C o
data flow
j rt
": {"
Spring Application
G ET
Par ent
tr ans
Up date
Âł čĊ
Ġin cubator
S c
z one
e per
re pe
ĠS ystem
I llegal
# #
Ġre port
re ate
Ġb ug
Ġ1 0
Ġbeh av
ting s
AR N
li sh
el astic
5 5
re ason
as h
Re pository
s ize
Ġde fault
Ġ pl
3 1
ann er
repe ater
em pl
m at
Ġch eck
Ġc ur
Ġli ke
on g
N ot
Ġex pected
Ġpr ocess
An not
Reg istr
Ġb ec
} '
8 8
Com p
AR T
Ġs ame
en e
d og
val id
Ġc ode
watch dog
co unt
fr es
Future Task
fil es
Ġ{ {
Dis patch
ot al
Ġin clu
Ġap plication
pend enc
h andle
ind ices
unc tion
d c
Ġ ...
M od
fres h
u f
pl y
rr ect
: \
Ġ actu
uc ene
tric s
Ap p
P OST
Search Service
5 2
Ġreprod uce
c m
9 8
t es
Ġd ata
() ;
Ġ E
ccess ful
ent ic
ib le
k n
t s
} ,
in it
) ,
DE X
Ġst at
prod uc
IN DEX
h ex
9 1
Val ue
4 6
In ternal
== ==
Ġ ][
al a
Cont ent
cri pt
Ġfail s
G ener
H int
v ir
Ġa fter
` .
Lookup s
ul k
Ch ain
cl ou
Ġp ublic
Ar ray
INDEX ING
Exec ute
ĠS pring
put Stream
V er
ĠĠĠĠĠĠĠĠĠĠĠĠĠĠĠĠ ĠĠĠĠĠĠĠ
Aut ow
L e
or y
set s
n io
Int eg
Col l
Ġd ele
9 3
i ew
su ccessful
d ices
3 80
Ġ try
4 0
Ġuse d
V M
m ote
escri ption
Ġ *
a us
Ġm apping
Post Processor
vir on
end point
viron ment
Q ue
od er
0000 00
s el
li p
Com mand
Parent Runner
ART ED
index ing
O N
B ind
O S
Ġex ec
T arget
w w
sco re
Com mon
F n
a un
k it
} {
Ġ false
Ġ fix
UI D
Oper ation
Ġ 7
Ġdoes n
S ub
Res ol
Ġ per
s elect
B U
Ġth en
b ack
m apping
N o
P ath
Ġbec ause
m atch
ST ARTED
B und
Pro perty
ĠS t
| |
Que ue
Ġ filter
i x
J Unit
Ġc all
Executor s
Ġ ab
Ġ \"
lob al
1 20
ac tor
Ġ URL
00 0
f s
Ġ +
Ġc ase
m aster
ÂłĠ ÂłĠ
aun ch
ub lish
_ _
g est
cont ainer
ay be
Ġ AS
12 17
uc ket
Ġm y
clou d
4 80
M apping
e ad
Ġ~[?: ?]
Ġ ver
if y
Ġ1 1
b y
Em bedded
w ay
fi r
d b
Ġc lient
A g
m achine
field s
al led
r y
Ġbehav ior
B oot
8 00
E d
] (
2018 1217
Ġ http
Ġth read
Native MethodAccessorImpl
n a
ÂłÂłÂłÂł ÂłÂłÂłÂł
BU G
F l
Filter Chain
d er
at tern
) \
St ep
sh ad
7 6
DE BUG
5 9
p s
Action Event
ig h
5 00
Ver sion
n ect
Ġo ther
o st
ĠI f
um ber
alyz er
C ap
ad ata
u x
po log
4 1
g s
empl ate
Main Thread
G UID
ag s
i red
an e
Index Shard
() ||
f ce
i a
Ġal so
2 15
en a
N io
x ml
shard s
l ucene
c ar
** **
f dc
D ec
uf fer
480 6
Ġa ut
O r
Channel Read
Ed itor
li t
wh en
e e
pr etty
o ver
iz er
ER R
Pl ugin
T ime
el y
Ġp ath
tom cat
Annot ation
Ġrest art
em s
Ġ load
e ver
d at
A L
Cl uster
P ER
Con dition
p c
sc ala
I t
ay out
execute With
5 0
c ache
Ġbe an
Bund le
In ter
b ar
ĠAS T
w orker
Ġ mod
Ġint o
Ġex ample
fa iled
)))))))) ))))))))
pro vid
Resol ver
s napshot
ERR OR
C reate
ÂłÂł Âł
oc ol
ug h
ĠĠĠĠĠĠĠĠĠĠĠĠ ĠĠ
cm d
Ġw ould
Sc anner
th ing
En gine
ot ocol
Ġ part
str ap
Po inter
greg ations
pendenc y
v n
fir st
t otal
Ġ Files
Pro ject
Ġne ed
Ġ Un
Ġ 000000
Autow ire
6 0
R M
d own
Ġ( `
Ġb ack
kn own
20 8
Co unt
polog y
G et
v is
Ġpro perty
ption s
Ġ000000 7
s ist
ull Pointer
b order
e at
Ġ 2018
4 2
Abstract Autowire
Cap ableBeanFactory
AbstractAutowire CapableBeanFactory
A ss
Ġd if
run time
d es
M ar
ullPointer Exception
ch eck
Comp il
14 8
Ġex ist
Registr y
S S
it able
M on
M vc
ec on
S ecurity
ĠF ile
Ġd is
Ġse e
P ane
ĠW hen
Index er
lo ader
an age
O pen
no format
Ġ ],
Ġ ac
co l
)) ;
Ġre ad
am p
> (
f n
ched ul
ol r
Blob Store
St at
Ad d
od uc
m aven
7 7
S ingle
Ġ id
Transport Service
oc ket
bin d
Ġsu b
1522 8
e iv
is sing
art ition
ĠB oot
M et
Ġ 20
. <
G lobal
le ft
Action Listener
ĠĠĠĠĠĠĠĠ ĠĠ
' :
R O
Ġc annot
ool s
Ġd ir
stat ic
p tor
ot tom
9 5
Ġre mov
Handler s
valu es
201 6
Val id
Coll ection
201 4
el ow
Ġ kafka
/ :
l ing
ter m
In fo
Ġcur rent
r ight
Ġt w
W indow
Ġs pec
al th
ter ms
an c
od ec
Ġ1 4
Auth entic
Integ er
us er
Com ponent
act ive
S ystem
h its
l ayout
Pro gram
Abstract Runnable
anage ment
-------- --------
+ +
ap pen
Ġcont ain
Ġ message
con fig
f rom
ow ever
dis patch
pr ocessor
c le
9 6
ed itable
Ġ throw
Ġ qu
Ġ support
Per form
i al
Ġcon text
em on
fl ags
.. ..
m ap
n ew
ap ply
Ġh appen
Ġ list
FO RM
dis abled
I f
P artition
m aybe
in ce
Ġ' {
32 1
b ottom
2 92
j ena
sel ection
Hints Task
Update Handler
Ġ U
] ;
Ġwh ile
car et
Ġrun ning
ferred Size
app li
Text UI
Basic TextUI
PER FORM
PERFORM ED
and ard
Editor Pane
C ode
w ard
AP I
internal s
p or
Runnable Adapter
H e
su es
Ġtr ans
mar gin
[ ,
Ġresult s
select ed
B order
Ġo ver
Ġch ang
= ]</
type Handlers
In sets
pre ferredSize
min imumSize
max imumSize
alignment X
alignment Y
disabled TextColor
selection Color
caret Color
selected TextColor
G ra
sp lit
Ġus er
eat ure
stat us
Ġ **
S elect
ion s
Er r
ĠSystem Err
p lo
() .
a it
produc ts
Test Util
Common TestUtil
Ġ search
g roovy
Ġm ay
Ġ i
ask s
w e
ĠN o
Ag greg
Scanner Impl
Ġ localhost
Ġactu al
Ġ he
Ġ 8
ag es
Ġco rrect
de fault
7 04
ser t
Ġde fin
provid ers
A s
i li
Ġb elow
5 4
C L
Ġres ponse
ate g
Ar gument
on Response
mar k
W ARN
Ġ void
State Exception
Ġm ain
Ġinclu ding
econ d
5 1
Pr ocess
Ġ cre
j son
Ġj ob
W rite
Ġreturn s
Ġ API
Ġs erver
Ġbe fore
Perform er
cont ent
Base Kit
pos ition
Ġr el
li g
Ġbe ing
Ġj ust
" )
ĠI t
fi re
do Filter
valu ate
lip se
Ġ gener
split ter
G roup
AAAA AAAA
ut down
Request Performer
p ublic
Ġcon figuration
7 8
h andler
` ,
Ġc ause
stream s
E N
run Worker
Request Handler
Ġdif fer
En vironment
Ġpro ject
Abstract BeanFactory
Ġs ource
L O
= "
mod el
Ġwork s
aliz e
get Test
in a
me d
F etch
ht ml
ur ing
ector y
ĠFile Object
Ġ block
Ġ Th
catal ina
w are
Transport Action
st amp
Target s
re fresh
In putStream
getTest Targets
aunch er
Ġs napshot
Shard Execution
successful ShardExecution
w rite
Ġ Method
eiv ed
y cle
Execute Next
maybe ExecuteNext
o s
r ary
ec lipse
l es
Ġof f
Basic B
1 00
Ġl ook
por ter
S imple
Ġco uld
L oop
an ces
Ġs pring
Ġinst ead
Illegal StateException
ord ers
i et
Ġpr e
if act
Ġ Error
ut ing
Java Kit
Map per
gin Border
Mar ginBorder
704 324
BasicB orders
read y
chedul er
Q L
Ġth an
By te
7 4
Ġ1 48
Ġcreate d
plo y
M Bean
e valuate
Ġ Java
Ġch ange
N imbus
emp ty
Ġo pen
Ġ[ ?:
t ools
B lock
Ġ Re
F ailed
6 8
su s
N et
p ublish
end s
' m
Ġdiffer ent
ry o
S ql
r ame
Ġat t
ag gregations
T E
in es
D escription
y y
Ġ im
Ġ first
Ġbe en
Ġwh ere
Ġ K
Qu iet
Store Recovery
Quiet EditorPane
as es
' ,
I SH
log ging
Ġ148 37
Con sumer
6 9
c p
W e
t adata
Ġ line
C lo
im ary
ISH ED
ec ycle
Run time
Com bin
F ail
/ </
and om
actu ate
Abstract ApplicationContext
/ .
Ġd oc
en g
Step s
S co
I ter
Ġtw o
g roup
pl ugin
Ġ x
ĠW e
12 8
re quest
eb ug
t at
5 3
L ocation
Ġrestart ed
4 00
X Content
es e
Ġst ill
Sub scri
Ġd at
ĠS tring
ple te
ator s
F rame
ce pt
v ide
Ġ und
web container
W hen
i sco
Ġ ign
em bedded
em a
Ġ1 5
g ed
Un known
exec ution
Ġd own
art ifact
C ustom
Global Lookup
su re
X GET
S eri
S p
Ġd uring
Ġth ese
Ġm atch
Argument Exception
N ullPointerException
le ment
t m
ron g
shad e
s is
Ġ{ "
az y
Ġ values
Ġs c
M ulti
Mon o
v en
Ġf eature
Bind er
r up
de v
Data flow
ation Service
ce ptor
Plugin s
serv ice
Ġc aus
aly sis
u d
F rom
19 3
D ocument
User s
7 2
Ġcom p
s un
Ġ parse
Ġpro perties
al ar
S up
ss ible
ar ning
Ġin dices
Ġal low
Ġ/ /
iv ate
ur es
E lement
clu de
Ġn umber
po ut
Ġd on
P re
Ġlog s
Ġr ele
J ar
ili ty
F IN
o zone
ĉĉ ĉĉ
Ġth ink
invoke ChannelRead
ifi ed
Ġ[ ]
Ġse ems
S E
S yn
t en
ĠF ailed
J VM
im er
oo ke
Ġb uild
ooke eper
n ested
oc k
D O
Ġ throws
ar n
16 6
Trans form
7 0
ist er
Ġr eg
Ġ files
Ġm ulti
lib rary
J ob
tr ib
S u
us r
Int el
P attern
Java Source
Web App
FIN ISHED
po st
Test Class
AT E
client s
V iew
Ġshard s
Ġver sus
publish er
Ġrestarted Main
Ġb az
ĠF or
ava il
plic a
Ġset ting
Ġn odes
ĠS ource
Ġit s
da emon
num ber
Ġwith out
Le vel
O M
at is
Re plication
! --
o ugh
r id
Ġ- >
Ġstat ic
Ġag ain
i er
Ġund er
P E
Ġup gra
d ir
Ġtest s
Deleg ate
eng th
Ġ empty
re pository
8 4
s l
set tings
" }'
j ob
j etty
u al
Ġ 22
trans form
Illegal ArgumentException
8 9
Mod el
In stance
f e
r ess
Ġm aster
Ġs ince
Ġb ar
Ġ k
o th
om cat
key word
B atch
Ġfield s
n ection
ic k
imple ment
Compil ation
Ġthe y
Web ApplicationContext
6 3
Ġ date
Ġw rong
Ġh ere
A M
m is
Thread Context
ple tion
Log ging
gr pc
F ound
s olr
b ucket
ar ter
test ing
Ġinst alled
a e
Stream ing
O ver
Ġb ro
Re ader
load Class
S napshot
` ):
Ġin stance
yn am
Application FilterChain
" }
Ġ string
lic y
do Run
Ġpl ugin
ww w
8 1
g o
Ġal ready
Ġto p
Ġfail ure
th e
fl ink
13 0
L auncher
Ġ Kafka
ov e
Ch eck
rol l
Met a
o ther
Ġs ize
For mat
c odec
L azy
S ession
an ti
Ġin iti
appli ances
Par se
Ġre qu
27 8
o per
em bed
" }}
" );
= [
i ed
Ġ port
Mod ule
Ġ ar
ynam ic
r it
x x
Ġ Elasticsearch
Ġf l
Ġm ake
O ptions
A ll
Ġ implement
ic s
ack son
12 2
Ġ ?
Ob serv
Con structor
Ġg o
Ġn on
is h
Ch ild
Rec eived
Ġ am
M aster
Ġdele te
B uffer
S cript
Me trics
cl j
a pe
==== ====
L ink
an alyzer
i ft
Ġcont ainer
avail able
O f
": {
Ġd ue
Ġ valid
qu al
Ġm ight
Ġ oc
let on
ĠE S
Ġw ay
Ġag greg
T able
alar ms
T ree
Frame work
aliz ation
Handler Mapping
ED IT
2 00
X POST
or iz
Ġout put
Embedded WebApplicationContext
Ġ ad
tr l
Class Runner
F unction
T T
ex ample
29 6
b ulk
Ġ \
Ġ local
en gine
eg ment
Ġclo sed
fin ition
I G
ase t
Ġs ystem
Ġ0 1
Log ger
Re mote
op y
Ġn ow
Array List
Ġd et
ol ve
sc an
re st
ut able
ĠM ap
g gest
co ll
Bean PostProcessor
EDIT OR
us h
ĠĠĠĠĠĠĠĠĠĠĠĠĠĠĠĠ ĠĠĠĠĠĠĠĠĠĠĠ
ord s
Test s
Ġcon fig
ge o
u es
2 64
L I
27 3
Inter ceptor
er ies
ign ite
Ġ{ }
ch ema
Ġ1 8
r ide
In dices
boo st
Ġrequest s
ÂłÂłÂłÂł ÂłÂłÂł
Dec oder
p ul
Ġ 9
fin d
LO G
af e
Servlet Container
Ac t
Trans l
Pr otocol
Web Mvc
To Message
Method s
C E
D K
M atch
d fs
Ġre actor
Event Loop
Ass ert
Ġst op
De finition
sub version
7 3
D B
m ory
ext ends
Ġthe m
Error s
Nio EventLoop
20 33
mapping s
ĠA M
ass word
14 18
Ġcom mit
"," _
6 1
m b
un ter
Ġjava x
Ġ gu
St andard
blob store
ĠW ARN
i e
Re ference
Ġdocument s
Ġ endpoint
ched ule
L D
Ġpo ssible
: ?]
B ig
)))))))) )))))))))
m x
ro uting
Ġe ven
ach ed
ator rent
Ġs p
Local Cache
dat atorrent
TT P
S tr
27 9
A B
en able
93 00
22 1
in s
ad min
s ession
as l
Ġset tings
Ġy our
fac tor
Ġb oth
Ġ ent
Sh ell
3 17
Ġus es
! /:
A l
d ele
l n
Ġe vent
Ġs econd
C opy
T emplate
St art
D oc
Ġc ustom
7 5
7 48
pec t
Ġsh ow
j ure
C anc
at form
way s
Pr ior
ple ase
sub scri
Ġs erv
Ġpr oduc
Ġcorrect ly
Ġ1 2
co rrect
ing leton
Sup port
Ġ inv
Ġm issing
7 45
ed uce
ri ter
Ġoc cur
Ġ{ },
Ex porter
66 3
Ġ elasticsearch
Class Path
lib s
Fl ux
Ġ access
Ġb et
Ġcre ating
s es
Do Fn
$ $
Ġfin al
Ġtry ing
rec overy
I D
M gr
vis or
o me
gra ph
l ess
s end
ect ed
Ġdir ectory
Ġpart ition
ĠS erver
Lo ad
ateg y
Ġal ways
bo ard
ord in
E s
Ġ parameter
Ġs cript
O P
par e
pr int
5 14
List ableBeanFactory
Ġstart ed
R el
ver ter
ol d
integr ation
Ġt ask
11 1
ert ow
56 1
Ġfor mat
cont roller
Default ListableBeanFactory
h as
Ġ order
Net work
In v
b r
3 85
r en
r er
10 2
que ue
v iew
pr ession
5 64
me trics
av ac
ug gest
Provider Impl
isco very
en abled
pr ec
Gener ated
In itializer
action s
Ġfin d
con sumer
() `
com ponent
16 8
Ġpro per
Object InputStream
3 35
Ġin ter
Out put
] .
in ux
Ġcaus es
H el
b it
su m
Ġsu ch
lig ht
W h
con nect
Ġh and
c li
figu red
Configuration Class
t asks
Ġm ax
Ġwh at
e o
ent ial
es erv
ist o
Cont rol
Event Queue
Client Factory
Ġe ach
S uggest
T ER
io us
Ġm in
Configuration Properties
Aggreg ator
j o
so le
Fail ure
Boot strap
( ))
Ġ Task
Ġm ust
Re flect
run And
ĠN ov
n ow
od uce
H ub
Ġ please
em pt
Sh ift
L if
boot strap
pul ate
ut es
ol der
Ġm ap
Ad min
ToMessage Decoder
Ġh ow
7 9
C trl
an y
ri ft
ail s
Ġg roup
H igh
M er
time stamp
Ġreturn ed
Ġremov e
Auth oriz
Ġaut o
B ulk
Ġadd ed
map per
id er
pe ar
Ġwork ing
class es
itor ing
( ));
m vc
use d
Canc el
c hes
Ġ DEBUG
Ġ stream
1 12
scri pt
Mgr Impl
M achine
S ingleton
d bc
st anti
ĠĠĠĠĠĠĠĠĠĠĠĠĠĠĠĠĠĠĠĠĠĠĠĠĠĠĠĠĠĠĠĠ ĠĠĠĠĠĠĠĠĠĠĠĠĠĠĠĠĠĠĠĠĠĠĠĠĠĠĠĠĠĠĠĠ
Ġcon nect
UI LD
Ġrec overy
subscri be
W riter
ro ot
Custom izer
7 98
b az
Ġf unction
ĠC ould
Meta Data
Transl ator
X X
ver t
] "
yn c
Generated MethodAccessor
r atis
w ar
65 7
W arning
Gra dle
p ing
str am
Ġw indow
Ġsome thing
ir d
Ġst ep
Ġv ia
Syn chron
T er
Ġ parent
mess ages
tm p
im i
Ġerror s
Default Channel
-------- [
Lif ecycle
an alyz
Ġc ache
B UILD
ap plication
ĠĠĠĠĠĠĠĠĠĠĠĠĠĠĠĠ ĠĠĠĠĠ
Open Project
E S
G o
t able
Me tric
Ġa li
Ġget ting
is sues
Ġ1 7
Bean Definition
[ /
Ġne ver
JavaSource Accessor
R esources
boo l
Conn ect
S vn
Ġ available
so ft
Svn ClientFactory
Ġto pology
in iti
ig ger
act iv
A t
r l
**** ****
7 02
fl ection
DefaultChannel Pipeline
- >
9 4
pl ain
A fter
ch ild
18 7
project s
8 2
Ġ 25
ak es
Ġst ack
Out putStream
Ġ Test
es ent
Spring Boot
Ġab out
ec ho
po pulate
Http Servlet
clo se
## ##
Embedded ServletContainer
re store
per sist
Ob server
= ]
Ġre ason
h aus
Ġd id
El astic
ag ed
ĠP lease
M L
n imbus
code haus
stat s
BlobStore Repository
{ {
Ġcon nection
if f
Hint ProviderImpl
Code HintProviderImpl
ase d
ier arch
t a
Ġc alled
' ve
Ġ ERROR
f etch
iv er
ple ted
13 1
Java CommonTestUtil
Val ues
doc s
JavaCommonTestUtil Provider
D ate
ol v
Ġpl ace
Rest ore
7 11
7 86
util s
Query Phase
all ocation
Ġo ur
De ploy
Ġaggreg ation
D at
[ [
Ġ 64
Be am
Ġ Connection
LE TE
Ġcur l
[ ]
aliz ed
14 4
4 04
U N
r ot
State Machine
Location s
> </
c us
n ext
Ġ jar
Ġ /_
em o
comp ile
Stream Thread
Ġstat us
Ġchang es
Ġ ob
ack ing
C ON
ag gs
me tadata
of f
ĠH owever
ÂłĠ Âł
isto gram
iv ile
positor ies
F S
Ġ1 9
Ġcontain s
S QL
Ġ end
ut ed
Event Dispatch
EventDispatch Thread
S ocket
o k
v ious
Ġ1 00
bo ss
DE LETE
Ġmulti ple
Seri alizer
Ġap pear
Hel per
Ġ frame
Pr ot
Search er
On ce
8 3
t ree
Ġpro vide
imi lar
ag ing
Ġoff set
R ule
Ð µ
an alysis
Ġc lean
Re flection
80 91
n odes
T O
th rift
Ġw ere
Ġpr ivate
Dispatch er
Compilation Job
able Task
Parser Result
call ParserResult
Runtime Exception
ableTask Wrapper
callParserResult Task
A N
st arter
Ġs ingle
by tes
ÂłÂłÂłÂłÂłÂłÂłÂł ÂłÂłÂłÂłÂłÂłÂłÂł
OpenProject List
Cancel ableTaskWrapper
Ġab ove
12 3
17 3
ing est
Ġin put
Ch ang
P RO
k top
Ġ able
an k
Dir ect
ER T
v ant
li ke
get Valid
By tes
Over ride
ff ect
on Next
it le
pl ace
Rec ord
Trans action
Ġexec ute
() ,
Suggest ions
al c
run Hint
create Errors
Worker Impl
compute Suggestions
fire ChannelRead
runAnd Add
Ġ point
Ġ quest
par k
um p
Pr eserv
Ġ --------[
ĠT ime
De eper
channel Read
compute Warning
Do Not
Combin ations
scan DoNot
Go Deeper
populate Locations
getValid Combinations
scanDoNot GoDeeper
Ġdefin ed
Authentic ationService
d f
Transport Replication
Ġqu eries
TransportReplication Action
Ġin correct
il legal
Up d
z ookeeper
er n
ur rent
Ġw rite
ent ly
LE CT
l ocation
Ġ1 6
message Received
U rl
re actor
j boss
Ġmod e
1 10
B oo
R C
p hase
Ġsu re
6 17
actu ator
Ġlook s
Ġp ipeline
Ġde pendency
lip board
B ack
-- >
Ġf ull
end er
URL ClassLoader
Em p
Ġproper ly
Preserv ing
l ong
k ryo
Ġr esource
Ġb oot
19 2
Context Preserving
ĠM od
Emp ty
Gra ph
Iter ator
N etty
k ely
Abstract Pipeline
File System
Ġen abled
Inv ocation
Ġmapping s
SS L
Window s
j ackson
Ġ store
or ed
Ġle vel
J son
M em
Ġ Exception
Ġe very
ab ility
Ġre f
Le ader
Ġ 00
de ps
Ġ str
ast e
Ġb reak
op Type
E ach
Ġr oot
Ġ` @
Ġhappen s
o ter
Ġ cast
Upd ater
re plication
AAAAAAAA AAAAAAAA
persist ence
D ATE
o us
par ty
Index Searcher
t x
ro ugh
Ex pression
Ġn um
Ġtype s
Not Found
Ġload ed
tr ace
test s
List enable
/ /
9 65
O zone
b d
u me
7 1
Ġan other
param s
Ke eper
des ktop
Ġcurrent ly
Ġfin e
ĠSt art
17 2
sdk s
ĠN PE
Registr ation
Level Client
Big Query
I L
T M
pl ay
inter val
S core
W ork
' re
l d
Ġle ad
assign ed
Ġto ken
Ġprocess ing
pendenc ies
ĠĠĠĠĠĠĠĠĠĠĠĠĠĠĠĠ ĠĠĠĠĠĠĠĠĠĠĠĠĠĠĠ
Ġrele vant
Ġs imple
Ġli kely
c a
t db
To ken
++ ++
ol ution
pack aged
ĠH TTP
th ird
Ġ2 1
Stat us
group Id
High LevelClient
U L
Repository Updater
Ġthrow n
b a
Ġ Thread
Ġ assert
Ġ queue
Ġt asks
Con verter
Endpoint HandlerMapping
artifact Id
el ay
form ation
Ġt oo
Client Call
third party
W S
O ff
s ider
re positories
ĠC reate
5 47
] ",
Oper ator
c ent
anag ed
print ln
e ed
co unter
an a
Observ able
mov e
Bind ing
Ġ< !--
Servlet Wrapper
Ġ u
Ġ Ð
/ *
T I
i ate
declaration s
In put
In sert
Loc k
Ġclo se
T op
d ic
.... ....
ound s
qu ib
Ġpro vid
quib ase
in fo
con n
z ip
Ġ ass
pr otocol
Ġh ad
ug ht
u ch
st ack
pr ess
Fi x
m anagement
cur ator
Ġh igh
Ġinclu de
I V
m a
con figuration
soft ware
Ġ api
ation Exception
Key Value
Proxy ClassLoader
\ ;
r ange
t itle
com mit
plic as
49 8
our ces
Framework Method
Ġw rit
istr ib
B in
K ryo
Ġ messages
Reflect ive
Data Source
Compil er
Be fore
Com position
Ġremov ed
ĠMod ule
Ġ RE
Ġs cheduler
For ward
Kafka Controller
w rap
Ġ 2019
Ġre mote
Ġcom mand
19 1
L ine
Ġ V
Ġ lo
aliz ing
Sh utdown
Gener ator
Cluster State
it ized
Ġw ait
In bound
Listenable Future
H ash
I s
W ord
i se
cl us
pre fix
rec over
Rest HighLevelClient
chedule d
po se
Prior itized
De pendency
Ġexist ing
Ġtop ic
S pout
Ġl ong
Streaming Container
Str ategy
C P
P ack
Ġ fac
Ġactu ally
Es ThreadPoolExecutor
i k
co py
ith er
to ken
114 2
w kafka
up le
Ġw eb
]] ;
ĠTh ere
I R
N ew
Ġth rough
super visor
Node Action
Integ ration
" .
Ġ storm
Ġt ake
snapshot s
Ġatt empt
B ut
ierarch y
er tion
Ġw orker
N umber
\ ":
Ġ An
Ġo ption
ines is
clus ive
at ic
in clude
Ġw ell
Ġres pon
Ġ> >
B it
ex p
Ġth o
Ġdele ted
Ġmod ule
Ġupgra de
H ost
com mand
Ġ-- >
Th at
14 1
fa il
Call back
ordin ator
Ġ factory
in sert
re activ
Ġ[ [
Ġcom mon
Ġint r
we en
reactiv ex
s ide
es oter
qu ote
Ġre pository
ĠS ee
AT ION
esoter ic
10 7
andom ized
u ff
ing s
esoteric software
I gn
ur l
In ject
-- -
Ġby tes
Ġco unt
Ġle ader
Ġ2 00
shad ed
ig inal
ol t
Failed Exception
il er
Ġb ucket
ĠS e
To pology
dele te
c ause
Ð ¾
ic al
Ġt ext
0000 0
Met adata
Pr ivile
end ed
re packaged
pl es
Ġ app
ĠU P
a a
Ġis sues
Ġclass path
dd s
NotFound Exception
T omcat
Ġclass es
res ult
Ġclo jure
Combin e
Task Executor
Ġtime out
sist ent
Composition Unit
Ġs end
Test Methods
Create TestMethods
CreateTestMethods Hint
j avac
ate way
ac hes
Pr oduc
18 1
b b
er o
li er
ach ing
sel f
Ġref used
f ull
ss l
Ap pend
Ġme tadata
i ter
Ġ{ \
ÂłÂł ÂłĠ
r b
r el
at Map
eg ative
---------------- ----------------
ĠW eb
Ġl ast
ĉĉ ĉ
Ġrest ore
Ġthread s
Stat ic
Ch ange
C re
c lipboard
v T
Ġd ebug
Ġis n
Ġh ost
Ġp ull
AP P
per i
Ġre plica
Ġstart up
Ġagain st
Ġ very
] }
t w
Ġ el
Ġcon figured
pro xy
Ġme mory
c ustom
Ġd es
ĠĠĠĠĠĠĠĠĠĠĠĠĠĠĠĠ ĠĠĠĠ
En c
05 00
He alth
le ar
State ment
ĠMap ped
su ggest
10 5
Ġen vironment
Out Of
DO W
R oot
S cheduler
Ġdat aset
Ġign ore
Reflective Call
ject ed
ser i
exec utor
aut o
Ġexec ution
ĠModule CL
f ound
ex pected
gener ated
Ex t
Ġb ased
92 19
B reak
d ebug
Ġ ask
35 7
Ġchang ed
E RE
r iver
statement s
Ġp ool
Partition StateMachine
Ġbet ween
acking M
D own
Ġ 2016
Execution Exception
w ait
tr act
t arget
al id
com plete
Ġa uth
Ġre tr
col ator
Ġw ant
Ġcont ent
Ġali as
Mem ory
W E
m ust
m utable
Ġc ases
Ġex pect
kn ow
Transport Exception
ĠC lo
Recovery Source
vis it
V is
od ing
Ġcon sumer
he alth
ĠB ug
P lease
r ing
Re port
Coll ector
c i
auth or
Subscri ber
Ġreg ister
S chema
ali as
l ot
Ġwh y
Ġpr imary
op t
Ġj dk
auth z
x content
so me
ĠO S
335 547
335547 28
R ow
Ġpr esent
ĠT omcat
03 19
2019 0319
mit ted
A v
C H
v m
o y
t ook
Ġ know
Request Filter
dis cus
trans action
c aused
Ġ On
en se
Map TaskExecutor
2 66
S o
Con figu
Ġ VM
ACT IV
A D
o in
sh ell
Block JUnit
ab ase
ĠI P
unt u
Ġ fil
in ject
Ġd one
N ested
in ner
out ing
Component s
Reference Pipeline
S asl
par ser
00 01
Ġ` _
Ġh andle
MBean Exporter
t emplate
ist s
AT ED
arn ess
L A
12 1
34 0
Ġreport s
u ter
Ġ &
un ame
atch er
Ġfix ed
R T
b ug
y m
ab ly
and id
Child ren
N odes
m ulti
Ð »
be an
Ġrequ ired
Ġ 24
10 6
ĠUn ix
9 45
b l
In clusive
Ġpr event
pre pare
Ġspec ified
ĠSe arch
h al
i our
sh ould
stream ing
Condition al
Ġgener al
Ġ Object
Ġindex ing
Ġnot ice
Per RequestFilter
ential s
Once PerRequestFilter
j ust
Ġ mark
Ġ libs
Ġin formation
In tr
om ain
Ġtr ace
Ġrel ated
Clo se
F ind
sp ace
Builder Impl
Authoriz ationService
ĠS QL
Po licy
Ġme trics
empl ates
Ġ active
Ġ Elastic
con vert
ro ss
)))))))) ))))))))))
pl atform
Ġb lob
ader s
comp iler
Provid ers
Ġ_ _
ÂłĠÂłĠ ÂłĠÂł
SE LECT
iv en
col or
C oder
re qu
po sed
Dir ectory
Object Parser
T ab
at ches
Ġlibs vn
2 14
ic MapTaskExecutor
17 1
Ġrec over
ĠSt ream
ins icMapTaskExecutor
Intr insicMapTaskExecutor
IntrinsicMapTaskExecutor Factory
I P
as ync
Ġthe ir
trans l
": [
Field s
Ġdoc s
A ware
b al
ab bit
Ġcon f
Ġth ough
201 0
ĠW rite
Autow ired
6 24
= '
D tests
F ir
com pletion
IO Exception
Ġget s
handle Request
Ġ ext
it ive
ib ana
ath er
An alyzer
Connection Factory
Ġpre vious
olv ed
< !--
it ter
20 6
ĠS T
Test Runner
13 2
ĠN ullPointerException
Ġreprod uc
Su per
Ġ package
oc kit
am ing
ub le
Ġ= =
ĠB ut
ank s
ockit o
! !
C odec
m d
Ġ Engine
Ġlog ic
) **:
M y
Ġ X
Ġ Index
Ġall ocation
Gener ic
G oogle
Y ou
av ing
Ġ[ "
ĠT o
Ġl on
ĠA s
G rid
h dfs
Ġ ```
Ġle ast
Ġcon sider
de pendency
Val ve
ong o
Ġbro ker
10 8
IN S
11 7
Authentic ator
Ġtho se
con sole
ti ty
En tity
B C
S ON
f c
Ġm akes
Task s
Ġp ass
Ġexist s
discus s
iz ing
net work
pt im
Ġaut ow
w itch
Pr imary
Transport Master
34 8
Ġtr ied
Byte ToMessageDecoder
Lazy Collection
TransportMaster NodeAction
36 2
Ġbehav iour
Aggreg ation
. _
F A
Ġw rap
ĠW h
Invo ke
Ġexception s
Conditional On
f unction
ult ic
f ecycle
up lic
80 80
Web Container
ackingM odes
Ġ %
Ġex plicit
Stor m
analyz ed
V AL
r ink
for med
Th en
us ing
med iate
qual s
Ġlog ging
az on
57 30
Ġpo st
E ST
Ġ Environment
tr ackingModes
Ġb uffer
Pro vide
time d
to Inclusive
build er
factor ing
l ink
it Hub
und ertow
S cheduled
Ġ annotation
14 9219
17 8
lig ible
Ġsc ala
Ġappear s
Pack age
INS ERT
Z ookeeper
b ig
Ġ" [
Ġe ither
Ġ5 00
Spring JUnit
auth entic
OM E
H owever
Ġ appli
un k
pl an
15 2
valid ate
Ġneed s
5730 173
149219 5730173
9 201
en v
ut s
2 16
6 28
G roovy
in et
Ġoper ation
ix ed
ĠW indow
Ġg ot
ĠJ VM
Ġ3 00
Ġlon ger
J DK
t ask
Ġr ange
Con current
Ex pected
12 4
serv ices
Fl atMap
Ġinv alid
) `
B ounds
N b
S L
ter min
ab les
Ġs imilar
Ġco l
15228 04
Ġsupport ed
urrent ly
M M
d escription
l in
Ġ< <
Ġt emplate
Ġserv ice
be at
In it
13 6
ector s
auth c
Select or
trib utes
oduce d
Controller Event
Vis itor
Ġ Query
oc h
Ġs yn
Ġprocess ed
L inux
U P
c lean
e er
Ġ import
am ples
Search TransportService
ater mark
Ġcall s
G r
H andle
e ar
j dbc
l ast
Ġo w
Ġm er
mis sion
m anager
s ec
st op
iv ely
Ġon to
ĠM anagement
Data Object
SearchService TransportAction
Ġwith in
Ġfail ing
Pl ain
: :
H ere
Ġ z
gu ide
is ion
In stanti
24 1
common s
ĠN et
Set tings
Ġ Log
ar ound
ign ore
Ġh el
11 8
ib ern
16 1
By Key
res olve
ibern ate
s ample
t emp
Ġ variable
ad e
Ġs eri
10 1
G Q
W IN
y Y
Th row
}} ,
Version ing
Ġdis abled
H A
Ġ Components
ed is
15 0
Admin Client
ACTIV ATED
WIN DOW
Q Q
Ġs ort
ĠT CP
Ġper form
Ġcom pleted
Access Controller
Dele te
Ġadd ress
dev tools
S um
b f
s ort
Ġ !
ac es
Ġbro ken
H OME
u id
ro und
um n
ĠS E
ĠS et
Ġg eo
Off set
S egment
St age
15 5
Ġe ligible
114 9
full y
st ash
con dition
part ition
an ch
fl ush
Ġfail ures
T emp
h istogram
Ġs ecurity
low able
Ġad dition
M issing
U D
en ame
ĠĠ Ċ
0000 0000
Ġco ll
Ġj son
Annotation Provider
Ġshow s
P eer
T imer
s ocket
Ġ extends
Ġs ample
ext ensions
Stream s
Stor age
processor s
rup ted
Versioning AnnotationProvider
S olr
c aches
eg in
ro ker
00 1
19 9
Loc alizer
Comp ile
Network Client
Produc er
> >
â Ģ
Ġin ner
Ġbe st
ĠP R
off set
6 15
Ġ Ad
ar ed
st aging
Re try
Ġc b
Ġe as
ĠC aused
Ġtr igger
coll ect
Ġhand ling
Ġquest ion
10 4
ak ing
ĠS h
Transport Search
Ġ5 945
dir ect
n b
t ure
Ġsu ggest
D es
F I
H and
b ers
c alc
Ġt arget
Co ordinator
JUnit TestClass
U sing
` :
s or
wh ich
WE B
andid ate
g cp
k ag
for Each
re mote
Ġf etch
create d
Reflection Dispatch
CompositionUnit MgrImpl
s f
ĠĠ čĊ
ac ed
Ġp attern
Ġback type
j um
p ull
Ġ lock
Re fresh
43 19
Partition s
Ġ em
Ġ Up
Ġg roovy
sc roll
RO M
Select ed
. *
Ġign ored
A V
D escri
u q
Ġn et
Ġn ext
ro id
Ex p
pt o
Server Transport
H ierarchy
b row
Ġ Runtime
)))))))) )))))))))))
Ġre try
Queue d
oper ators
p ump
s imple
Ġs ocket
Ġc lear
time out
Ġap ply
Pl an
dispatch Event
mis c
e ive
pr ot
11 6
Lookup Providers
Lazy LookupProviders
Ġframe s
j mx
per form
be fore
ĠĠĠĠĠĠĠĠĠĠĠĠĠĠĠĠ ĠĠĠĠĠĠĠĠĠ
) /
S O
c b
Ex ten
Ġup d
Ġk af
OutOf Bounds
N ote
Ġr a
an on
Ġs olution
get Bean
ud it
From Repository
Ġ14 4319
kag od
Ġkaf kagod
Ġ dec
Ġ stor
Ġr unner
re q
is match
Ġar ound
str oy
se mb
34 6
pend ing
Ġstart ing
Exten sion
u ally
Ġ Integer
class path
Ġde prec
Ġde pendencies
Ġl oop
reg ex
Dec lar
Ġ[?: ?]
C S
s ystem
co me
pr ivate
Ġre ference
Ġpr ocessor
Sco pe
p assword
Ġ Request
mod e
bin ding
su me
Abstract Nio
Tr y
Ġe qual
Web Server
Subscri be
A ED
i eld
ce ed
Application Listener
ĠH i
Ġhe alth
initi alize
bal ance
B E
po ll
In ner
C O
R ae
e f
z It
z br
ac s
et ails
Ġre fresh
Par Do
to String
Internal Engine
Ġdir ect
Select Word
tm acs
go ing
jum pto
AED zbr
zIt A
SelectWord Action
AEDzbr Rae
C ast
F in
d i
ate st
Ġre fer
Ġm an
Ġpr int
Ġp ut
Ass ertion
> <
b ing
am l
Ġd escri
Ġ} \
Bean Registry
artifact s
Ġn or
pr educe
rup tor
OutOfBounds Exception
c f
g od
x my
66 66
Ġsh utdown
Authentic ation
2 34
W atcher
d t
w indow
Fetch er
yy yy
uff le
Y E
me mory
ac cept
ad cast
Ġs elect
Test Context
Com mit
17 5
Par ameter
152280 5
cm uq
Ġstat s
RequestHandler Registry
yY xmy
sf vT
cmuq QQ
yYxmy RT
> )
P ers
r anch
11 9
end or
out put
enc y
Command Line
v ar
C OS
p ipeline
li fecycle
re plicas
Task List
File Indexer
ĠĠĠĠĠĠĠĠĠĠĠĠĠĠĠĠĠĠĠĠĠĠĠĠĠĠĠĠĠĠĠĠ ĠĠĠ
top ic
Copy Resources
Synchron izing
COS Synchronizing
TaskList Indexer
CopyResources Indexer
COSSynchronizing Indexer
S pec
U E
h dds
Ġ lar
Ġ Bean
av g
Un ix
Query Parser
Ġen counter
Cre ationException
A C
M P
in c
ti al
sure fire
Ġproduc er
Ġdo ing
UT F
reg ister
ĠA r
Default Singleton
Ġob serv
Forward ing
seri alizer
DefaultSingleton BeanRegistry
" ]
C aching
T R
Ġ )
St ack
Ġo ld
Ġf ew
Ġc ap
Client Request
Prioritized EsThreadPoolExecutor
Ġm ost
Ġ2 3
Set ting
Privile ged
2 13
Ġ Run
Ġ Version
Ġo mitted
Trans log
Write Files
Ġ position
Ġsu ccess
Ġinst all
C ore
p n
Ġh andler
32 6
Ġtime s
ĠD o
Ġspec ific
Constructor Resolver
coll ection
rot t
found ation
Ġnotice d
str uts
Ġon ce
log stash
Hash Map
Ġ character
Ġ term
ig in
Ex ample
10 3
Context Loader
Ġse em
Ðµ Ñ
Ġp hase
Index OutOfBoundsException
Ġtime stamp
Annotation BeanPostProcessor
Ġtrans action
Bin ary
! /
F ork
j i
Ġ Class
Abstract Google
cont ain
trib ute
N on
x n
ment s
ob ably
lo ver
Ġ[ {
Ġm ixed
19 5
anc er
R x
d x
Application Event
Ġl ocation
Ġch ild
ĠA fter
Ġmethod s
Ġver sions
Logging Handler
WebMvc EndpointHandlerMapping
Ġoccur s
H it
y ml
UT C
Ġme ans
Ġadd ing
Count s
Stat s
Ġlist ener
Act ive
big query
d v
e On
Ġ es
Ġ UR
re t
as sed
il t
Exec uter
Test Execution
pos ite
ĠB Y
Ġy et
ĠIP v
Pers ist
T cp
g l
u ilt
Ġt otal
Ġc r
Ġc aused
Ġco me
filter ed
Ġun til
ĠO UT
Master Service
Ġgu id
p attern
r andomized
Ð °
Ġ catch
Ġd isk
ist ory
Application MgrImpl
load ing
Time out
Ġgener ated
dic ator
ClusterState Service
randomized testing
D F
d hal
s afe
Mon itoring
DO OP
Ġappli ed
dhal peri
f un
Ġ ke
et c
Ġd escription
Th anks
De f
Ġli mit
Al so
ĠWrite Counts
Tcp Transport
2 12
X ML
c ase
e k
Ġdet ails
Ġautow ire
on t
Ġs egment
ĠS o
13 8
Ġreport ed
Sql Session
PRO C
st all
Ġ" {
Single Thread
EN T
15 1
Event Executor
Ġl ength
ĠA l
Ġtr ies
Ġprovid ed
Inject or
E valu
I M
Ġ unit
in put
Ġd ynamic
Ġ' {"
low er
ĠF ROM
Synchron izer
istrib uted
C ase
T AB
Ġs ay
fin ish
Ġatt ached
ma preduce
A Y
Ñ ĭ
Ġit self
16 2
66 8
Ġcaus ing
======== ========
Ġfac t
HA DOOP
e a
ap is
Ġm any
aw s
ĠG ra
P ublish
od ed
Ġoper ations
Bean CreationException
Group ByKey
ReflectiveCall able
" ).
: $
d ertow
list ener
29 9
Manager Impl
Jar File
B ucket
d ocument
t ual
ent ion
el ines
Ġan alyzer
Ġfilter s
Ġguid elines
J s
st and
26 8
As semb
Ġar gs
Ozone Manager
) ]
3 00
M o
S lot
g ist
Runn ing
Ġ7 3
C OM
Ġs ign
Ġh owever
WebApp FilterChain
transform s
ape x
Indices ClusterStateService
ContextPreserving AbstractRunnable
2 30
F s
I Z
d emo
Ġ Con
Ġ parsing
In dicator
Ġm ade
Ġupdate d
sh ow
A X
on ym
Ġw ire
Ġf oo
Com pletion
sing le
ib ility
ĠG itHub
Ġintr oduced
20 7
Ġre ally
clu ding
sub mit
Ġspec ify
Remote TestRunner
P RE
Ġ cl
Ġ beans
Re qu
Initi alization
Operation Action
Ġwait ing
D omain
M ismatch
b uffer
t on
Ġ ÂłÂłÂłÂłÂłÂłÂł
20 2
Ġex p
25 6
process Selected
watch er
Ġdefin ition
Mer ge
ĠAr ray
O ps
Ġname d
Ch ar
Ġse par
Ġme tric
Boo lean
l ength
Ġr ather
ĠS erv
13 7
Channel Impl
Fl ink
Fir st
anon fun
C red
Ġ action
Ġ lib
Ġ... \
/: ?]
3 37
M ock
P ort
h ash
t t
Ġs mal
erv ed
14 6
Ġp assed
Ġus ers
O F
m t
Method Name
Event s
Ġor iginal
Ġdocument ation
Dataflow Worker
Ġrele ase
Monitoring Util
K A
M X
R P
g ers
h igh
st ead
Ġb ulk
18 4
ph u
Rest Controller
Ġrec ord
Ġim mediate
Sco ped
plugin s
br and
L i
d iff
v endor
y s
y ote
on ly
an ode
ro adcast
Index Service
26 3
Gr pc
h l
ans w
pro files
Ġh aving
13 3
19 7
ĠUn able
Ġsub scri
dv phu
Persist ence
processSelected Key
dvphu Fi
C md
Ġ De
co r
ac le
ack now
ĠI D
En h
Object Mapper
Ġrec ords
mer ge
Ġoff sets
Insert Break
acknow led
InsertBreak Action
L ib
Ġ $
Ġ 34
Shard s
ĠC urrently
res ponse
Fetch Phase
Ġel se
3 64
= >
ec ker
mod ule
Action Filter
16 5
Query Parse
15228 10
Ġimplement ation
Health Indicator
Ġexplicit ly
Enh ancer
3 25
P age
s econd
t ab
Ġin side
12 5
Im port
out going
sc m
gr ess
valid ation
ateg ory
1 15
C ATION
R ol
Ġb atch
ir es
Ġus age
36 5
Message ToMessageDecoder
Security ActionFilter
Assemb ly
M ultic
y arn
Tr ace
do Get
34 9
Ter ms
type s
or m
or ing
iv es
20 3
Re plica
Ġ0 8
ĠM y
36 3
Ġvalid ation
N D
ic ro
Th ere
fin al
Ġp age
Or d
EN TER
Ġow n
N ull
Q U
t imer
Me ter
Ġun expected
start Recovery
Ġ+ -
Version Command
Iter able
2 35
a fix
a emon
m m
Ġname s
Ġt imer
ali ty
get afix
Com plete
30 5
90 92
war m
M anaged
p aste
p och
Ġ And
Ġ loader
po und
run Child
ĠI O
Ġpr ot
art beat
col ate
\ ",
d ynamic
f aster
Ġ par
su ms
Ġw arning
Ġ[ ],
Ġcom plete
faster xml
d en
In to
ri x
Ġcall ing
b ut
i an
r al
Ġ bind
Ġal loc
Remote TransportException
Prot ection
Cast Exception
Ġ 30
Com ple
ĠN ot
Ġjob s
WebMvc AutoConfiguration
Ð» Ñ
/ '
S ample
c d
o ptions
Ġ sup
30 1
Collection s
bucket s
C G
C lean
S ec
Ġh its
do Privileged
Ġco py
Up stream
Append er
Requ ired
Multic aster
W ire
da y
om atic
11 3
Ġallow ed
: **
Ġ vari
Ġ terms
li e
con nection
Ġm uch
sh utdown
sh ape
17 4
Res h
version ing
Par DoFn
Ġe ffect
Ġreturn ing
Add ress
Observ eOn
Chang ed
ĠWindow s
2 33
N AM
o ad
Ġd ay
Ġpr obably
do Execute
Ġres erved
Ġg iven
Ar ch
oble ms
Result s
sl f
T Y
it u
Sp liter
ĠStart ing
ClientCall Listener
Down load
Forwarding ClientCallListener
. $
Ġ ,
St op
vel oper
Ġde ploy
Ass ign
Ġcomp ile
]} "
Ġ[ .
Ġ} '
Se qu
On Assembly
Node Client
Ġexec uted
tw itter
JUnitTestClass Executor
Ġke ep
SingleThread EventExecutor
= {
b untu
i ally
k i
Ġ binding
er se
par ql
lock s
Ġre pl
Ġ` /
Ġ0 7
Transport Shard
web app
Conn ector
ĠO K
ĠRE ST
D iscovery
S P
c um
u lar
Ð ½
type Mismatch
he ther
Ġrun s
Message Hub
over flow
Control led
Compiler Options
Comple table
l at
l auncher
m q
Ġ enc
Ġ 2017
30 6
On Bean
ĠO pen
Ġneed ed
Ġtrans form
Ġencounter ed
N U
T A
m o
Ġ comment
Http Inbound
ĠJ DK
Ġ4 00
eri alize
dat as
LI B
++++ ++++
press ed
HttpInbound Link
Ġ Y
on nect
et a
ap s
88 8
Ġsp ace
Ġassert That
P B
er ic
st andard
Ġcon figure
ir tual
12 6
Plugins Service
IG H
CON F
AAAAAAAAAAAAAAAA AAAAAAAAAAAAAAAA
m c
14 0
ĠF ail
Ġwork around
Ġfin ish
":{" _
Ġcre ates
We ight
":[ {"
Ġsuccess fully
Ġ"{ [/
erse y
Controlled Shutdown
R educe
Ġr ed
Ġle ak
Ġb it
ain less
Recovery Target
Ġrec eived
produc er
Bund les
O p
d iscovery
con sistent
Ġpr oblems
log s
Ġg re
Ġstart s
ĠU sing
Ġopen ing
Ġcol umn
F use
s parql
field data
ari es
av as
po inter
13 4
ĠF A
27 1
car rot
Doc s
" ));
7 64
Ġ score
Ġ Observable
ec ess
od ay
add ress
Sp ot
Transform Hierarchy
pn g
avas cript
4 05
j s
t bd
Ġ gradle
ic t
ple ment
Factory Bean
Key OutputStream
WARN ING
before Lookup
CompilerOptions Query
` )
o auth
per Key
Class Def
ÂłÂłĠ ÂłÂłÂłĠ
On Class
Invoke Method
carrot search
2 38
Ġ etc
an gu
sh rink
ÂłĠÂłĠ ÂłĠÂłĠ
Ġunder stand
B olt
C ur
ce d
Ġbe lie
ĠF link
Ġres olve
OnClass Condition
M ongo
Ġn egative
Ġr ow
Ġoper ator
Ġs ide
Ġm wkafka
13 9
17 7
Par tial
ĠW ith
ip c
ĠH ot
******** ********
HttpServlet Request
Throw able
S ink
[ \
t ra
Ġ Beam
Ġcon n
Ġw hether
Ġs ession
ĠĠĠĠĠĠĠĠĠĠĠĠĠĠĠĠ ĠĠĠĠĠĠĠĠĠĠ
Assertion Error
CG LIB
Resh uffle
D ynamic
f b
r abbit
ob uf
po licy
Ġc ert
um s
Filter Manager
35 8
Stream Task
Ġcheck s
back up
transl ation
5 19
L ength
Z one
Ġ assigned
od et
Ġ{ }}
Ġinterfac e
ph p
Parser Manager
ior ity
ĠL ucene
Ġac cept
request s
Ġpartition s
Dispatcher Servlet
doGet Bean
OnBean Condition
ClassDef Found
K E
Ġr ol
ĠI s
wh ere
Ġde pend
Ġ5 0
WebApp FilterManager
tx t
/* :$
ParDoFn Factory
ClassDefFound Error
ate ly
im ps
bo x
Tr ident
stor age
13 5
Ġ2 8
Valid ation
j dt
m ore
Ġ creation
in stanti
Ġin ternal
quest ions
Ġp ick
En try
Ġe ar
to pology
152280 8
Copy Action
........ ........
Ġhel p
ĠHot Spot
. "
h old
Im plement
ĠC an
job s
Ġbreak s
Ġnum bers
H ERE
m wkafka
re move
Ġb ad
ound ing
error s
ĠJ MX
ĠG roovy
Pipeline Translator
Kafka Consumer
Ġrespon ses
' )
Ġ Application
Ġ List
ess ed
ex ists
ri es
38 8
Parse Exception
Av ail
Ġlar ge
oc ating
str ach
struc tion
af ter
15 4
Deploy ment
Top ic
RP C
instanti ate
strach an
Ġ graph
Ġs sl
doc ker
FilterChain Proxy
He ader
Ġsecond s
F lowable
j strachan
} ,"
Ġ UTC
method s
27 0
ĠB uild
new Instance
Configu rer
j vm
Ġ super
al m
ra g
uc cess
fore ach
Mer ger
#### ####
ĠClo ud
D S
I C
t ax
Ġ invo
pr imary
pl ex
Ġm anagement
15 6
38 2
Open ed
He ap
Ġstep s
EmbeddedServletContainer Factory
UL T
) }}
o unt
Ġs ec
Ġm is
** *
14 5
19 6
En able
-------- ----
Field Mapper
MBean Server
Ġbet ter
Ġdid n
Ġimmediate ly
C andidate
R andom
a h
w rit
ac y
Ġindex ed
ss ue
Ġkey s
de ploy
35 3
Ġg s
Config Endpoint
ji ra
Fuse able
d entials
g round
ac ema
annot ate
Ġo ptions
15 3
ĠJ SON
Ġread ing
Ġwrit ten
acknowled ged
acema ker
8 98
H TTP
k inesis
m k
m ockito
ex plain
Ġw on
Ġs pout
In valid
Test Case
Ġp assword
time s
Ġsh ut
Ġclo sing
Su ite
Network s
Fs BlobStore
X T
Ġobject s
Ġm aven
aliz able
24 5
Request Mapping
35 1
Field Data
Ġver ify
Ġhe ader
Descri ptor
Ġbelie ve
" ;
< ?
A m
C K
S ort
a per
th ough
iz able
ra se
ro u
Ġt emp
Ex cluding
create Bean
66 2
Link ed
Ġstop ped
Keeper Exception
ĠNet Beans
Excluding Lookup
G E
Ġ boolean
fi ler
Ġin cre
il y
20 5
Ġf ree
Abstract Queued
22 5
Ġp ublish
google apis
check sums
uplic ate
Ġaddition al
ĠAd ding
TestExecution Listener
AbstractQueued Synchronizer
3 34
3 02
C M
L ong
u z
Ġf older
ĠS tor
Ġh it
Abstract Client
RE D
16 0
Open JDK
Ġpre fix
Ġserv let
Bulk Action
brow se
M illis
en ces
al le
Ch ecker
19 4
48 6
ax ed
Ġset s
29 0
114 8
Ġcheck point
Ġac count
Ġhe ap
Ġdet ect
bl ue
Ġ! =
M ode
P L
P aste
d r
Ġ expression
14 2
Class NotFoundException
Par sing
spec t
An alyz
No ClassDefFoundError
Ġload ing
Sco rer
Authoriz ation
ik ari
rupted Exception
Ġdirect ly
ApplicationEvent Multicaster
Paste Action
4 03
w in
Ġ ingest
en ari
qu ire
tr actor
ĠI llegal
Result Handler
b ad
i ent
o x
Ġn imbus
le ep
Ap ache
19 0
Ġe poch
Ġco rr
28 6
Ġun able
project api
Ġag gregations
Cluster Service
Ġsub mit
View Resolver
Ġinvo k
P h
Rest Template
Ġactu ator
post Process
BeanPostProcessor s
Ġ integration
Ġw ho
Re f
IN F
34 2
Ġres et
On e
stack overflow
KeyValue Store
RecoverySource Service
Peer RecoverySourceService
serializer s
3 10
de fin
ĠH IGH
ĠL inux
Ġaut omatic
x d
il es
Abstract Channel
internal Do
comp at
we ight
doFilter Internal
Ġparse d
DoFn Runner
Ġquest ions
Ġlo st
Ġdeprec ated
QueryParse Context
internalDo Filter
on Failure
if fer
ĠT R
Ġpo licy
ĠSt ate
RO UP
analyz e
) *
D elay
G u
S ources
in ation
or es
ch ange
Ġ1 92
Serv ices
Handler Method
Filter s
ĠM aven
Ġtest ing
Ġent ry
Reflection Utils
Back ed
Fork ed
Ġ params
re active
ot a
Con figure
Re aper
Se e
cat Map
Ġtest ed
produc t
Sub ject
recover FromRepository
A Fn
H P
j shell
s itive
Ġ[ -
Exec utable
Context Impl
Ġcheck ing
Property Source
Wh at
: *
J oin
S ender
h ere
ali ases
Ġby te
ĠB y
mat rix
Ġtrans log
Ġendpoint s
Ġevent s
D FS
g en
s n
s chedule
Ġ 32
gra de
ĠĠĠĠĠĠĠĠĠĠĠĠĠĠĠĠ ĠĠĠĠĠĠĠĠĠĠĠĠĠ
Ġex act
cont rol
mon itoring
Ġpro xy
Ġl atest
Accessor Impl
Query Action
36 8
Http RequestHandler
Mono FlatMap
Ġupgra ding
Ġfl ush
Deploy ed
Boo ter
Ġattempt s
AbstractGoogle ClientRequest
Mo jo
= /
A li
M in
R edis
V irtual
Z oo
Ġ Add
ly way
17 9
66 5
Ġcont rol
ee k
Su ch
BeanDefinition Reader
A CE
H arness
] )
g b
p lier
u ator
Ġ embedded
id x
Ġs impl
20 4
sh ake
Ġit ems
log back
Transport RequestHandler
66 6
34 1
bound s
Mvc Endpoint
Dataflow PipelineTranslator
Dat aset
Enc oder
rou ped
Forked Booter
Zoo Keeper
B ug
M aven
p ted
t ag
u uid
Ġ IndexShard
li x
ac ity
con sume
it es
Ġh ang
25 0
25 8
main ing
Le af
Ġsc roll
' "
C annot
c z
r ules
Ġw ildcard
Abstract Http
ist ics
support ed
18 6
DE FA
ĠG ET
Ġbec ome
Valid ator
DEFA ULT
: [
J C
V ER
m issing
ent ity
an el
Ġcon ver
Ġm ov
24 4
16 7
66 7
ĠC ON
ĠN OT
30 8
Response Handler
Servlet Initializer
ĠD at
Blob s
provid er
ĠFor ward
Protection Domain
Avail able
( _
E quals
s pout
cre en
ur ation
Ġw atermark
Search Hit
Ġit em
22 8
25 7
Ġch annel
Ġ4 04
Or der
map ped
Process ing
has Next
Connect Exception
Rule Executor
Ign ite
Ġupd ates
p li
r ession
Ġ declar
Ġ PUT
Ġ 2014
ag er
12 9
15 9
Ġset up
Set up
XContent Builder
Match er
jo in
J mx
K rb
T im
T eam
W ords
g dx
Ġ ----
Ġle t
IN T
25 2
Ġse ver
Node Table
Ġrec onnect
99 9
Single Observer
Ġlead s
ĠGra dle
2 20
F older
J avac
S uccess
] ","
y es
Ġex it
set up
22 9
37 3
ĠN imbus
26 2
OR M
clo jure
Rest art
ĠD ate
Base Future
With out
eri alizer
Constructor AccessorImpl
Ġnet work
f fi
ch e
Ġs witch
Con stant
Ap i
ĠF ix
ĠO r
Annot ator
conn ector
Unix Exception
j p
ele d
Re active
Rec ords
## #
It ems
Ġmatch ing
Start up
CONF IG
( (
S end
c ceed
al low
pr oblem
re po
Ġb ranch
Ġm a
14 3
Oper ations
67 0
97 2
Ġac ross
Clo ud
Prior ity
()) .
Invocation Handler
ca ught
ecess ary
2 17
T ra
f d
k ia
Ġr andom
Ġt ra
16 3
ĠF oo
Ġse en
handle Response
Ġclient Id
Annotation Config
Ġsc enari
TI M
2 39
3 16
9 56
M ut
P ut
b eta
p ool
} ],
Ġ Client
Ġin fo
he ader
15 7
Com posite
Ġl ink
35 0
ĠA t
It em
Sql QueryAction
Compilation Unit
ConfigurationClass PostProcessor
SpringBoot ServletInitializer
Ġretr ie
Ġsmal l
L aunch
U S
ac ker
ti li
Com pound
Elasticsearch Exception
Ġtw ice
Ġcre dentials
Ġproduc es
4 24
7 00
t ool
re factoring
Ġs ent
45 8
ber os
Ġimplement s
Ġauth entic
author ize
A IT
X DELETE
g ate
co yote
Ġr outing
hes e
lo kia
Ġa void
lic k
Ġm s
Ġinter val
Ġsepar ate
O ptim
q a
fi li
))) ;
el lo
Ġre pe
Ġm on
ĠSystem Out
clou dd
15228 11
Ġlook ing
Simple ApplicationEventMulticaster
Snapshot s
Ġgo ing
Act uator
Restore FailedException
Tab Action
pump Events
Completable Future
tili ties
J Shell
\ \
l aunch
r aries
at ter
ex clude
ul ner
log ger
LE D
Index Action
18 8
Default Build
UR I
Ġfix es
Dat abase
uz z
J ackson
v ed
or b
el og
ic ate
struc t
Ġ1 27
af fili
Ġcom bin
28 8
Fail ures
Over flow
Enc oding
Compile Static
- *
M aybe
[ -
t un
Ġ supervisor
an is
ra w
Ġt able
14 7
ĠF ound
30 7
Ġshould n
Ġfl ag
Ter m
Sasl Transport
ĠWh ile
AV A
B roadcast
O ption
U tilities
gu lar
ac ing
ic ally
ur ger
Transport Future
Ġres olved
ConfigurationClass Parser
ConfigurationProperties Binding
Super visor
. )
R pc
a ir
h ibernate
~ ~
iv ers
00 6
ĠS ome
16 9
Elasticsearch IO
Recovery Action
Message Received
Ġen ough
xx xx
ClientCall Impl
cent ral
Ġhigh light
Plain TransportFuture
ConfigurationPropertiesBinding PostProcessor
M ax
S afe
T H
g t
id den
Ġb ound
17 6
24 3
all Items
Ġl ess
Ġrec eive
ĠSt ack
Sql Script
Sco res
isco ver
Ġgo od
WS WebContainer
Sum Team
SumTeam Scores
U se
u red
pec ting
Ġcom ponent
log ic
34 4
ĉ Ċ
Ġ En
re try
Ex port
ib ly
39 5
Ġen sure
res pon
Annot ated
Ġiniti alized
Temp File
T S
k ibana
at tributes
Ġin dic
pro perty
get Property
24 0
27 4
Po int
Ġsu cceed
event s
Ġplugin s
Ġrequ ires
command s
Ġregister ed
ĠStream s
Evalu ator
cor ding
D river
M anagement
P U
n one
Ġc odes
ĠS top
25 3
18 2
Ġv iew
Ag ent
Date Time
ruptor Queue
c s
v orb
z en
Ġ Config
Ġ Try
en vironment
co un
Ġcon sist
Class CastException
Ġan alysis
25 4
Async Localizer
Spring CGLIB
Ġap pend
By SpringCGLIB
ff ff
Ġresult ing
Ġqueue d
processSelectedKey s
" },
R B
R ange
Con catMap
Run After
Request Interceptor
DE ACTIVATED
Ġj oin
Ġinst anti
Block ing
Ġatt emp
rup t
Ġallow s
Ġevery thing
warm up
Implement ation
vorb urger
3 36
M B
d s
r ule
oc eed
up per
Handler Adapter
Com par
47 3
(" /
Pl anner
user content
we et
Ġiniti alization
send Response
Arch ive
a ught
b roker
Ġs asl
Ġf uture
66 1
Dis ruptorQueue
PostProcessor Registration
ock s
find Class
Ġcommit ted
UL L
datas ource
affili ations
PostProcessorRegistration Delegate
c el
d ll
loc ate
20 9
run ning
ĠI DE
22 6
thread s
Servlet Handler
56 2
152280 6
Mar k
DB C
Ġent ries
god ot
3 12
H I
a ker
Ġ char
Ġ url
Ġre view
ĠS MP
Un safe
37 4
ĠB ig
Name s
IT H
Framework Servlet
Li quibase
4 22
4 01
A F
G eo
L atch
S n
V ERT
g es
bin der
ap pend
Re turn
lab eled
end ing
Ġcont roller
res hold
Gener al
ON E
ward s
Rel axed
Ġfil l
Ġconsider ed
( {
2 19
> ()
H ook
N PE
T Operator
T uple
i CL
block ing
Ġo ptim
Ġs ense
pl um
Ġre place
() }}
Res izable
29 7
Http Client
Ġno thing
Ġen able
Command line
ili ties
Model MBean
Es Executors
Insert TabAction
Scheduled ThreadPoolExecutor
ControllerEvent Manager
Ġcorr up
cloudd fe
iCL S
plum bing
Resizable Array
D IR
v ance
con f
ro p
Ġth ings
Ġm ig
red is
80 81
Async Single
Ġme an
ia Type
des c
Ġopen ed
Integration Test
Autowired AnnotationBeanPostProcessor
AsyncSingle Action
3 03
3 39
5 05
C li
M T
en ka
se e
16 4
Ġde v
ĠC annot
ĠN ode
36 0
67 1
Ġover ride
Registration Bean
uch base
Ġcert ain
2 85
D istributed
at al
am azon
pro ve
ĠS ingle
ĠS SL
do Create
Java Bin
Ġl ater
28 7
Wh ile
Chang es
Ġwrit ing
VAL UE
Analyz e
) {
V ERE
o ute
loc alizer
Ġex tract
AT H
User ParDoFnFactory
Ġexec uting
Seri alizable
Ġbuild er
Required ModelMBean
3 11
3 13
s park
y me
Ġ ip
uc k
Ġd i
Ġpr ec
Ġl ot
Ġadd s
Ġover rid
Ġi ter
2 65
8 92
U C
r and
â Ķ
Ġ ident
Ġ 39
Ġ library
ex port
vo l
Ġt akes
ol ver
Ap ply
Ġwe ek
base d
UR CE
Ġap pro
ĠD AY
build s
Count Words
Ġcontain ing
Fetch SearchPhase
Net Beans
go enka
Ġstack trace
Ġeas ier
Parsing Exception
" ))
9 14
> ();
G ENT
I LED
J dbc
R outing
le af
con figured
ur i
act ed
Ġh ard
Service Impl
web mvc
ĠL e
Ġany thing
group s
3 27
Ġ 04
Ġ low
qu eries
Ġt ag
use ki
Ġs kip
Ex ists
lic ense
ĠS ince
22 4
17 0
Ġp ic
27 7
Ġtr ansport
github usercontent
ĠG NU
process TestClass
]] ]
No Such
master Operation
He aders
Ġoccur red
Ter min
SO URCE
ĠServ let
cum ul
ĠFail ure
S witch
Y W
l on
{ }
ot lin
Ġt ell
sh ip
ĠT O
execute QueryPhase
Ġdoc ker
Str uc
Ġconn ector
yme leaf
: -
H ead
d iv
w ise
Ġ 201
Ġ Local
Ġ BeanPostProcessors
Ex tractor
Fac tor
Transport SqlQueryAction
Internal SqlScript
Mapper Service
Ġcomp at
Syn c
proxy ing
Ġmark ed
Ġreproduc es
Ġcoll ection
Scoped Handler
/ >
3 15
3 04
P assword
t v
ac quire
Factory Method
Un dertow
30 9
OR D
Base d
Ġrel ocation
solr j
"} ,"
Prot o
ĠUR GENT
Ġautomatic ally
doCreate Bean
= <
C an
C Url
j avascript
m bean
s ection
t weet
w j
x er
Ġ argument
ation Delegate
th on
Ġ" /
Ġs ources
est ination
Ġf ar
201 326
Abstract WebMvcEndpointHandlerMapping
14 9
Ġpr oduce
Ġp ot
37 2
Object Connection
Worker Harness
Ġtr ationDelegate
Connection Link
Location Provider
Dataflow Batch
BeanPostProcessor Checker
Shell Session
Ġhand led
SSL ConnectionLink
WS CUrl
fail ures
iter ator
Package Util
Nb Editor
Persistence LocationProvider
MessageHub Backed
201326 888
DataflowBatch WorkerHarness
WSCUrl Filter
MessageHubBacked ObjectConnection
E M
c g
l t
iz ation
ch anis
Ġs en
Ġm aking
An alysis
On Error
Ġsome times
PRE SS
_ |
g ateway
Ġ ide
od a
ĠS p
Context Customizer
27 2
Name d
Config Properties
Ġpl atform
aus es
Get Children
Ġsnapshot s
TE XT
Ġtop ics
Ġass ume
GetChildren BuilderImpl
) [\
C ached
F ull
H its
N um
S V
U RE
d escri
d etails
j re
Ġ statement
Ġ" @
Ġs itu
file store
36 9
Sh ared
76 9
answ er
Ġsever al
E mit
Ġ est
ent ially
for es
re plica
ot i
ad just
Ġs olve
Be fores
Run Befores
Ġcom put
pa y
92 73
Ġde f
29 8
BeanFactory PostProcessor
Ġsh ort
Sc an
Simple Channel
Ġrequ ire
dispatchEvent Impl
Ġalloc ated
F ollow
N ow
h arness
i que
Ñ Ĥ
ch ang
un mapped
)))))))) ))))))))))))
Ġb und
ack ed
ĠS hard
Pro file
ub untu
Ġcom pletion
pos able
Ġrun time
ipe lin
Server Call
Ġgo es
Elastic Search
plan ation
ipelin ing
3 18
S ide
V ar
b egin
e aced
g it
s ol
u LA
Ġ Recovery
par ed
Ġr ace
per colator
Ġin consistent
ĠI m
Ġcom ple
ure ka
03 519
ĠC or
Ġse m
not ify
152280 7
Result Set
Ġqu ick
Ġconnection s
346 03519
Js Y
General Action
InternalSqlScript Utils
9273 34603519
eaced b
uLA JsY
" ],
. /
8 36
T ie
f y
s ively
se ed
Ġelement s
Ġre plicas
Ġm anaged
Ch unk
Ġpr otocol
Com pleted
66 9
URL Connection
Ġfilter ing
Ġnor mal
Cred entials
NAM E
4 38
> ]
m ock
n s
Ġ Dataflow
th at
ab ind
re f
re jected
Ġo k
Ġs im
read Object
Ġm aybe
ĠS ub
24 7
ĠP M
clo sed
ĠG ROUP
start ed
114 5
down load
Window ed
Ġbucket s
rott led
c an
j ms
me tric
Ġ1 000
Ġex clu
18 5
33 1
For Partitions
99 99
Ġdele ting
dat abind
Ġblock s
Multi part
Format Exception
AB LE
Ġcr ash
R andomized
h ot
Ġ actions
im cz
ro ken
IN IT
AS S
Channel s
Index QueryParser
48 7
Servlet WebServer
ĠP OST
23 1
Field Serializer
JUnit Core
from XContent
Byte Channel
=[ ],
Ġfl ink
ÂłÂłÂłÂłÂłÂłÂłÂłÂłÂłÂłÂłÂłÂłÂłÂł ÂłÂłÂłÂłÂłÂłÂłÂłÂłÂłÂłÂłÂłÂłÂłÂł
FileSystem Provider
Ġmer ge
Ġem it
Ġauthentic ation
Randomized Runner
imcz i
IndexQueryParser Service
" >
Ġ Z
Ġ UI
Ġ Apache
on Close
re port
as hes
per s
up les
ĠS ecurity
48 1
Ġlog ger
26 7
tom ic
Cache Aware
User Task
Ġ\" _
Break ing
debug ger
Ġretr ies
Hand ling
ĠUp loading
Ġstor ed
I ST
R I
T ool
f req
ar er
ur se
`` ``
Re ify
Action Executer
Java Security
Query Builder
29 3
Type Action
inter cept
Ġany more
Subscri ption
All ocation
geo ip
Load Class
Tab bed
AC Engine
ÂłÂłĠÂłÂłÂłĠ ÂłÂłÂłĠ
RB ACEngine
JavaSecurity Access
2 36
4 45
C n
Ġin sert
Ġ[ /
Im mutable
log in
Ġl ookup
ĠN O
65 0
Ġtr i
az ure
OS E
Ġpart ic
Ġdown load
Format ter
CON DS
Prioritized Runnable
onym ous
Enhancer BySpringCGLIB
Ġsimpl y
Tie Breaking
TieBreaking PrioritizedRunnable
T DB
U M
pr iority
an te
Ġcon trib
ur ther
ir c
Ġfor ward
Ġst age
ĠW HERE
lis m
ĠC ET
Ġlog ged
Log in
Inter ruptedException
Word Count
Ð° Ð
Am azon
R ename
ab lish
im age
Ġb ase
Ġre al
ĠTh at
exp and
Ġfil ing
H dfs
d et
d one
i od
me ta
ic tion
Ġs il
80 7
Ġpr essed
set Lookups
24 2
ay er
48 2
Ġrec re
Ġ4 0
Local Transport
Resol ve
Mvc AutoConfiguration
Clo sed
authentic ate
calc ite
ĠDo Fn
angu age
" `
( '
5 03
G L
L ook
P eek
g ss
Ġ assignment
Ġ Property
Ġal though
Ġt emplates
Pr econ
St arter
22 2
24 8
Executor Service
Un til
Ġdis play
position s
Load ing
Before Initialization
Ext ensions
Hand shake
rabbit mq
6 37
I con
M an
h istory
n y
Ġn one
for tun
ac ro
dition s
ver ify
Ġ: :
AS L
anag ers
ĠO ver
97 9
Ġtry Stage
Create TestClass
Tree Path
ĠÐ ²
prot obuf
Ġcap acity
ContextLoader Delegate
ĠStor m
ĠtryStage Package
CreateTestClass Hint
' ll
3 14
D aemon
F oo
h ter
k ins
x e
re w
Action s
15 8
Bean Binder
Ġde stroy
Ġj imczi
ateg or
Act ual
ero ute
Ġdebug ging
Ġext ra
! [
' .
2 32
L ast
M Q
M ET
R ounding
k rb
s leep
Ġ fal
in ess
in bound
co uchbase
ab el
is ing
Ġt im
est ig
Ġm l
Ġm o
Ġp atch
og n
En v
ĠN etty
To Table
inter ceptor
master fs
AL IZ
Jar ClassLoader
Reader s
afe ed
Gradle Project
PRO PER
Number FormatException
TransportSearch TypeAction
AbstractNio ByteChannel
contain s
KE Y
alle lism
) ],
B ar
K S
i sed
j ersey
n egative
o pe
s am
s chema
Ġ parser
Ġ termin
en kins
int el
Ġw ord
00 5
ist ing
35 9
ph rase
inal s
Http Request
Rest Response
Out come
Element s
TER VAL
Ġz ero
Declar ed
Ġscenari o
3 32
G ateway
O Auth
V O
a op
m icro
Ġ Connect
ar ante
me ter
at ure
ig gers
Ġr et
Con version
Ġ= >
all ing
Transport Get
de f
18 3
Java BeanBinder
39 7
File ChannelImpl
Ġwork ed
Internal Factory
ify ing
Al low
ConfigurationClass BeanDefinitionReader
Ġintr oduc
RecoverySource Handler
high light
S sl
a udit
j pa
er Servlet
ob server
con struction
ed iaType
boo k
Ġ[ _
run ReflectiveCall
ub sub
25 1
mon itor
64 6
Data Binder
ĠD is
App Data
Ġsp lit
ĠTime Unit
token izer
Ign ore
requ ire
ĠSh ut
Fin ish
Ġprint ln
=> "
3 30
B rand
L ambda
S ave
s egment
ec ause
ex clu
ex tract
Ġ" \
ir ing
Ġh on
24 9
ĠF using
do Work
do uble
Per Element
Next Action
ĠE s
Ġdat abase
BigQuery ToTable
IL URE
Find NextAction
transl ate
Ġ<< <
COM PL
Ð»Ñ Į
Ġfinish ed
ivers al
B IG
N T
t ags
st d
or ary
Ġt re
get Singleton
24 6
Ġst and
47 1
Web Application
Listener Impl
Ġ. /
ĠL ong
Ġim age
Sup plier
ĉĉĉĉ ĉ
Bootstrap per
Ġsend ing
Ġdes erialize
Using FactoryMethod
instantiate UsingFactoryMethod
ĠBig Query
Precon ditions
" _
4 15
K inesis
g re
Ġ program
at t
is sue
Ġ[ ~
Ġm ove
Ġex clude
22 7
Ġg r
Ġuse ful
process MessageReceived
Per mission
SpringApplication Builder
trans log
Update Task
Ġinclu des
ĠRe mote
Clo sure
Ġgu ess
Reflect or
Ġstr ategy
Ġcharacter s
ÐµÑ ģ
Ġcome s
------------ ---
ĠCON VERT
jp da
3 66
4 23
U buntu
f ollow
ab ilities
re place
con figure
per son
tr ies
pro filer
Ġre li
ist inc
35 5
35 6
Ġco r
Ġtr iggers
Ġv ar
Ġv is
term ine
XContent Parser
Ġreg ression
Lifecycle Base
Transaction al
Ġprevent s
Ġequal To
5 12
d elay
f lix
q e
Ġ( "
at ten
per colate
oo led
Re move
execute Recovery
ĠM Bean
Ġfollow s
UR ATION
start Stop
Operation Handler
Annotation MBeanExporter
Tomcat EmbeddedServletContainer
Row Set
Spliter ator
Sequ ence
RecoveryTarget Service
writ ten
CONFIG URATION
CacheAware ContextLoaderDelegate
. [
@ @
Ġ Cluster
ex mark
Ġt ook
Ġ{ '
Context IndexSearcher
ific ant
de pendencies
18 9
do es
Ġres pect
Local FsBlobStore
Ġread y
ĠK ibana
oper ator
Is sues
opt im
bad logic
0 20
< >();
J EditorPane
J SON
L ayout
p ainless
Ġ( [
ment al
ab re
ĠS abre
Run Listener
Test Rule
22 3
27 6
ĠC ode
ĠN ote
47 6
26 1
ĠH ash
38 9
dis able
Ġme chanis
Ġun less
Ġab stract
Write Un
Streaming DataflowWorker
contain ers
che me
ategor ies
4 25
F req
M AX
g te
oc li
net flix
Ġs n
bo k
mon god
64 4
34 5
Key Store
ĠR eg
Property Resolver
dele gate
Ġrefer ences
Ġman ually
Ġpic ocli
' ;
' d
4 14
5 11
a pr
Ġ modules
Ġ Event
fi sh
ar win
in cre
type d
re start
un es
Ġd elay
Ġb ig
get Object
Request Dispatcher
vel op
Filter ed
Lookup Impl
Object File
ĠN umber
ector ies
Delegating LookupImpl
my index
res et
Document Mapper
Ġcomp il
Transform ation
Replication Operation
Ġk ind
Aggregator Factory
imilar ity
LA IN
Ġdescri bed
ĠAl so
6 39
Z ip
e ffect
p ure
le ader
Ġcon figu
Ġcon verter
gener ate
if est
ir ation
Ġre gular
Ġc ached
Ġ` "
Abstract Coordinator
37 0
26 0
ĠH ttp
Response Channel
Oper ators
Ġout side
Ġsh own
Ġclient s
Direct ResponseChannel
clean er
mongod b
, \
4 43
P anel
y aml
Ġ ed
Ġ User
java hl
ag greg
Ġm ime
Factory Impl
ĠT DB
Ġco unter
ĠM on
ĠM apping
For Each
format ter
Sc roll
Time stamp
check point
Ġdis cus
Ġsee ing
Ġsub sequ
If Empty
Pre fix
Ġiniti al
oriz ation
TI ES
Entity Manager
ConditionalOn Class
Ġear lier
PROPER TIES
2 37
C urrent
V ia
e Class
j ue
m ake
Ġ turn
in stall
as c
as m
Ġth us
am d
ri ot
Access Control
45 9
65 3
Parser s
Ġli quibase
ĠJ etty
ĠG et
]] ];
AL L
eat ures
chedul ers
Ġreg ard
Ġbreak ing
calc s
Fin alize
Ġprot ected
Constant Score
Ġpartic ular
fortun ately
) }
8 34
S R
S kip
h b
Ġ Response
pr oceed
ator y
for ward
for ums
eg oti
annot ated
ag g
Ġfor m
Search NbEditor
do Inter
34 7
Ġg lobal
}} }
ĠP ipeline
mov ing
ĠE ITH
cle ar
dir s
Empty Border
Instanti ation
ĠSet ting
Ġsubscri ption
Ġdepend s
defin eClass
amazon aws
ĠEs ThreadPoolExecutor
SearchNbEditor Kit
ĠEITH ER
. ,
5 07
D etails
O O
O pt
Ġ Pr
en sus
st ep
ex amples
Ġt uples
Ġw or
Ġa ffect
ly ing
Search Request
sh ield
Ġst andard
Ġl azy
}} .
49 9
dis pose
78 4
Pre t
748 364
Ġlib apr
Ġbecome s
. ",
B us
Ġcon sistent
Re maining
Ġm atches
te am
Transport Single
Query Plan
ĠM ulti
48 3
28 1
dis ruptor
33 3
Kafka Spout
my g
Ġper iod
Create BuilderImpl
Consumer NetworkClient
Ġgu arante
Back end
Privile ge
Configu r
Solr Client
Ġcr ashes
ĠFA ILED
Annotated ConnectException
sam myg
D et
V Q
c r
m cat
Ġ Check
Ġ pending
ob ar
ass fish
ur g
Ġs chema
Ġto mcat
Ġd uplicate
ak y
Ġh old
Search Response
ill a
Rest Client
process ed
Internal ClusterService
Ġfunction ality
Ġconf lic
Ġsay s
ĠIO Exception
Ġrepl aced
Ġchar set
istinc t
Pret ty
4 11
D iff
e quals
p act
Ġ integer
ment ion
el come
Ġcon sole
Ġth ing
Re factoring
Ac cept
Ġex plain
IN VO
Transport Handler
27 5
Index Resolver
ĠC PU
36 1
Provid ed
Per colator
Nio Endpoint
Ġ8 241
ierarch ical
ContextPreserving Runnable
istrib ution
perform Request
Readers Pool
' }
/ ?
4 65
6 38
H H
N OT
b atch
f x
m vn
u it
Ġ Content
tr i
struc ture
run Children
Context ClassLoader
Ap is
create And
Type s
Kafka Apis
Ġinst ances
Ġint ended
Ġqu ite
Ġdefin e
Ġincorrect ly
Ġest ablish
Ġbund le
C or
O z
S ome
c trl
g aming
s amples
¿ Ð¾
Ġ clause
Ġ Default
ur y
Ġd iscovery
Ġb uilt
Ġre balance
Ġ' /
Index MetaData
aw ait
Servlet Context
ĠP l
Ġun known
Ag gregations
Time d
15228 100
SE CONDS
Logging System
At tribute
Transaction Manager
rel ocating
Ġ& &
submit Topology
Factor ies
4 35
5 26
P acemaker
h ub
m an
t emplates
Ġ val
ec om
ab ling
Ġcondition s
Ġth rew
Ġb egin
red uce
Object s
ĠA ll
28 9
Ġen e
Ġ6 0
46 0
dispatch Request
Snapshot Shards
Ġwindow s
BigQuery Services
ĠST ORM
TestContext Bootstrapper
mc V
coun try
Switch IfEmpty
INIT I
SnapshotShards Service
BigQueryServices Impl
( ?
3 20
3 92
P ol
W AIT
g or
o le
} `
Ġ Resource
Ġcon vert
Ġs low
Ġb l
Re alm
us ers
cur r
Class Generator
Ġ2 9
64 9
Auth or
mat ches
Ġcheck ed
check ed
Ġblock ing
Byte Buffer
Ġign ores
Ġvalid ate
ordin ates
ĠĠĠĠĠĠĠĠĠĠĠĠĠĠĠĠĠĠĠĠĠĠĠĠĠĠĠĠĠĠĠĠĠĠĠĠĠĠĠĠĠĠĠĠĠĠĠĠĠĠĠĠĠĠĠĠĠĠĠĠĠĠĠĠ ĠĠĠĠĠĠĠĠĠĠĠĠĠĠĠĠĠĠĠĠĠĠĠĠĠĠĠĠĠĠĠĠ
ĠElastic Search
Ġprevious ly
Ġdeclar ed
section Privilege
doInter sectionPrivilege
gor ith
( ...
, __
2 10
3 19
H istogram
] ][
l der
m ber
p ag
id s
on Error
pe t
ann ing
)))))))) )))))))))))))
Ġo lder
ak en
Ġpo ll
Array s
Ġrel ative
ret ention
Page Filter
Ġsil ently
5 33
O D
w ik
en ess
id es
av er
et s
arch ive
Ġw ar
Thread Scheduler
Index ing
On Subscribe
CL OSE
Sp i
atis fi
Ġmin utes
Missing Exception
Ġday s
6 06
7 49
8 04
S er
] ],
f ree
r ate
Ġ âĢ
it ely
et ic
boo ter
Ġ1 04
Ġre play
Ġm atter
De stroy
Ġcont in
Message Converter
Sub Phase
shad ow
Ġunder lying
Ġscript s
Deploy Info
Declar ative
ĠIndexShard RestoreFailedException
Ġattemp ting
Ġsitu ation
J ms
L R
L ISHED
P R
)) ,
pr et
ed Bundles
Ġm anager
201 3
Ġde ad
45 6
ĠM ongo
Ġy ear
shard edBundles
Async Future
sc al
ĠĠĠĠĠĠĠĠĠĠĠĠĠĠĠĠĠĠĠĠĠĠĠĠĠĠĠĠĠĠĠĠ ĠĠĠĠĠĠĠ
Kafka Future
my Before
Auto Configure
," _
ĠL ib
Ġexec utor
Ġper colator
ÂłÂłÂłÂłÂłÂłÂłÂł ÂłÂłÂł
Or iginal
Ġdis able
Byte Array
WebApp RequestDispatcher
AB LISHED
Dat anode
Ġclean up
Ġfull y
ContextPreserving ActionListener
Leader Latch
New ThreadScheduler
Ġrespon s
WebContainer Impl
EST ABLISHED
Rx NewThreadScheduler
Ñĭ Ðµ
ObserveOn SingleObserver
Ð½ ÑĭÐµ
Ð°Ð ¿Ð¾
ĠÐ² ÐµÑģ
Brand s
BigQueryToTable IT
Ð»ÑĮ Ð½ÑĭÐµ
Ġmechanis m
WriteUn shardedBundles
myBefore Lookup
Ð°Ð¿Ð¾ Ð»ÑĮÐ½ÑĭÐµ
ĠÐ²ÐµÑģ Ñĭ
9 08
C ATE
I dle
K ill
s al
Ġ annotated
oc able
Ġindex es
Ġb asic
04 0
Tr igger
AS T
Transport Channel
comp any
Ġg ateway
Ġup load
Pl atform
Message ChannelHandler
ial og
Ġtrans ition
Ġworker s
!! !!
Des erializer
Ġobserv able
AbstractHttp ServerTransport
ALIZ ING
h n
s cheduler
t ain
t ely
Ġ 2015
Ġ ends
Ġ echo
ob serv
Ġr educe
re v
ic ket
flo at
Ġd river
open jdk
Par am
Ġdo uble
32 3
Error MvcAutoConfiguration
ĠIN TERVAL
ĠJ DBC
Standard Context
Ġent ire
Ġinv estig
Inv ocable
UN CATE
Ġperform ance
Ġupd ating
898 3
Invocable HandlerMethod
7 44
U s
f old
l as
x id
li mit
od ers
oc us
re aker
tr ident
Ġ" *
he ap
Ġb row
ĠĠĠĠĠĠĠĠĠĠĠĠĠĠĠĠ ĠĠĠĠĠĠ
Tr ust
Un able
source Type
On ly
ĠP ath
Ġun assigned
User name
gr id
Property Sources
Ġtrans l
econd s
Values Source
Leader ForPartitions
Ġspecify ing
Docs Query
1 000
1 128
6 00
S ign
j gss
Ġ Abstract
Ġr x
update d
Ex plo
Re porter
Ġc aught
invoke Explo
64 5
rol lover
Query Folder
Ġg ive
Po ssible
flow s
Ġhas h
Endpoint Mvc
76 1
polog ies
Ġac cumul
config problem
Process Function
Ġgener ate
Ġgener ates
IG N
Ġinv olved
Ġjar s
Callback s
FI X
CompilerOptionsQuery Impl
tra vel
RunAfter s
Timed Runnable
invokeExplo sively
" ),
) ",
/ [
4 29
S C
g on
dec ode
lar a
qu ist
turn quist
per cent
read Class
Ġre main
Ġc alc
Im age
Test Utils
Ġst uck
Ġch ain
filter s
min imum
ĠH e
Http Channel
ff ected
ĠUn dertow
Ġspec ial
Ġhe aders
rid ge
Ġiniti alize
Ġconf using
Ġpass es
Cur ator
rag ment
TIM E
Cn xn
BIG INT
EndpointMvc Adapter
% {
4 13
8 86
O G
g lobal
Ġ sco
Ġ sequence
)) .
el ta
re index
ĠĠĠĠ čĊ
ker beros
un known
tr igger
In stead
20 96
Ġf eed
Ġre jected
Ġon es
get Result
Ġnot e
19 8
Bean Name
Ġ2 6
Filter Parser
ĠF lowable
0000 7
comp action
ĠB ind
Ġg aming
Default MBeanServer
38 4
ĠD oc
Recovery FailedException
Ġrec eiv
Ġadd Step
Properties Configuration
ĠIn valid
Ġag g
Ġper mis
Indices Service
XX X
But ton
So lara
streaming tv
Ġwrap ped
Fetcher Thread
Setup Action
ulner ability
Compar ator
effect ive
DefaultMBeanServer Interceptor
5 30
5 45
F ast
J pa
S ty
a W
j ax
j ury
r andom
Re binder
Ġ0 2
Ġp ur
Ġp ast
{" _
to XContent
Ġrequest ed
handle Exception
Ġevent ually
Inject ion
uplic ates
Storm Timer
Sum Integer
pay load
Ġmo ment
travel jury
4 34
5 10
7 03
E L
g turnquist
n odet
Ġo p
Ġat tribute
Ġnot es
ri ef
Application Impl
Shard ReadersPool
37 6
Container Runnable
sc Linked
Wrap ped
97 5
Array Queue
Ġdif ference
Ġhappen ing
Batch DataflowWorker
ServletContainer Initializer
Ġformat s
IR I
Ġoption al
Aggregation Builder
Peer RecoveryTargetService
forEach Remaining
Ġsegment s
Ġtemp orary
Deployed ApplicationImpl
Launch ContainerRunnable
Ġ39 72
Struc ture
Ġcomple tely
ĠShut ting
urg atory
KafkaFuture Impl
scLinked ArrayQueue
6 11
D b
a i
v g
Ġ elastic
Ġ streams
li ver
for ce
re ed
Re formatter
work space
12 34
49 6
Ġor igin
65 5
ĠP re
Server Properties
No DocsQuery
Ġproject s
Ġinstance of
Metrics Filter
LI CATION
APP LICATION
Ġra ise
Declared Methods
4 08
5 15
6 35
P Collection
W C
v es
Ġ binary
Ġ artifact
Ġ( !
on Success
li j
pr ed
Ġt oday
Ġa way
Ġit unes
66 0
Ar gs
Config File
ĠSt at
Ġfilter ed
Ġpath s
Ġupgra ded
restore FromRepository
-------------------------------- --------------------------------
AAAAAAAAAAAAAAAAAAAAAAAAAAAAAAAA AAAAAAAAAAAAAAAAAAAAAAAAAAAAAAAA
Authorization Utils
ĠTR ACE
Gu ard
JC Queue
uzz y
gorith m
atisfi ed
4 62
B ranch
S ince
T OP
X ml
X mx
k ar
Ġ generic
Ġ Initi
Ġ );
Ġcon stant
ce pted
dition al
Ġin fin
Search Action
Ġas ync
ĠA ND
OR T
99 6
skip ped
Post Commit
Ġthere fore
child ren
Socket ChannelImpl
FileSystem Watcher
BigQuery IO
tw o
ĠWh at
Ġobserv ed
Lib rary
( <
2 11
I ssue
J AVA
M s
V ol
´ Ð»Ñ
ic ast
pro file
ĠS te
sh ared
ĠW ord
Ġe valu
To XContent
28 4
39 9
parse Int
Kafka AdminClient
App ClassLoader
Or igin
Logger Context
send Upstream
Rel oad
Ġmap per
Translator PB
compile Java
ĠÐ ´Ð»Ñ
ĠAn y
authentic ation
BE AM
6666 6666
OzoneManager Protocol
TempFile Bundles
JavaBin Codec
configured Level
TreePath Scanner
Ġfal l
ĠHash Map
Finalize TempFileBundles
nodet able
ĠÐ´Ð»Ñ ı
I Test
L M
S ame
Y Y
h er
Ġ Data
Ġ Container
ap sed
03 9
Ġ2 7
Ġpro file
45 3
44 4
Ġbeh ind
Blob Container
Create IndexService
Ġchang ing
Ġsearch ing
Ġfunction s
MetaData CreateIndexService
initi alizing
ĠOn e
Exp ired
Ġra ising
Active MQ
SaslTransport Plugin
Pacemaker Client
INITI ALIZING
F F
J CT
K Q
P F
S rc
p u
me t
ab c
able Thread
Ġ" $
Ġm illis
Ġh istory
Exception Handler
sup pressed
ĠC re
Ġtime d
Message ToMessage
Ġpo ss
produc tion
chedul ing
Flux OnAssembly
Statement Adapter
ĠST ART
Ġexp and
Char acter
TY PE
Spliter ators
Encoding Filter
wj gl
xer ces
wik i
effective Level
JCT ree
6 07
C C
M ore
M ediaType
N ULL
m ary
} "
Ġ pe
Ġ 47
Ġ boost
Ġ bool
on Startup
ot o
iv ed
00 47
Ġf e
Abstract Protocol
are quote
Ġl ines
47 46
ĠM ar
Key board
Ġup on
Native ConstructorAccessorImpl
had ow
Ġinclu ded
Sub set
76 10
59 5
Ġel apsed
Ġenc oding
tool ing
Optim izer
438 979
Provided Extensions
4746 365
R abbit
U G
b Container
f fix
p iv
y a
Ġ 45
Ġ elect
al ler
pr esent
el ection
ce iver
ver se
Ġb ash
Action Servlet
Ġex ceed
Context ManagerImpl
Ġco p
Po sitive
39 3
ĠH H
ĠH igh
29 4
File Changed
ĠP TOperator
Http MessageConverter
By Window
Call able
Collection Serializer
MBean Export
Sp scLinkedArrayQueue
WebApp Impl
TestClass Callbacks
Delegate Action
view er
Admin ServiceImpl
UN N
ServletWrapper Impl
Ġass um
Sasl Client
Init Destroy
Import s
++++++++ ++++++++
Reduce Ops
................ ................
pli ed
Ġrepe ated
Num eric
INVO CATION
InitDestroy AnnotationBeanPostProcessor
H L
O B
S l
f eature
g c
h ow
s ite
} ]
Ġcon struc
Ġb rief
ĠĠĠĠĠĠĠĠĠĠĠĠĠĠĠĠ ĠĠ
25 9
Transport BulkAction
To Temp
ĠH ere
Node Id
ĠJ AR
parse d
44 1
Ġpo m
Ġdefault s
Ġother wise
Annotation Processor
Ġac cording
eng lish
xx x
SpringBoot Application
Ġpoint s
Ġstr ange
Av ro
Ġenc oded
Sink Task
Ġwho le
irc uit
Ġestablish ed
ĠWord Count
2 18
E K
M S
P ipelining
V ari
Ġn ecessary
eg acy
Ġ" -
Ġs ync
Ġd rop
Ġ} )
run Priority
ĠI ssue
ĠS DK
Executor Impl
Executor Policy
fl u
ĠN ow
Http Pipelining
Rest Fn
ĠG ener
ĠIn stead
Blob Download
Ġdele g
Project Customizer
Ġthrow ing
ĠU buntu
We ak
Streaming App
prec ision
******** ***
FS Storage
answ ers
Cmd Main
**************** ***********
postProcess BeforeInitialization
begin BlobDownload
priority IO
MET A
runPriority IO
HttpPipelining Handler
FSStorage Agent
5 66
F ocus
] /[
d omain
f light
Ġ Ex
li quibase
th en
mal formed
Ġ" .
Ġs creen
Ġre plic
Be arer
Abstract Test
Task Manager
Service Loader
Transport Broadcast
De v
ST OP
47 4
ĠM ac
Ġg ives
ĠG ot
Ġ3 000
Pl ace
Ġmod el
Ġali ases
olv ing
Direct Runner
Publish ing
TransportShard BulkAction
Trident Spout
Snapshots Service
Keyboard Focus
KeyboardFocus Manager
$ (
4 18
B ook
J B
J ena
L egacy
a u
m bok
t ake
Ġ 36
Ġ KeyValue
se q
ic ker
Ġ{ \"
Ġre plication
], "
Request Future
spec ific
ĠF rom
An y
35 4
shard Operation
29 1
Ġag gs
Sub mit
Path Registry
Ġmatch ed
Ġdet ected
Mer ged
At tributes
SpringBoot Condition
Ġtoken s
Find er
Exp and
ny c
B UT
R D
U g
Y aml
] |
l c
l te
s k
Ġ Actuator
id dle
ation Context
est ing
wildcard s
pro gress
Ġf urther
Ġ1 0000
run Task
ĠT hese
ĠF alling
Ġpro pag
ip al
ĠM B
process Element
process Resources
Ġpo inter
Bind Exception
Ġcall back
15228 110
lig hter
Jar URLConnection
Ġsyn tax
DataObject Env
inc ipal
plex us
Ġinvok ed
Ġconver ting
ĠDat aset
ceiver Client
FileChanged Manager
DataObjectEnv Factory
( [
/ ]
2 80
9 301
P A
P LAIN
T Base
h sql
m fe
n e
s asl
s imilarity
en sion
ifi es
on es
el ess
el low
Ġr ender
ed Exception
cre te
00 27
Ġd emo
ase ts
us ic
ĠI LM
Ġex cept
Tr ue
rec eive
Query Then
Ġset ter
Error PageFilter
Ġcan cel
ĠP er
Ġv s
Ġprocess es
Ġsub mission
Valid ate
Ġdefin ing
Fetch Action
Logging ApplicationListener
Ġass ertion
Ġregister ing
TestContext Manager
Cur sor
TBase Processor
hsql db
4 10
4 30
4 32
4 09
5 02
` ).
c ategory
i ated
j ta
Ġ Pro
Ġ DataSource
Ġ mention
un available
)))))))) ))))))))))))))
pl anner
Con sole
Ġb olt
Ġh ierarchy
Ġfor ce
Ġex ternal
Context Configuration
ust store
Client Cnxn
35 2
38 1
38 7
43 1
46 8
Ġdir ectories
por ation
ĉĉĉĉ ĉĉĉĉ
Batch er
CE SS
Fetcher Manager
ĠArray List
Random Key
iscover ed
Termin al
ĠCor poration
Ġrecre ation
" </
/ {
7 22
8 35
A cl
E at
S w
T ION
W ar
b und
f arequote
s qu
Ð º
Ġ ;
en ied
gu ava
or acle
com ing
vo ter
Ġ[ `
Ġf o
Ġf mfe
12 006
ĠS L
Ġex pecting
assert That
37 7
ĠB roker
39 61
Map Serializer
Default CacheAwareContextLoaderDelegate
]] ',
67 8
Fn Api
Project Opened
Ġback ground
BlobStore Utils
BlobStore IndexShard
maven project
ĠTh row
Simple Instantiation
Clo ses
Module ClassPath
BeanDefinition Exception
Ġ25 3961
Ġclean ed
ControllerEvent Thread
CO L
ĠArray IndexOutOfBoundsException
######## ########
compat ible
ites p
Tabbed Pane
observer s
ObjectFile Wrapper
WriteUnshardedBundles ToTemp
Curator Framework
kar af
QueryThen FetchAction
ProjectOpened Hook
SimpleInstantiation Strategy
ModuleClassPath s
WriteUnshardedBundlesToTemp Files
5 80
9 60
A tomic
H dds
N B
P G
P HP
R ING
o lokia
s ch
s ave
Ġ 86
Ġ 43
Ġ artifacts
ist ic
ug e
RE CO
Ġde velop
Ġres olution
ĠC LI
26 9
Ar t
parse Source
57 8
ĠL i
Or acle
Ġserver s
med ia
Multi ple
Document s
Snapshot Action
rer oute
BeanDefinition s
Ord inals
intel lij
PropertiesConfiguration Factory
? )
C lipboard
C ensus
T Binary
] `
h older
h aps
s im
Ð ¸
on y
Ġcon sume
ag no
ol ding
Thread FactoryImpl
Context Handler
92 7
current Thread
IO Utils
AR Q
49 7
93 02
__ _
Module Manager
ĠÐ ½
copy Into
You Kill
ĠNet beans
ĠAnd roid
What YouKill
Mut ex
ĠTry ing
godot engine
StreamingApp MasterService
Eat WhatYouKill
Clipboard Handler
TBinary Protocol
6 09
6 93
7 59
= (
S hould
] }}
g g
i con
s ive
y le
ar gs
gu ard
Ġd aemon
Ġf ast
test Report
Ġpr es
Index Template
86 2
Http Method
ĠJ an
Wrap ping
CL I
Ġdat asets
Ġconfig s
Singleton s
Lock Support
window s
CuratorFramework Impl
> /
D one
E X
H y
T e
V G
Z k
c ategories
j n
Ġ core
Ġ license
fi c
on Complete
oc om
Ġr ound
Ġm vc
Thread SetupAction
with out
Shard Action
Shard Follow
66 4
34 3
35 03
Ġco uple
web socket
49 5
prod uce
Main Method
Ġ| |
ws E
sub ject
Ġ> =
Ġdocument ed
ĠU se
Ġrel ocating
evaluate Sequ
ĠK AF
Ġstring s
Ġimplement ed
Aggregator Factories
tdb loader
Rol lover
Meter Registry
ffi ci
Ġcorrup ted
ORD ER
Ġide a
JavaSecurityAccess Impl
TransportSingle ShardAction
evaluateSequ ential
ĠKAF KA
) |
5 43
8 21
8 44
C ould
G rouped
H DFS
P ATH
j enkins
o ption
p b
y er
Ġ ut
Ġ Update
re pos
re ify
Ġw elcome
Ġre ject
Ġc oder
Ġfor ums
Ġan alyz
Ġpro gress
ER Y
load Context
Worker Task
El ect
67 4
Mod ification
App Main
by te
Time Zone
Ġcontain ers
Ġreg istr
vious ly
ern el
Fix ed
ultic ast
Ġseri alization
Publish er
Ġsup posed
Delay ed
Ġinstanti ate
Ġpot entially
ogn ized
& #
3 22
5 09
: <
A udit
E CT
H ikari
I A
L ift
N O
T emplates
X ceiverClient
Z en
c ape
n el
o z
il m
Ġth ree
Ġt db
12 67
em it
ĠS eri
red icate
Po s
Worker Thread
Error Code
Ġsu ccessful
dis play
Source Builder
Recovery Exception
99 5
Annot ations
ĠSt andard
Ġim pact
Ġ\ -
Aggregator Parsers
Bytes RestResponse
StreamingContainer Manager
Ġannotation s
Injector Builder
\", \
Side TranslatorPB
Via RandomKey
AccessControl Context
748364 7
MainMethod Runner
/ **
; }
R DF
} ",
Ġ Read
or er
an sions
ul ate
av ro
class gen
Ġa ffected
work ing
em ail
ĠI gn
sh are
Exception s
Tr i
rol ling
ĠB ulk
Ġrec ent
des erialize
mark s
Ġimplement ations
Rel ates
Ġgroup Id
Socket Server
AN D
fail ure
Clean er
Option al
BeanFactoryPostProcessor s
7 05
I de
L acro
N a
N egoti
S D
V CS
q p
r ant
t cp
z k
Ġ Example
Ġ lower
co ord
is on
is su
ra in
Ġt uple
00 2
In Zookeeper
ver age
ĠI A
create State
An onymous
level s
ou ch
ĠM ock
85 76
State Manager
Async Primary
Http Server
Reg ister
Ġ6 0000
Dec ision
Condition Evaluator
dispatch erServlet
If N
ĠK ernel
fe ed
Flux Map
wrap And
Shutdown ableThread
Nb GradleProject
}}, {"
Managed ExecutorImpl
Ġvari ables
Ġretrie ve
pumpEvents For
Serializable Utils
âĶ Ģ
Ġsen sor
Lacro ix
createState InZookeeper
AsyncPrimary Action
Decision Tree
6 19
C lear
J ust
M ockito
S CM
Z K
c ity
i stance
w o
z ure
ĉ ĠĠĠ
th etic
str ict
re write
Ġo zone
ad apter
Ġm ist
10 56
Transport Nodes
ÂłÂłĠ ÂłčĊ
invoke BeanFactoryPostProcessors
45 7
Node Environment
Dec or
Cluster Info
Consumer Coordinator
Check ing
"}} }}
prec ation
TER M
Ext ended
Ġsort ing
ĠUR I
QU ERY
Names For
Conversion Service
C urrently
I S
U sed
k ib
n on
o as
s ent
s atisfied
Ġ pack
ate oas
is Positive
Ġt ree
Ġs ection
Ġto pologies
ti b
Ġex po
De veloper
Filter RegistrationBean
Event Publishing
64 0
37 8
48 4
39 0
ĠH ello
stat istics
Ġme ta
ĠG lobal
ĠR C
ĠR AM
top ics
word s
Array Buffer
Ġpart s
Security ServerTransport
78 9
Ġupgra des
"}} ,"
Act iv
ClassPath Implementation
exp ansions
ĠIllegal ArgumentException
Virtual Host
Overflow Error
typed Apply
ecom ment
jax b
Pos ition
issu ecomment
EventPublishing RunListener
SecurityServerTransport Interceptor
6 05
= -
A UT
B ound
S park
Y S
p age
w t
Ġ apache
Ġ zookeeper
cre st
am crest
Ġto ge
he ad
Ġc pu
Ġpr ivile
Ġcom par
mess aging
ĠT oday
En abled
storm jar
fil ing
do Handle
47 8
45 0
45 5
08 4
ipe s
ĠP Collection
ep och
URL ClassPath
Pl us
Mapping Service
Pre pare
200 7
MetaData MappingService
clean up
TAB LE
Ġgre at
Ph one
vol ume
Ġtoge ther
5 25
5 36
= ;
C ategory
D D
E C
S cheme
S hadow
h ello
s low
s ources
Ġ fi
en code
en sure
Ġname space
Ġle ave
as ing
oo m
Ġh aven
Ġst ates
Index Writer
flow able
28 3
Build ers
exception s
ĠJ ar
build Src
Sc anning
ActionListener ResponseHandler
Ġremov es
Simple DoFnRunner
Ġcomp iled
"} ],"
emo Application
tx Get
Inbound Handler
result s
Ġmark up
Ġsyn chron
FI LE
tt l
WebMvcAutoConfiguration Adapter
NAM ED
Ġhang s
Ġmon itoring
Ġcor respon
/ `
2 181
5 28
7 97
B g
B ad
G SS
W ait
d l
f ont
g res
l ash
u S
Ġ fr
Ġ Project
at ype
in st
al locate
able EventQueue
Ġcon current
ic a
our s
Ġ{ [
Ġd estination
11 10
action Get
Index ed
37 1
Response Exception
ĠJ ena
55 4
Ġdele tes
Ġper formed
LO W
ĠK inesis
Pattern Layout
Ġam ount
Ġlocal ly
Ġass oc
Change Listener
pattern s
mo val
Ġrol ling
IC AL
RequestMapping HandlerAdapter
Tim ableEventQueue
ocks DB
Man ual
ĠBind ing
Ġfe el
% ]
6 33
F u
P ORT
m p
o ss
Ġ 9200
ar et
ame l
ĠĠĠĠ Ċ
av ig
Ġin tern
Ġt aken
In gest
ir th
run Leaf
Ġm achine
201 80
Ġinit MethodName
ang ling
get Value
Ġpr im
][ [
Un ion
Ġ2 14
rec ipes
64 1
37 5
Ġl aunch
85 9
State Format
context s
File Manager
Ġen gine
Security Context
porter s
Match Query
Ġdependency Check
Keeper ErrorCode
protocol PB
Ġfactory MethodName
Ġfactory BeanName
IP T
di stance
Caching KeyValueStore
Ġautowire Candidate
Ġautowire Mode
chang es
Ġdestroy MethodName
Ġlazy Init
Ġpermis sions
ToXContent Listener
Ġexceed ed
4 06
5 04
6 34
9 00
E qual
G F
G ER
G itHub
H E
K Table
M ON
U ST
b q
c ing
p x
Ġ q
Ġ assign
Ġ 000
id th
st am
al e
it el
it ed
iz ers
annotation s
mar t
Ġw ords
In Context
In Memory
Ġf atal
Res ume
de veloper
Client Available
Node Task
Rest Handler
152280 77
ĠIn ter
ĠAPI s
LO C
Consumer Group
SE VERE
AM P
Standard Engine
UN NAMED
Ġnum eric
multi part
Ġsuggest ions
Queued ThreadPool
PRE FIX
Configurer Adapter
Heap ByteBuffer
Return s
ServletWebServer ApplicationContext
Ġcompil ation
Ġsubsequ ent
Declarative Hints
MBeanExport Configuration
Art ifact
4 67
R ed
T gs
c tx
f eatures
n d
for Name
import s
comment s
tr ie
am ily
Re p
Ġc andidate
Ġh istogram
key store
index ed
80 9
Ġpr etty
art z
Test Descriptor
sing leton
ĠT ype
ĠF etch
Qu ota
45 4
32 8
add WebApplication
To String
compute Delegate
Fl ush
Component Scan
Code Visitor
Write Action
Mono Lift
Check point
ĠAM D
Big Integer
jo lokia
MetaData StateFormat
Json ClientRequest
Ġauth orization
requ ired
sec ure
AbstractGoogle JsonClientRequest
ĠBy te
Ġmov ed
Krb Tgs
ConcatMap Maybe
cg lib
JUnitCore Wrapper
Ġcontrib uting
ĠRemote TransportException
ffici ent
isPositive Number
CodeVisitor Support
0 16
4 85
C ut
D C
F eature
T ar
T ThreadPool
W s
W atch
b on
t ar
v iction
y ah
z e
Ġ literal
Ġ DE
ar ay
Ġr an
ot ing
return s
Ġ" "
po ssible
Ġt aking
Ġt icket
Ġd emon
ir ect
Re actor
Ġ` .
Task Impl
Handler Wrapper
Com ment
ĠT ue
Ġpro posed
do Start
ĠC L
ĠA uth
ĠG C
Ġapplication s
Le ak
Ġread s
Ġcontext s
He artbeat
Ġhe artbeat
Ġpre fer
Ġpre ference
Ġim possible
Beam Fn
Bytes Store
self LoadClass
RequestMapping HandlerMapping
idden HttpMethod
Ġmig ration
Ġdi agno
sol ute
Ġmention ed
itel abel
TThreadPool Server
aray ana
iddenHttpMethod Filter
4 47
D AL
F user
G reed
L S
g rouped
h el
i ation
j a
m ak
s pe
u ous
ð Ł
Ġ Execute
Ġ factor
ar ches
iz es
com ms
Ġin de
ap se
Ġw ent
Ġs vn
Ġ[ {"
Ġre po
Ġc lick
St an
Context Runnable
Class path
Res et
Un supported
ĠB lob
Ġso on
Spring ServletContainerInitializer
Rest ActionListener
Delegating VCS
Unit Tests
58 9
Not ify
App lier
ĠSpring Boot
aun ched
Aggreg ate
ĠJava HL
Ġrele ased
Definition s
XX XX
Ġboot strap
". "
Ġauth or
function s
Ġtrigger ed
Ġpar allelism
Deployment ManagerImpl
Ġexact ly
Dataset Graph
Javac Parser
Compound Processor
Commandline Client
EM C
Ġassume s
Emit ter
836 27
Ġ104 8576
shadow Jar
MessageToMessage Codec
RD H
Greed y
mak its
Ġsvn javahl
Applier Service
+ ---------------
9 13
G B
H older
P redicate
R ele
S ER
h av
i Ozone
q os
Ġ ty
Ġ Context
Ġ Processor
Ġ known
Ġ Dependency
Ġs ur
ext ended
Ġre pro
um b
ĠS olr
Ġand roid
Ġcom plex
Request Matcher
AS K
ĠF ield
Ġde termine
36 7
Ġtr ack
Node Info
Key s
Ġli tt
ĠO Auth
And Object
ell able
unc t
Update Processor
Ġbug s
55 5
Ġpl aces
Operation Executor
Ġgener ation
rup tib
Session Handler
Bulk Processor
persistence api
recover From
author ized
ĠTo pology
Grid AbstractTest
Scheduled FutureTask
Ġaddress es
ĠSh utdown
Cred s
Sec ure
ĠFA ILURE
angu ages
Executable Stage
DefaultBuild OperationExecutor
Ġemit ted
ConfigFile ApplicationListener
Ġdemon str
Ġlitt le
T hese
U ri
Z X
c ident
Ġ invoke
Ġ Protocol
Ġ activ
mod ified
ĠĠĠĠ ĉ
com pleted
tr unk
oo se
Ġs ends
00 3
Ġf requ
spring module
ĠS CM
Ġ` -
37 9
Web Security
Default KeyboardFocusManager
File Status
38 3
ĠO ut
ĠR el
ACT ED
Ġsh rink
Ġdele tion
Ġ* /
Ġper cent
Step Listener
first Name
model mbean
Transl ation
BeanDefinition Registry
Token Provider
Ð¾ Ð
Upstream Handler
JShell Launcher
Relaxed DataBinder
SimpleChannel UpstreamHandler
roken ConfigProperties
ForEach Ops
Character EncodingFilter
ShardFollow NodeTask
Ġassoc iated
DeclarativeHints Parser
UnitTests CompilerOptionsQueryImpl
FileStatus Provider
* ",
B ert
L TA
N orm
P Assert
a ult
b at
h w
k ed
w c
Ġ 49
ent rant
pr iate
re throw
re balance
un ting
am qp
Ex isting
Search SourceBuilder
Ġex pose
Context Restore
Method Util
wh ite
RE ATE
Ġl ate
ĠB ase
Ġfollow er
Name ViewResolver
Ġaut odet
Ġhappen ed
Ġmap ped
At t
Metadata Reader
Ġpost ing
Concurrent Modification
Ġlib raries
second s
ĠTR UNCATE
Cloud Object
ony ms
Grouped Values
ContextRestore ResponseHandler
5 24
P ublic
T Union
Z Z
a ft
b log
h ateoas
n or
p ting
y thon
y grid
Ġ figure
Ġ Value
Ġr ate
ac er
as sets
Ġ" ",
Ġt ick
Ġ1 56
Ġre present
Ġm ut
Task Thread
red acted
Test Worker
Test Instance
Ġp h
ĠW AR
39 4
ĠH al
Proxy Dispatch
Rest Utils
ĠD RPC
Base RestHandler
ĠO zone
mov ed
Array IndexOutOfBoundsException
Ġmod ify
TestClass Processor
mb ers
Ġproduc t
Metric Writer
QueryPhase ExecutionException
Ġwrap per
JUnitTestClass Processor
================ ================
Scoped Settings
Meter ed
Suite TestClassProcessor
Mut ation
Ġoptim ization
Head Context
Amazon HttpClient
gre en
ContextClassLoader Dispatch
readClass AndObject
piv otal
Equal To
ProxyDispatch Adapter
4 17
5 86
C ent
D A
J ta
O w
T ON
c t
c aps
c oders
n t
w al
Ġ eg
Ġ uri
ifi able
th rottled
list s
Ġr eroute
iz ard
il s
su ch
Ġ} }
iti es
run As
ĠS park
Ġ' _
ĠT otal
Ġe qu
pos es
State Changes
56 7
enc oder
Local Manual
Co unter
ĠSpring Application
Property Values
Ġab ort
Inter val
apply To
Fetch SubPhase
Ġdown stream
Seri alizing
post gres
Copy Into
Beam Sql
Socket Processor
Grid Cache
Ġeas ily
prot ected
WebServer Factory
Evalu ationContext
deploy ment
Ġ201 1
Ġcompat ible
ĠOver flow
Ġregard less
curr ency
BUT TON
wrapAnd CopyInto
Ġexpo sure
yah oo
LocalManual Cache
Serializing Executor
5 65
: #
B Plus
I p
J Function
T Transport
V ery
W ed
z o
Ñ ı
Ġ ApplicationContext
er der
Ġn ice
able ControllerEvent
Ġr ename
ed State
av y
Ex change
Ġ} {
Ġc aching
ĠS imple
ĠS cript
test containers
Abstract JUnitTestClassProcessor
Abstract ScopedSettings
Pro v
11 13
Test ing
UI Lookup
Par Multi
Transport WriteAction
create Context
Index FieldData
Ġpro files
IO Util
Build ActionExecuter
29 5
Ġwas n
Delegating ConstructorAccessorImpl
Kafka Timer
And Record
152280 95
start Application
ĠIn stall
Dispatch Wrapper
handle Process
000000 3
Command Execution
Ġaut ocon
Cluster ApplierService
Ġchang elog
74 0000003
Block InputStream
Dataflow Runner
Pre empt
Ġk ill
Match ers
prec ated
off sets
Ġcommand s
Fir es
ĠX ML
ĠSE LECT
collect Fires
prot o
Ġsign ificant
Ġdeploy ed
Merger Support
Ġmov ing
descri be
notify Listener
Daemon CommandExecution
Sequence Number
ActiveMQ ConnectionFactory
ĠÐ½ Ð°Ð¿Ð¾Ð»ÑĮÐ½ÑĭÐµ
Definitions Parser
ConcurrentModification Exception
BPlus Tree
UILookup MergerSupport
ParMulti Do
Preempt ableControllerEvent
" />
5 37
L ight
M ig
W V
Z S
o ader
s ign
oc ity
ex ist
per media
Ġo s
struc tur
Ġre flect
10 13
Ġh ence
Abstract FetcherManager
get DeclaredMethods
15 08
Ġpr iority
Ġ0 6
Test Driver
Request Context
ific ate
De fer
ip pet
47 2
85 6
sync ing
Ġj ena
... ]
39 8
BeanFactory Initialization
gradle w
Ġsome one
Ġ4 2
bc i
start up
Resol v
ĠU N
Rel oader
Ġconnect ed
eed ed
Integration MBeanExporter
ConditionalOn Missing
Ġeas y
Ġdeprec ation
gl assfish
finish BeanFactoryInitialization
ĠServ ice
NoSuch BeanDefinitionException
Ġquick ly
segment s
Username Password
Ġinfin ite
$ _
7 51
8 22
> ,
D I
D AT
J etty
J Component
L LOW
S ASL
T D
f q
s nap
Ġ OR
Ġ You
Ġn ative
co ordinates
con flu
su med
ver sions
ir st
Be hav
om it
Ġex planation
Test Task
ĠF irst
Qu eri
ĠB oth
Ġg h
36 85
01 00
Worker SinkTask
Node TestTask
Key SequenceNumber
Ġcont inue
ĠD isco
57 4
ĠR DF
Message Source
Ġrest ored
76 8
Ġi Phone
Ġfl aky
LOG ICAL
Lifecycle Processor
Prot obuf
Ġlead ing
Ġassert Equals
Ġprovid er
Append ers
Report Valve
Nested Condition
Ġmer ged
Instanti ator
Ġwarning s
Virtual FilterChain
ĠLe vel
div id
Legacy ThreadSetupAction
ĠHal ting
Queri er
ĠDisco urse
LegacyThreadSetupAction Wrapper
4 37
7 37
7 41
L anguage
M O
P AR
g h
g z
l ook
r w
Ġ Expected
Ġ( #
od ot
th ymeleaf
ex er
av es
Ġs ock
Ġd ates
um my
ĠS up
Ġh dfs
Thread s
Fac et
ĠT able
do Elect
Ġres olver
Ġg ist
ĠĠĠĠĠĠĠĠĠĠĠĠĠĠĠĠĠĠĠĠĠĠĠĠĠĠĠĠĠĠĠĠ ĠĠĠĠĠĠĠĠĠĠĠĠĠĠĠĠĠĠĠ
ĠJ ob
Ġun caught
By Query
Dis pose
Co yote
Ġexec utes
Inter ruptib
vis ion
check For
Standard Service
initi al
olv es
ĠV AL
YE LLOW
Ġrepl acing
Ġsucceed s
Ġcompat ibility
Look ing
ai us
Hy permedia
Ġcorrespon ding
doElect LeaderForPartitions
) "
7 56
I RM
M IL
O LOG
R uS
W T
b CK
d wsE
f lyway
j or
l ines
m ut
m ClassGenerator
r ect
s d
Ġ ÂłčĊ
Ġ( (
at las
st ion
ob ile
ate ver
con sist
im ages
Ġth rott
Con f
Task Batcher
ĠM ess
Ġsu gg
ĠA g
To InternalFactory
Ġget ter
Provider ToInternalFactory
bound ed
Id Set
ĠD arwin
Server SideTranslatorPB
Ġun n
build ers
py thon
AT AL
Next Phase
ĠL TS
files ystem
Content Negoti
Nio Worker
Time Millis
Ġlist ed
As mClassGenerator
Group ing
Mono OnAssembly
Tree Scanner
Standard Host
Ġmin imal
Ġmin imum
protocol s
Ġwrit es
Ign ition
Ġblob s
Ġreproduc tion
Generic Cli
Ġman ifest
YE IRM
Unix FileSystemProvider
Caching UsernamePassword
Li ke
Ġwildcard s
ds yer
Ġsem i
Ġreli es
Ġaffect s
FnApi DoFnRunner
ĠThrow able
itesp ace
ConditionalOnMissing Bean
MIL LI
OLOG Y
RuS dwsE
Ġsugg ested
ProviderToInternalFactory Adapter
YEIRM RuSdwsE
CachingUsernamePassword Realm
5 23
@ %
A Q
B uf
D isk
T W
[ (
] -
d sl
f ab
g w
y Q
} )
Ġ pos
at s
ul ated
un assigned
Ġin divid
up iter
ag ent
he aders
Re entrant
Ġcom m
Class Name
22 337
ĠN B
host name
65 8
For m
Http Headers
Read y
Endpoint MBeanExporter
ĠO OM
Mess ages
67 2
Operation Exception
Ġ'{ }'
Sp ace
Pre pared
transform Up
"}} ,
Match ing
Ġorder ing
Metric Repository
ĠAn t
DOW N
Ġdescri bing
Ġappro priate
Ġbegin ning
ĠSte ps
Ġdevelop ment
) },
/ #
5 27
6 12
D uration
L ucene
b uilt
d uration
h amcrest
q T
z ero
Ġ ``
Ġ Factory
ent ry
declar ative
el f
Ġr ole
In correct
line Partition
Ġd ialog
Ġb r
Ġ} );
lic ies
ack s
run Tests
ow er
Abstract TestContextBootstrapper
ub les
pec ts
index Name
Context Factory
80 6
Request s
RE AM
Service Client
mon th
ib bon
ST REAM
ĠB ar
Error ReportValve
File Context
stat es
Ġrec om
ET CH
Pipeline Options
58 2
62 342
Ġreproduce d
Annotation Parser
2014 1110
Ġover flow
Ġatt ach
Ġdat as
dir t
Standard Scheme
SpringBoot Test
press ure
Ġtho ught
Ġleader ship
ĠOn linePartition
Zookeeper Discovery
Des c
Refresh AutoConfiguration
AbstractNio Worker
Rx Java
Injector Impl
ĠGra ph
AnnotationConfig ApplicationContext
Ġdead lock
Vol ume
option al
XceiverClient Grpc
ĠMess age
' {
4 07
7 17
M AP
[ '
` ](
a its
k s
k ing
x c
Ġ framework
Ġ Rec
ent er
th ers
ex planation
as d
ro k
Request Builder
ĠT er
03 4
Un caught
Un checked
Ġde al
do Invoke
ach ines
Stream ListenerImpl
Ġ5 8
39 1
Default Model
57 1
ĠR UNN
Ġper mission
Ġdis connect
77 9
refresh Context
ick y
Ġrequ iring
admin client
Dependency Injection
Ġrecover ed
Exp iration
YE AR
Ġsup plied
Ġpublish ed
Ġtri be
micro meter
ĠReg ister
DependencyInjection TestExecutionListener
3 86
7 52
A mer
B uilt
F ont
K X
S chedulers
T SaslTransport
c ut
d u
f ast
f useki
h and
i ro
l s
m ulticast
r x
§ ÐµÑ
Ð §ÐµÑ
Ġ ĉĉ
Ġ Loc
Ġ Parse
ħ Ð¾
Ġ( )
in ary
Ġcon fir
is EqualTo
ro spec
ĠĠĠĠĠĠĠĠ čĊ
Ġin compatible
Ġt id
Ġ[ /*
Thread Leak
sp an
key s
Search Query
() `.
Bean Property
92 3
app y
ification s
Client Zookeeper
ou ter
ĠM ain
Ġg row
85 8
ms g
reg istr
Ġ5 000
Ġclass loader
Default Maven
87 7
Base AsyncAction
Ġun supported
AT CH
Execution Service
AutoConfiguration Tests
58 8
ĠE X
Ver ify
Ġac cepted
++ )
Mono Peek
Replication OperationAction
Ġwrong ly
200 1
IL M
Score Function
vT ools
Ġ300 12
Concurrent Merge
partition s
TransportSearch Action
Ġra ised
Ġstor es
Ġinstall ation
Ġcl auses
TransportShard ReplicationOperationAction
ĠOpen JDK
consume Batch
Rpc Engine
Sn iff
Ġoverrid es
SimpleChannel InboundHandler
Ġguarante e
ĠCre ating
PLAIN TEXT
GSS ContextImpl
Protobuf RpcEngine
Ð§ÐµÑ ħÐ¾
ThreadLeak Control
ConcurrentMerge Scheduler
Ð§ÐµÑħÐ¾ Ð»
4 21
C alc
M A
M ath
_ .
a uge
c ap
h a
l ack
m ost
n L
v ia
Ñ ģ
Ġ 80
st age
ig so
for Path
Ġle aves
Ġin ject
il li
Ġ" <
Ġo thers
Ġd ump
Ġre ader
Ġc ross
Pr esent
get Name
Processor ContextImpl
Ġde termin
ĠM atch
Ġj unit
Ġy ield
Ġ5 69
Ġsu spect
On Primary
Ġquery ing
ĠJ RE
ĠO ther
Trans fer
Ġv en
67 5
Registr ar
76 3
Mar ker
Ġid s
Ġim prove
Document Parser
Ġaggreg ate
Wh ere
Ġstream ing
UN T
Ġob server
Operator DeployInfo
Ġhigh er
Ġpass ing
authentic ator
Ġlock ed
MP TY
TR ACE
Ord inary
Ali ases
AnnotationConfig EmbeddedWebApplicationContext
Ġappro ach
Opt s
Pol l
pret ed
Us age
Ġcop ied
Ġdeleg ation
PHP Stan
Ġ569 67
Ordinary Object
5 22
5 49
7 25
F T
H as
J P
L ayer
T xn
Y ARN
f dd
h ierarchical
m ail
Ġ editor
Ġ statements
er beros
st ances
in line
co ordinator
declar e
In stall
Ġd ig
Ġf ont
Re package
run User
Task Executer
wh at
current TimeMillis
En um
De ad
syn onym
do On
Ġl ucene
rol es
Ġco urse
Default LifecycleProcessor
Node Function
Type Safe
parse Inner
99 8
Field Type
Ġcheck sum
Que stion
Partition ed
Ġhe ad
EN D
dev iation
Ġoutput s
Ġad just
Logger Config
Match NoDocsQuery
Expression s
wrap pers
Produc t
XML Schema
Assign ment
sn iff
Mojo Executor
ĠStop ping
Ġtim ers
Ġmist ake
runUser Action
TypeSafe NodeFunction
G d
H J
H erder
O UT
Z y
m ath
Ġ Filter
Ġ 8080
li m
str ategy
Ġs cm
20 3685
eb ian
ĠC ount
47 9
State Handler
109 8
09 6
86 1
Up gra
ĠĠĠĠĠĠĠĠĠĠĠĠĠĠĠĠĠĠĠĠĠĠĠĠĠĠĠĠĠĠĠĠ ĠĠĠĠĠĠĠĠĠĠĠĠĠĠĠĠĠĠĠĠĠĠ
Loc ally
Ġrec ently
Single OperationAction
user name
Ġsupport s
ĠRe fresh
ĠKafka Spout
Ġiniti alizing
oper ation
Url s
Input Format
Ġlo ss
Ġreproduc ible
EST AMP
Ġapply ing
Ġstor age
Inner Hits
ĠCon sider
Ġpick ed
Ġsec ure
processSelectedKeys Plain
Ġregistr ation
slow log
22337 203685
ĠĠĠĠĠĠĠĠĠĠĠĠĠĠĠĠĠĠĠĠĠĠĠĠĠĠĠĠĠĠĠĠĠĠĠĠĠĠĠĠĠĠĠĠĠĠĠĠĠĠĠĠĠĠ Ċ
22337203685 47
. `
5 57
7 27
A E
D emoApplication
G oto
P urgatory
R atis
T ServiceClient
b g
c ell
d ac
i ot
l and
m V
p icker
} /
Ġ invocation
Ġ param
Ġ enum
ar qu
it em
parent ly
cl init
un iversal
Ġin consist
In f
Ġc ir
ĠI ter
ĠS lot
sp aces
() :
][ \
Ġe valuate
IO Reactor
32 9
49 1
Error Handling
28 2
39 6
ĠH ibernate
Ġse arches
my sql
152280 84
project Opened
67 9
Ġfix ing
Operation Reaper
Operation Purgatory
Ġab solute
ĠUn iversal
60 199
check sum
Ġblock ed
AbstractApplicationContext Runner
Ġ{" _
Check ed
Meta Class
dele ted
Output s
eserv e
ĠĠĠĠĠĠĠĠĠĠĠĠĠĠĠĠĠĠĠĠĠĠĠĠĠĠĠĠĠĠĠĠĠĠĠĠĠĠĠĠĠĠĠĠĠĠĠĠĠĠĠĠĠĠĠĠĠĠĠĠĠĠĠĠ ĠĠĠĠĠĠĠĠĠĠĠĠĠĠĠĠĠĠĠĠĠĠĠĠĠĠĠĠĠĠĠĠĠĠĠĠĠĠĠĠĠĠĠĠĠĠĠĠĠĠĠĠĠĠĠĠĠĠĠĠĠĠĠĠ
Restore Context
KeyValue BytesStore
ClusterState Impl
Memory Error
Ġimport ed
sec ret
IZ E
Rol es
shrink wrap
Partial Function
Ġsession id
createBean Instance
compat ibility
Jmx MBeanServer
ffi c
ffff ff
descri ptor
fy ing
UserTask Action
ĠDoFn Info
Ġtim ing
020 77
StandardContext Valve
ITest S
Expired OperationReaper
Delayed OperationPurgatory
ĠSeri alized
NamesFor Type
stam ps
Ġ156 02077
Very Pretty
Expiration Reaper
illi an
arqu illian
. \
4 64
4 36
= _
M ail
P ooled
R ender
S un
X p
Y Q
Z W
] ).
j upiter
r f
s ince
y cl
Ġ Rest
Ġ Collections
dec ider
Ġle arn
is Empty
tr uststore
Ġ< =
Ġ" --
Ġal ong
po m
ad c
up grade
Ġoper ators
he artbeat
ir ely
Ġis ol
Re place
SearchPhase ExecutionException
reg ion
Ġj avascript
Spring Liquibase
Http SolrClient
ĠD O
57 7
process Event
trans ient
Mapping s
Nio Byte
Plugin Command
Ġdis close
anc el
active mq
from Iterable
Byte Size
Ġoc c
Ġent irely
Doc ker
Ġproduc tion
Ġformat ted
runAnd Clean
Mem ber
Top ics
Instanti ate
Assign ed
Ġrow s
ulner abilities
Ġrespons ibly
IGN ED
ĠStat us
ĠLi quibase
Bound ed
UST ER
Ġdiagno se
NioByte Unsafe
% ],
5 44
5 97
5 91
D AY
H OST
S IZE
Ġ zone
on Subscribe
ac count
po i
Ġs afe
Ġ1 88
Re q
Ac cording
12 44
ĠS ample
Se ed
Action Future
Ġpr ior
92 6
92 9
Ġst uff
Index Name
ĠW orker
Configuration Metadata
48 9
El se
Id s
Ġproblem atic
ĠL ook
Ġ10 24
Ġac cident
Environment Aware
Ġdat afeed
Metrics AutoConfiguration
Ġent ity
graph ics
Ġstr ict
Ġhad oop
Ġweb app
ĠStream Thread
Ġear ly
Ali as
Ġconsist ently
Tool bar
1234 56
Ġscreen shot
Activ ity
Ġintern ally
Ġindivid ual
ĠLoc ated
Ġ[/* ]
EnvironmentAware Command
E ureka
G V
H R
N y
P op
U UID
V I
V t
b ash
b irth
c ss
f amily
g A
l en
m iddle
y mb
Ġ Utils
Ġ Delete
in er
dec oder
or ld
class ic
ĠĠĠĠĠĠĠĠ Ċ
Ġs w
Ġs cheduled
Ex clude
us s
10 48
10 65
Test Reference
pa que
invoke Method
Ġde pending
ĠC ent
Ġco st
ph ere
85 5
08 6
File NotFoundException
junit core
Ġun ique
ĠO N
88 4
eiv er
avail ability
Ġmin ute
Ġu su
bean NameViewResolver
1522804 8
initialize Bean
Completion Listener
Ġcomment s
Ġaccept s
Put Context
Ġident ical
ASS IGNED
aggreg ation
createAnd PutContext
2233720368547 75
middle ware
ymb ol
$ .
0 10
5 32
6 04
8 18
8 96
D java
D fs
F eb
H t
J R
J TabbedPane
R ules
W HERE
^ ^
a TestRunner
d ot
d ates
h ikari
k expansions
l oop
m i
Â »
Ġ finally
en zo
al se
object file
pr ice
ic u
ap kexpansions
Ġt ool
Ġs ingleton
read OrdinaryObject
Ġ1 50
Ġre ached
Ġm usic
ĠS ession
ĠS ASL
ang es
Tr acker
Class Model
Class CodeVisitorSupport
Test RestTemplate
92 8
pre Instantiate
Channel File
SearchPhase Controller
18 14
Java KeyStore
ĠC O
49 3
Ġbut ton
Error Controller
Data Frame
Ġsu m
To Target
Default HttpHeaders
ĠĠĠĠĠĠĠĠĠĠĠĠĠĠĠĠĠĠĠĠĠĠĠĠĠĠĠĠĠĠĠĠ ĠĠĠĠĠĠĠĠĠĠĠ
Key edState
ĠD ocument
ĠG iven
Pipeline Fuser
Trans act
Result Impl
58 4
Wrapper Valve
Blob Synchronizer
Local Cluster
Update Request
Ġpl ay
JUnit Starter
Ġback end
Ġqu al
map Font
ĠTh en
Ġdat anode
Buffer ChannelFile
Tree Map
Standard WrapperValve
Ġshow ing
Bulk Scorer
subscribe On
ok ie
Authenticator Base
Authentication Manager
Stack OverflowError
OzoneManager RequestHandler
Replica FetcherThread
CompilerOptionsQuery Merger
Ġgraph s
Heap KeyedState
NodeTable Native
Sn iffer
Ġintroduc ing
att ach
XContentParser Utils
OzoneManagerProtocol ServerSideTranslatorPB
Ide aTestRunner
VirtualHost Impl
Ġ214 7483647
StandardEngine Valve
Greedy PipelineFuser
Coyote Adapter
StandardHost Valve
Ignition Ex
preInstantiate Singletons
HeapKeyedState Backend
( )));
4 39
5 39
6 86
D ONE
O k
S phere
T G
X D
f uzzy
Ġ illegal
me mber
Ġn b
ab s
Ġcon crete
class loader
Ġs izes
Ex it
pro p
Ġex peri
Ġpr io
Un ique
ĠW ork
Java Compiler
ĠC ache
execute NextPhase
Ġwe ight
name s
Up grade
Int rospec
res olver
Ġrest oring
Internal s
endpoint s
Command s
Version UID
Ġmod ified
CL USTER
handler s
Simple Url
Unknown Fields
Transform er
Ġad vance
Doc IdSet
Ġserv ices
Ġinter rupt
]. [
sum mary
Ġparent s
Ġseri alized
Descri be
brow n
Ġman ual
Ġlar ger
Mock Mvc
ElasticsearchIO Test
Amer ica
223372036854775 807
SimpleUrl HandlerMapping
6 25
9 87
C as
C ross
E OF
u k
ã ģ
Ġ ${
Ġ Combine
Ġn id
al one
local e
com press
and roid
Ġ1 49
201 1
get Resource
Search Context
Ġex pects
Task TransportChannel
eb dac
Ġpr ess
Ġpr ints
Run Before
13 69
Channel Inbound
ĠF useki
Java Cut
ĠC REATE
ĠN one
45 1
ĠM ockito
Ġfollow ed
Default Icon
main Without
Log Event
End Point
Endpoint Request
Recovery TransportRequestHandler
Message Bus
Ġremov ing
Nimbus BlobStore
ĠRe move
ual Diff
Ġar en
Start RecoveryTransportRequestHandler
Exporter Spi
ConfigurationClass Enhancer
Ġmax imum
Json ResponseException
Expression Resolver
Root s
andid ates
Analyzer Provider
Google JsonResponseException
ConditionalOn Property
Fork Join
Ġsmal ler
Ġkeep s
Discovery Client
annotate Icon
Distributed UpdateProcessor
authenticate Async
Ġed it
Ġdiscus sion
Configur able
ĠSL F
Na N
Ġcir cum
Seed Info
Cas ualDiff
ChannelInbound HandlerAdapter
JavaCut Action
DefaultIcon Button
mainWithout ErrorHandling
* "
5 41
6 20
6 16
7 58
< >(
A RE
B AL
L at
S election
g q
x D
z illa
Ġ cloud
al gorithm
ex ternal
qu ota
Ġin complete
Ġw aits
10 49
ĠS hould
ĠS ep
Abstract Logger
Ġcom pression
13 53
fl atMap
Request FilterChain
][ /
De ferred
Ġde liver
64 8
Ġl ayer
Ġ5 2
Ġ5 5
clu des
ĠG MT
Read Write
Endpoint s
ĠR oot
servlet s
ĠIn ternal
IT E
trans fer
000000 0
back ends
match All
ĠURL s
IndexShard RestoreFailedException
Ġdif f
fn execution
Aggreg ators
ĠK otlin
Seri al
Ġbuild ing
Module ClassLoader
======== ====
Ġad ver
ArrayList Spliterator
ÂłÂłÂłÂłÂłÂłÂłÂłÂłÂłÂłÂłÂłÂłÂłÂł ÂłÂłÂłÂłÂłÂłÂłÂłÂłÂłÂł
Json Generator
rel oad
multi ple
Ġext ension
Ġma jor
Ġprec ed
Ġprec ision
Ġpot ential
ServletWebServer Factory
std out
Ġtre ated
Ġhold s
free marker
Sty le
Ġorigin ally
Ġmillis econds
TION S
squ are
ouch base
IfN eeded
registr y
BAL AN
* `
5 92
5 35
D V
N S
P TOperator
R eroute
R aft
Y X
b ecause
c en
f ly
f bb
r ist
u str
v ice
on ApplicationEvent
oc ed
re al
an odes
integ Test
java doc
Ġw atch
our cen
Ġs light
In formation
Ġc tx
gra des
ĠS elect
ĠS chema
Ġh int
Action ProviderImpl
Ġex amples
04 8
IN CT
80 5
ust ers
Col umn
.. /
fa ir
Ġst arter
Transport Analyze
create Directory
ĠF lyway
ĠW ait
Object Stream
02 1
Query Iterator
85 7
ĠA m
26 15
num mer
Http ServerTransport
OR K
ĠD uring
Base Blobs
ĠG roup
57 3
Adapter ActionFuture
Ġen v
ĠL ocation
97 7
SS S
Ġid le
As IOException
Mono Ignore
Transform Executor
ae ther
200 9
Function Score
Ġstop s
Doc Lookup
Flux ConcatMap
Chang ing
exp ired
Ġappli es
SL F
âĢ Ļ
Ġpattern s
ĠHi ya
ĠDo es
Ġes cape
COM MON
Trace Filter
datas ourcen
Partial ForwardingClientCallListener
Ġconver ted
Tim ers
Send Thread
append er
Ġdev ice
ServerCall Listener
ref Count
rethrow AsIOException
Ġcircum stances
oced ure
TransportAnalyze Action
ObjectStream Class
datasourcen pe
' ].
3 38
7 24
8 10
: +
F KA
H ot
M b
P ass
S U
V J
V Y
b olt
h isto
o hn
y on
Ġ 38
ex it
le ad
str ength
mod ifiable
point s
ating ViewResolver
hance ment
Ġd iscovered
20 640
Ġre index
Re pack
Th rottled
Ġm ock
10 64
Se q
pec ially
Run With
Ġcom ing
24 20640
fl ux
03 6
0000 19
UT DOWN
client Id
State Storage
Ġsu fficient
ĠA ss
Ġtr acking
Store Exception
\" "
mit t
sc k
By NodeAction
process Request
And roid
152280 87
ree Marker
Call s
46 9
dat abase
Security Manager
15228 106
Ġrel ates
ĉĉĉĉ ĉĉ
Ġ9 223372036854775807
Rel ated
Wh itelabel
High light
restore Shard
SSL Handshake
oter Application
Ġdes ign
Ġignore UnknownFields
ĠOn ly
ĠSearch ParseException
Ġrecover ing
178 2420640
Ġmer ging
Assertion s
YE IR
Stack Trace
Ġcap able
uzz iness
Idle StateHandler
IRI Resolver
Vari able
TransportBroadcast ByNodeAction
COL LECT
Unsupported OperationException
unct u
Ġven ues
( *
= $
= \"
B i
G ather
J S
M q
t ick
t uple
} .
Ġ Key
id ed
al f
al VersionUID
th reshold
Ġr ule
Ġcon sum
ro le
00 4
Ġarray s
pro ved
Ġm ath
Ġcom pared
Transport IndexAction
til es
Ġe ver
Object OutputStream
Error View
ipe lines
Spring Runner
ĠP artition
\" ;
Loc ator
Ġsome body
With Retry
With Opts
Ġrec reate
enc oding
ge ar
Sh ape
xml ns
77 5
Global Window
apply Internal
Mapper ParsingException
68 3
post ing
WebMvc MetricsFilter
Ġinter rupted
Ġob tain
ClientCall s
Host s
Ġdes ired
seri alize
Ġseri alVersionUID
Retry Loop
Mo use
Replica Manager
ĠY et
Ġshut ting
Min iOzone
ĠFix es
TempFile Results
Ġdi stance
Analysis Service
can o
IST INCT
ĠDis posable
Ġconfigu ring
Ġconflic ts
sk u
Gather TempFileResults
4 48
7 08
B elow
D ebug
K v
M icro
M anagers
P O
Q Time
[ <
[ \"
j u
o ple
x w
Ġ act
Ġ RuntimeException
Ġ answer
Ġ Accept
Ġ( -
ex porter
re trie
un g
il led
Ġb ox
Ġc aller
Ġ` [
sp anner
Ġcom pound
Test ed
ĠW AIT
do With
ST ORM
ĠM ore
}} '
Ġnew ly
Ġli fecycle
ĠJ ul
Ġsh ape
Ġsh ared
eri ed
Ġper sist
Ġaut ocom
Ġqu ali
Ġqu eried
Ġlist en
Custom izers
Ġbro ke
Ġport able
Ġstop ping
Ġaccess ed
Ġhand les
EmbeddedServletContainer AutoConfiguration
Ġhad n
wait Until
Ġbroker s
ĠAd ded
Parameter s
First Phase
KA FKA
response Header
ĠNot ice
Ġexpression s
ĠIllegal StateException
Outcome s
Ġret ention
Author izer
Ġ}{ [
Resolv able
lim iter
ĠWAIT ING
( +
* \",\
6 03
6 32
A io
B B
B M
D el
D estination
E E
F sck
J ECT
K TABLE
R h
R ibbon
] "}},"
h S
i ol
k b
Ġ 88
Ġ Consumer
Ġ acked
Ġ aver
Ġ ObserveOnSingleObserver
Ġ Possible
in cubator
ab ab
ed ic
com posite
Ġ" +
ad oop
ad ditional
ap tor
Ġ{ :
Ġf s
run InContext
12 30
ĠI d
Abstract OnSubscribe
Abstract AsyncFuture
Abstract PartialFunction
15 00
log out
Channel Future
Channel Link
Channel Reaper
cri pted
Filter Cache
Filter Instance
Query Without
Web Group
Async ChannelFuture
min imal
Default ParDoFnFactory
Key Handler
Ġup stream
Base Del
ĠG eo
Read CompletionListener
152280 9
67 7
App Test
Cap abilities
Get KeyHandler
Ġdis card
77 1
anc ing
MBean Helper
ĠRe port
publish Event
Ġwhere as
Mono Defer
arn s
post ings
89 4
Model s
Ġdet ection
Al ready
Ġinput s
Health Endpoint
prepare TestInstance
should Skip
Generic Container
Storm ClusterStateImpl
FlatMap Main
TransportSearch Dfs
JarFile Archive
Js se
Ġcl usters
Import Selector
Terms Aggregator
ND Q
Ġdeploy ment
ĠY our
annotate Name
Sort ed
Configure Util
Ġexit ing
Ġmig r
UC CESS
ÂłÂłÂłÂłÂłÂłÂłÂłÂłÂłÂłÂłÂłÂłÂłÂłÂłÂłÂłÂłÂłÂłÂłÂłÂłÂłÂłÂłÂłÂłÂłÂł ÂłÂłÂłÂłÂłÂłÂłÂłÂłÂłÂłÂłÂłÂłÂłÂłÂłÂłÂłÂłÂłÂłÂłÂłÂłÂłÂłÂłÂłÂłÂłÂł
OAuth Bearer
Filtered Query
DocumentMapper Parser
Configur ator
ĠDoc ker
WC ChannelLink
Guard Fsck
Ġposs ibly
Hikari DataSource
oz Shell
Ġautodet ected
filesystem s
Ġcomm un
multicast Event
Ġslight ly
Throttled ChannelReaper
gear pump
Aio ReadCompletionListener
FilterInstance Wrapper
BaseDel Action
TransportSearchDfs QueryThenFetchAction
4 33
5 06
6 98
8 65
9 66
B roker
F X
F a
G C
R outer
W atermark
a ec
a ight
l inux
s ys
Ġ 35
Ġ volume
on Refresh
inv alid
Ġcon version
Ġfield data
se par
ra di
java se
ĠĠĠ čĊ
struc ting
Ġt ools
Ġt ables
Ġs lot
Ġa udit
Ġre write
ĠS pec
ĠS kip
St ates
15 45
ert ificate
ĠC ap
ĠN ULL
Data File
ĠP ublish
Container Base
Do uble
Ġpo pul
55 0
Fl atten
Dec ode
Ġdefin es
Environment Endpoint
68 1
rid ing
ConfigurationProperties Rebinder
Direct ExecutorService
peri od
ĠClo sing
ĠSearch Strategy
Ġcoll ect
Ġem ail
Ġselect ed
!/ ,
lower case
Ġleak s
rag ments
ĠStop ped
Ġskip ped
Ġbasic ally
pred icate
Submit ter
FunctionScore Query
COLLECT ION
Ġquali fying
( \"
5 48
8 85
9 85
9 57
9 67
: --
> .
B ag
B rokenConfigProperties
C atch
C ores
L java
Y Z
b ra
d elta
l anguages
ĉ Ġ
Ġ ation
Ġ Ch
Ġ 48
Ġ Intel
Ġ malformed
en u
en ode
en sor
at ively
ec ode
ari ly
ic ense
ch y
Ġin ser
lo p
am enode
be f
Ġt itle
Ġs aw
Ġs ink
In Process
ver s
St d
15 36
80 3
11 11
() `,
Fil l
ant Matchers
Un bounded
out ed
0000 02
ĠN ested
Resource HttpRequestHandler
AR CH
host s
Dele ting
86 9
For Existing
Http Exporter
clo ses
Ġme t
Type Checking
not ice
enc ing
44 0
Ġint ention
Config EmbeddedWebApplicationContext
Field Capabilities
Sc alar
init Sec
back ground
ĠĠĠĠĠĠĠĠĠĠĠĠĠĠ čĊ
ĠUn known
BlobStore Format
Info ClassPathImplementation
Process Element
Module InfoClassPathImplementation
Indices FieldData
Ġgu ide
Canc ellable
SSL Configuration
ĠStart ed
Converter NotFoundException
Binding Result
atic a
wait For
Ġretr ied
ACTIV E
Nested ConfigProperties
Bucket s
submit Request
=> :
Ġvari ous
spect ive
Undertow EmbeddedServletContainerFactory
OnError Resume
ĠPipeline Options
LR U
Ġbrow n
Ġremain s
JCQueue Test
Ġconstruc ted
Jena System
singleton List
look ForExisting
MAP RED
BeanProperty BindingResult
Ġadver ti
MonoIgnore Then
radi us
Ġation ConfigEmbeddedWebApplicationContext
TypeChecking Visitor
initSec Context
IndicesFieldData Cache
lookForExisting Authentication
/ <
1 0000
7 26
C ell
M k
[ ],
] '
c id
e ast
l VQ
n exmark
s ke
s ink
| }
Ġ arch
Ġ Metrics
st ub
st yle
com pare
per mit
ĠĠĠ Ċ
Ġd ied
ly gon
ĠS ending
Ġon Error
Abstract XContentParser
Pr oduce
und er
ust ache
Ġpr oduced
ant ed
syn thetic
03 7
Client StreamListenerImpl
lob ally
do As
Ġres olving
Ġl atter
02 9
Stream Output
xy z
ĠA ug
UR RE
Ġse ed
Up load
ĠP T
ĠP HP
sc alar
Log Cleaner
Rest arter
ĠO ff
Ġ3 1
Ġ3 0000
Kafka Server
152280 55
Ġen code
Ġen abling
44 2
ĠL OG
fo obar
Ġne ar
Ġany way
User Group
App s
Target Exception
loader s
Program s
Group Also
ĠTh u
Ġcomp action
Pre p
Function s
WebMvc Configuration
ln BE
Support ed
Wh ich
Ġ25 6
AN S
Ġstr aight
Off sets
stack trace
ĠRE BALAN
Hash Set
OutOf MemoryError
Ġautow ired
Ġimport ant
Ġclear ed
Ġdynamic ally
Ġrol lover
iffer ent
Redis AutoConfiguration
Ġindic ate
JavaBin UpdateRequest
ĠBigQuery IO
Ġconflic t
scal ing
Platform s
Xml BeanDefinitionReader
met ic
Ġpe ople
ZK lVQ
AUT H
Ġq tp
checkFor Errors
Gd h
Xp Vt
ske arns
permit All
UserGroup Information
lnBE Gdh
JavaBinUpdateRequest Codec
ZKlVQ Fu
XpVt ZKlVQFu
5 18
8 38
> "
> :
C R
D hadoop
D dt
F alse
\ .
] =
a af
c oder
d ump
d river
d istributed
f ra
j w
r v
s i
t b
t f
x z
Ã ¤
Ġ ubuntu
pe ed
el cast
Ġin defin
Ġat tributes
ag o
In stant
file base
fac e
Ġd istribution
terfac e
Ġa ware
read All
Ġm achines
12 28
12 69
ĠI SO
Ġjava doc
Abstract NestedCondition
und red
11 38
17 72
Bean Instanti
AS SP
ĠT ASK
Transport FieldCapabilities
invoke Filters
rec ognized
ĠC all
Query PF
ĠM Beans
Resource RequestHandler
Web ExceptionHandler
Text QueryPF
Node Lib
Key InputStream
az elcast
56 8
Ġtime zone
aut om
07 0
process Response
project ui
Controller Test
Ġv Cores
Not ifier
Internal IndexShard
Property Accessor
ÂłÂłÂłÂłÂłÂłÂłÂł ÂłÂłÂłÂłÂłÂłÂł
Ġ14 9219
Ġuser name
ĠFor mat
Ġcontainer Node
Chang elog
PRO D
Direct TransformExecutor
Boo st
Leader El
StreamingContainer Parent
Ġignore Invalid
Ġcontent s
Memory Index
=' /
Ġgeo hash
register ing
Non blocking
XML Document
connection s
Ġconn ectors
Ġskip ping
Ġdisplay ed
Ġdelay ed
ĠPl ugin
Trust ed
Ġreplic ate
Place holder
ConsumerGroup Command
Whitelabel ErrorView
URRE NT
ĠPT Container
filebase dfs
BeanInstanti ationException
ASSP ATH
ĠignoreInvalid Fields
Nonblocking Server
WhitelabelErrorView Configuration
5 17
6 91
9 206
: ",
E Q
G ss
H ibernate
H iddenHttpMethodFilter
K b
W al
f ec
j on
r j
s creen
Ġ flow
str a
Ġr ounding
ft en
re tries
an os
as List
ur ge
Ġin coming
Ġre positories
fin ity
Ġan onymous
Ġp ing
Ġp ush
Transport Client
De vTools
ĠF unction
Event Logger
Ġl at
time zone
execute Locally
47 0
Ġco ordin
Ġj olokia
stream Id
56 0
Ġhas n
Ġme mber
99 0
Ġ6 2
Ġbeh ave
Co unting
Ġ7 0
Ġper sistent
Ġab ility
db d
Seri alization
Pre Commit
Ġad min
High lighter
Customizer BeanPostProcessor
rel ated
FA ILURE
Ġsubscri ber
TransportShard SingleOperationAction
Ġmis sed
Sort Builder
ĠOr acle
Ġma int
Ġtra ffic
Ġcombin ation
Ġreplace ment
Ġmean ing
Ġsen sitive
Allocation Service
incre mental
ĠHe alth
TOP OLOGY
Quota Manager
ĠDE LTA
BeamFn Data
Reentrant Lock
Render er
Ġusu ally
Bi Consumer
Gss Krb
4 16
4 49
6 21
7 09
7 91
> `
G l
L ang
P ending
U u
b roadcast
k t
l exer
r df
w er
y ellow
| _|
} [
} \
Ġ enhance
Ġ Channel
Ġ Po
Ġ Load
Ġ âĶ
er r
pe g
ex isting
Ġr are
Ġle g
Ġcondition al
and box
Ġd enied
Ex ternal
Ġb ounds
Ġf ox
Re al
Ġc ategory
Th reshold
10 26
Ġbe am
St ash
get Key
get Type
Ch rist
13 42
invoke Target
Qu ad
Index Output
64 7
Ad aptor
Query able
ĠM L
ĠM in
ĠM ath
/_ /_
Default Gradle
Store Changelog
Log Manager
Log gers
Ġup per
clo sure
tric t
Ġ| _
57 5
ĠR x
handle Upstream
Ġexec utable
Ġ\" .
59 6
ĠUn registering
77 0
95 4
78 1
Fail s
Ġbuild s
Transform Translator
Job Manager
Session Tr
Ġsp aces
Admin Service
ĠV ector
Report Endpoint
":[ "
Ġbuffer s
Ġem its
ĠClass CastException
Non Proxy
Ġes pecially
QueryParse Element
ĠOpen ing
Linked HashMap
VER S
SearchHit RowSet
Ġretrie ved
ĠDAY OF
Ġcomput ation
Multipart Resolver
Reify View
Ġret ain
sal ary
Ġupload ed
PropertySources PropertyResolver
Ġreceiv ing
ĠIniti alizing
Ġ86 00
âĶĢ âĶĢ
20180 503
developer tools
Behav ior
Ġdatas ource
ĠRegister ing
1814 95
structing ObjectParser
DefaultGradle Launcher
StoreChangelog Reader
, -
/ @
5 16
6 10
6 97
D uplicates
G it
K V
K erberos
L ive
S low
e be
h s
k m
l ass
l up
m ith
n l
o id
v ectors
w atermark
Ġ ord
Ġ Properties
Ġ Condition
Ġ ORDER
st one
in cludes
ob in
able Exception
Ġcon cat
as pect
ro ubles
et adata
am z
Ġs ave
pl er
Ġ} `
pro ps
Ġc um
ĠĠĠĠĠĠĠĠĠĠĠĠĠĠĠĠ ĠĠĠĠĠĠĠĠĠĠĠĠ
10 21
ĠS un
Exec uting
index lifecycle
80 2
Ġcom plain
ĠT ext
do Build
ĠN ew
ST RING
ĠM etadata
85 0
49 4
ĠA WS
Ġ] ;
ĠD B
Set ter
Wrapper Simple
Local Container
Ġreport ing
55 3
88 1
Dispatch ing
Ġper col
Ġper colate
Ġver ification
76 0
check Permission
Ġ14 487
Ġcontain ed
ĠNo Node
Multi MatchQuery
fe lix
Ġgo al
Ġlo mbok
Static TypeCheckingVisitor
WE EK
Ġrecover ies
UP LE
Ġsign ature
ĠID s
ÂłĠÂłĠÂłĠÂłĠ ÂłĠÂłĠÂłĠÂłĠ
Matcher Assert
allow ed
Ġhighlight ing
Exists Exception
sal es
Ġfo obar
postgres ql
Ht ml
Ġaver age
Ġenhance ment
( ()
8 97
: "
A f
B R
C ING
E Z
I F
I DE
K enzo
P acker
T iles
U a
X Pack
b W
c annot
d isk
m ac
r able
u Z
Ġ 65
Ġ Record
ar g
at ron
al t
ab in
ab ove
im chy
as ure
ot ation
av abin
and ra
Ġal pha
Ġd s
Ġm ail
Abstract Processor
Abstract Refactoring
Ġfor cing
Thread Local
St uff
Search Hits
Cl atron
index Time
Class es
Method Proxy
Test EventLogger
set Sniff
Application Deployment
ĠT UPLE
de termine
Event Thread
ĠW ed
An other
do Post
do Forward
Ad ding
Query Score
pt s
IO Callback
load ed
109 4
Ġ5 7
On Timeout
compute Single
Container Packer
Log Worker
87 6
Rest orer
Type Parser
ĠD own
ĠO P
07 5
process Forward
And Parse
build Response
sub div
Cache ServletWrapper
start CompositionUnit
Field Hit
Ver ifying
dat afeed
Collection Action
Ġhe avy
default s
ĠK V
Fail OnTimeout
Multi Observer
Element Handle
Jar Launcher
Syn tax
Ġk illed
Module Impl
Script s
coll Impl
Hel lo
At tr
Date Format
FS Directory
SSL Utils
Observable ConcatMapMaybe
token s
CompositionUnit Impl
Ext ClassLoader
bug s
Scheduled Runnable
ĠĠĠĠĠĠĠĠĠĠĠĠĠĠĠĠĠĠĠĠĠĠĠĠĠ Ċ
Ġsign al
Mock Bean
Managed Channel
Protection ClassLoader
Appender Control
Ð½ Ð°
Flowable ObserveOn
Deployed ModuleImpl
Ġcontrol led
Leaf DocLookup
NodeTable Cache
Compound ClassLoader
Ġms g
RunAfter TestClassCallbacks
Blocking MultiObserver
Ġattemp ted
Ġcorrup tion
ĠLocal Cluster
ÑĤ Ðµ
Ġsem ant
Credentials Util
ĠSub scri
JavaSecurityAccess Wrapper
performRequest AndParse
Numeric Token
TimeZone Rounding
Ġprivile ges
inst alled
KrbTgs Req
Tar ContainerPacker
runAs System
ĠAg greg
MILLI SECONDS
Ġ'{}' ,
Unchecked ExecutionException
Where Used
Checked AccessControlContext
RunBefore TestClassCallbacks
Raft LogWorker
SSLHandshake IOCallback
WebGroup Impl
1772 80
BiConsumer SingleObserver
1342 177280
AdminService Commands
Tiles RequestProcessor
Clatron ic
ApplicationDeployment CollectionAction
computeSingle Result
processForward Config
subdiv ision
FieldHit Extractor
performRequestAndParse Entity
% `
5 13
5 01
8 17
8 268
9 16
9 36
9 05
= *
D RPC
L atest
N ONE
S py
S olution
S ymbol
b age
b fa
k otlin
w orld
} ];
} ")
Ġ DELETE
Ġ KeeperException
er ce
ar bage
on ce
on ed
on Execute
pe l
loc ated
Ġr ely
an o
Ġcon struct
Ġcon currency
dition ally
Ġal ter
up gra
Ġt ab
Con structingObjectParser
ali s
Ġc ar
Ġm vn
gra ils
ĠS lash
get Node
Tr acked
Test Method
Bean Wrapper
Request Executor
LE n
Ġ}, \
Channel Active
syn onyms
Filter AutoConfiguration
27 084
0000 01
do Scope
Java Refactoring
Java WhereUsed
Ġl en
Query Plugin
Ġch ance
ĠB E
load Or
load BeanDefinitions
Stor es
109 6
Dele tes
05 6
06 7
Text Output
ĠH DFS
Log back
ĠĠĠĠĠĠĠĠĠĠĠĠĠĠĠĠĠĠĠĠĠĠĠĠĠĠĠĠĠĠĠĠ ĠĠĠĠĠĠĠĠĠĠĠĠĠĠĠ
56 9
Endpoint AutoConfiguration
Ġun authorized
ĠO M
152280 88
sub phase
Comp ute
Ġ{{ @
98 2
ĠE c
Ġstat istics
Execute QueryPhase
Argument Resolver
Ġcould n
Sp lit
Tree Model
Ġwindow Size
IL TER
istrib utor
ĠThere fore
ĠAn alyzer
Ġperform ing
Ġloader s
~~ ~~
micro soft
Ġcontin ues
ĠGener ic
Weak ListenerImpl
sim p
spe ll
aunched URLClassLoader
AndRecord Failures
Reroute Phase
unctu ation
Catch AndRecordFailures
SSLConfiguration Reloader
Prep RequestProcessor
ĠSlash er
JavaRefactoring Plugin
JavaWhereUsed QueryPlugin
loadOr ExecuteQueryPhase
4 02
5 87
8 20
A H
B oth
C I
E W
F Record
H O
J vm
K Stream
L B
L L
U ES
b ridge
d ist
e ither
g og
h it
i val
j unction
m ix
n g
n ative
n ever
n orm
p m
s andbox
v ector
z ax
Ġ â
Ġ bin
Ġ lang
Ġ Received
Ġ QU
me mbers
Ġn avig
Ġr edis
val ves
ass andra
ul ation
av or
class file
search Type
ard own
Ġto mb
Ġa wait
Ġre q
Ġre indexing
Ġre active
ĠS er
Ġh undred
ss h
get Resources
key value
ant sku
SH UTDOWN
Transport Layer
List Tasks
Un parsed
ĠF ri
0000 03
Object Field
ĠC I
execute FetchPhase
execute Unparsed
ip ped
data Source
Async Authorizer
ĠA tomic
Default TestContext
File Exception
File Structure
ĠO p
Kafka Streams
Config s
ĠL ast
Ġpl an
Ġdata flow
Window Store
.... `
Code Generator
ateg ies
Ġgener ating
69 4
Ġign oring
Ġcomp ute
Ġcomp iler
SE CS
geo hash
Flux SwitchIfEmpty
TER N
prefix ed
ackingM ode
Collector Impl
requ ires
Ġext ended
Concurrent ClassLoader
Ġseri alize
Segment s
>> >
Ġtrigger ing
Watcher IndexTemplate
Stack trace
Translog Operations
Ġlocation s
document s
Ġprot o
Ġgre p
Bolt Executor
Ġwon der
ĠIndexShard RecoveryException
Tra iner
InternalFactory To
Ġvis ible
Imports ContextCustomizer
TridentSpout Executor
RECO VER
ĠJar File
ĠInter ruptedException
Cent ral
END ING
retrie ve
SessionTr ackingMode
zax xer
WatcherIndexTemplate Registry
' ]
5 08
7 42
> &
G ROUP
K IP
L et
N arayana
P W
P ower
T TransportException
f ect
n oop
s vn
Ġ ^
Ġ structure
on Phase
co okie
for ID
re package
ul ative
java path
Ġ" ,"
Ġd er
Ġd angling
Ex tract
Ġ1 54
us able
om ic
Ġ` <
get Context
fin ed
fin alize
Method Interceptor
wh itespace
open s
Ġp ipelines
03 8
de termin
ĠF rame
Ġpro x
02 6
ip po
ph an
Ġfail over
data format
Container StateMachine
String Builder
Main Impl
Rest Status
99 1
my company
Dis posable
Per colate
Wrap Processor
58 3
Post Con
Ġclo ses
Ġpl ain
Comp iled
ĠE OF
Ġdele gate
PostProcessor s
Target Class
__ __
Boot ClassLoader
ĠUn fortunately
LO AD
ebug ger
dev ice
ud son
Ġfiles ystem
Ġad apter
Failure Delay
Ġprovid es
Ġfac et
ĠWeb ApplicationContext
bal ancing
Ġprocessor s
Ġnor m
Ġdefinition s
Flink Runner
Page Info
Ġred irect
writ es
Ġinvok ing
ĠOr igin
Ġcontrib ution
optim izer
tri ple
submitTopology WithOpts
Ġreceiv es
Mig rate
ĠRUNN ING
ycl er
Supported Version
Ġstraight forward
aspect j
7 32
7 29
8 48
D iscover
F lyway
F ETCH
G RE
G odot
H i
I U
J k
L IN
M j
M IN
M Red
M obile
N V
O OT
O ther
P u
T DO
V ectors
W rong
c X
d p
e th
e ureka
g x
i ra
m ime
r ote
y D
z OD
} /_
Ġ ack
Ġ payload
Ġ( {
id le
me the
ec h
Ġs it
Ġs av
run RequestInterceptor
Ġc xid
Ġ` {
bo se
test framework
Abstract Task
Abstract Jsse
Pro ps
Ġcom pare
og gle
app ClassLoader
Un expected
Un icast
SN EL
op s
ĠF eb
Ġe v
State Action
65 256
Web Request
Web appClassLoader
Ġcan cell
Default Task
Default Indexing
junit s
33 33
ater i
87 3
87 8
Ġtime stamps
led TextOutput
ĠJ un
ĠJ PA
ĠD ec
ĠG SS
ĠG dx
path s
57 0
Basic ErrorController
99 7
44 44
node D
ĠIn dices
ĠIn gest
Property ChangeListener
ry pt
Inter rupt
77 2
Valid ates
new Instantiator
Ġlist s
Ġrel oad
EN E
Pre vent
Over rid
Constructor Binding
bulk index
ĠServer Properties
Customizer Provider
Gradle CustomizerProvider
OutputStream Appender
ÂłÂłÂłÂłÂłÂłÂłÂłÂłÂłÂłÂłÂłÂłÂłÂł ÂłÂłÂł
FileSystem Compiler
Invocation TargetException
Ġprovid ing
commit s
Ġrespon d
Ġcount s
Ġpost ings
Ġz xid
ĠLog Stash
Delete BuilderImpl
Ġdec ode
ÐµÑ Ħ
Grpc Replication
Rol ling
Ġgre ater
Dynamic Object
hold ers
Topic Partition
Ġincre asing
alle l
ZooKeeper Client
Maven Cli
Javac TaskImpl
Ġinstanti ation
Tabbed Controller
Sty ledTextOutput
---------------------------------------------------------------- --------
AAAAAAAAAAAAAAAAAAAAAAAAAAAAAAAAAAAAAAAAAAAAAAAAAAAAAAAAAAAAAAAA AAAAAAAAAAAAAAAAAAAAAAAAAAAAAAAAAAAAAAAAAAAAAAAAAAAAAAAAAAAAAAAA
................................ ................................
Ġassertion s
ĠBinding TDB
InnerHits FetchSubPhase
Roots Work
lead ing
Mouse Event
ĠREBALAN CING
VERS ION
8268 65256
Mobile Platforms
TDO SNEL
methe us
runRequestInterceptor s
AbstractJsse Endpoint
DefaultIndexing Chain
TDOSNEL IN
5 56
5 58
5 42
8 47
9 19
9 55
9 41
A op
D uring
D uplicate
F ragment
L Z
M ac
M ATCH
N exmark
R ate
S AX
f Q
h ay
l atest
n eed
o se
s en
u per
z y
Ġ Conn
Ġ fresh
Ġ Changes
Ġ archive
pe x
ject ion
an other
ul ator
av icon
un nel
lo mbok
Ġt ile
ag on
Ġs dk
In clude
Ġ[ ];
10 25
Ġ` /_
Ġh ours
Thread Runnable
Pro gress
15 40
set Property
13 54
ĠT IM
ĠF ATAL
Ġg it
Rec over
Ġwe ird
Ġj ackson
Web Socket
Default MessageSource
cc r
ĠĠĠĠĠĠĠĠĠĠĠĠĠĠĠĠĠĠĠĠĠĠĠĠĠĠĠĠĠĠĠĠ ĠĠĠĠĠĠĠĠĠĠĠĠĠĠĠĠĠĠĠĠĠĠĠ
Ġ# #
ĠD escription
ĠD ISTINCT
dd d
process ing
Per cent
Ġany one
46 04
Content Filter
back off
Path s
ÂłĠÂłĠ Âł
Ġac cur
Ġread Loop
bind Bean
ĠU S
Ġover write
68 2
68 4
Subscri bers
Ġlevel s
counter ed
ĠRE AD
parser s
Storm Submitter
Ġow ner
Ġsort ed
Ġclear ly
Ġdescri be
Stats Collector
Managed ThreadRunnable
Ġinvok es
air line
Ġiter ator
ĠLe ader
Side Input
Ssl TransportLayer
Ġturn ed
Ġinvestig ation
Ġbrow ser
Ġinde ed
+--------------- +---------------
Form ContentFilter
IndexName ExpressionResolver
Ġaccident ally
ĠCO UNT
Repack ager
roubles ho
DefaultMessageSource Resolvable
0 27
5 40
7 46
C B
C a
J N
L wjgl
M i
N M
O J
P art
S ite
T K
T ake
W N
a Q
d eb
g eb
i Fi
k in
k stream
k imchy
m ile
p p
q X
q q
Ã ¼
Ġ expr
Ġ 255
Ġ 33
Ġ Controller
Ġ Running
Ġ ParsingException
Ġ structur
pe at
gu ides
loc ator
re me
an illa
eg round
ce pting
port Name
Ġth reshold
ad vance
up sert
ap pear
Ġt xn
Re balance
af a
** .
Ġh ot
get Nested
Task Queue
Tr acing
Run Rules
13 10
Bean Type
2018 110
vel ocity
ĠT LS
Channel EndPoint
Filter Proxy
Event Provider
do OpenProject
Ġl anguage
ĠN ame
ĠB ecause
IO Test
48 8
Ġ/ >
To Emit
To Cursor
Default ChannelHandlerContext
ĠH ard
channel s
86 7
ĠP ubsub
ĠĠĠĠĠĠĠĠĠĠĠĠĠĠĠĠĠĠĠĠĠĠĠĠĠĠĠĠĠĠĠĠ ĠĠĊ
87 9
Type d
Ġsome how
Ġ_ __
With Args
Delegating FilterProxy
Ġun recognized
call back
Reg ex
ĠE ven
Common s
Ġdif fic
Ġsub ject
System ClassLoader
CL ASS
Byte Buf
ĠK now
Lazy Seq
rit ing
DoFn Operator
Ġgroup s
ĠTest Observer
EmbeddedServletContainer CustomizerBeanPostProcessor
persist ent
Bytes Ref
Down Latch
Ġext reme
ConditionalOn Bean
Nb Mutex
ĠUp grade
Ġnet beans
Ġretry ing
Ġwaiting ToEmit
response time
Download BaseBlobs
Candidate Component
tag line
TIM ESTAMP
TH EN
notify Opened
Ġstand alone
Kinesis Client
feed Builder
recoverFrom Store
Ġunn ecessary
consumeBatch ToCursor
Ġinconsist ency
Ġindefin itely
projectui api
Ġleg acy
Ġreq path
RECOVER Y
GrpcReplication Service
geb ra
Ġtxn type
NbMutex EventProvider
DownloadBaseBlobs Distributed
8 49
= ${
A ri
C A
C url
D DS
J Q
J e
M AN
N G
T ML
] ),
` ),
j oda
s lop
t d
w ill
w arn
Ġ ess
Ġ Auto
on Message
at tr
li sion
list ing
ex tractor
as ci
Ġth ird
In terface
Ġ} ]
Ġf ol
Ġf ault
Ġre alm
Ġre maining
sh ingle
Ġ' :
Test er
set Up
22 95
pre ference
spec ial
ĠC urrent
Web Flux
\" },
Log ical
patch erServlet
Rest oring
Rest SearchAction
ĠD emo
Ġsome where
parse Aggregators
57 9
152280 65
reason er
valid ator
Ġdata Source
46 3
Ver sions
Nio Protocol
Bundle Factory
Ġsub mitted
Argument s
ĠRe moving
ĠK Table
Ġmulti part
Check sum
Doc Collector
Score DocCollector
Top ScoreDocCollector
ĠRE D
ĠST ARTED
ĠX ml
Ġtransaction al
Ġlistener s
ĠDe v
Ġrow count
RED ACTED
Ġlink s
Ġmon itor
VERE D
Ġexclu sions
Look s
RestResponse Listener
exclu des
!!!! !!!!
Ġfall back
Ġelect ed
RECO VERED
Ġanalyz ers
Zen Discovery
pumpEventsFor Filter
ContentNegoti atingViewResolver
waitUntil Finish
Ġcum ulative
hay stack
( @
- )
2 000
6 27
6 99
7 31
B W
C g
D T
D arwin
E ager
G en
N egative
P ush
P air
S im
W R
b roken
f w
i um
j na
l wjgl
m beans
p at
r uss
s v
s chedulers
t le
t im
w eek
Ð Ŀ
Ġ ĉ
Ġ zip
Ġ Directory
ing Task
ft ware
ic ago
ch unk
is o
org Id
Ġin her
Ġo ften
up s
Ġs er
Ġb us
ir y
lic ts
Ġre ach
Ġc ame
Ġm ac
Ab sent
Abstract NonblockingServer
get Class
get Children
Task Cache
Class TestDescriptor
AS H
Transport Create
Filter FileSystemProvider
ĠF ollow
Event For
ĠW E
do LoadClass
do Resolve
ĠC URRENT
47 7
ĠB it
Ġg ame
Stream Spliterators
Data Mgr
On Failure
Ġtr unc
86 18
ĠP W
compute Result
ĠJ son
ĠO per
Ġshard Failures
node M
Ġfin ding
Reg ion
55 2
As String
fire Completion
ĠK Stream
Mono SwitchIfEmpty
From ByteArray
Su ites
roll up
Script Engine
Doc Value
Flux Iterable
Load Generator
has child
Ġob vious
AN AL
Ġask ed
Configu ring
Find Ops
Primary Operation
Ġsuggest er
Ġfetch ing
pump One
Spec ific
hash Code
ian Lacroix
OnAssembly Subscriber
Ġtransform s
Ġscenari os
Ġcomponent s
Relaxed BeanPropertyBindingResult
Ġtri ples
det ectors
Ġintroduc es
Ġhon ored
415 39
@@ @@
Ġconfigu rable
++++++++++++++++ ++++++++++++++++
BlobStoreIndexShard Repository
deserialize FromByteArray
FluxMap Fuseable
Clear Scroll
Decor ator
RequestContext Filter
fdd c
QueryIterator Base
Hot Threads
MiniOzone LoadGenerator
TransportFieldCapabilities Action
jon i
Christ ianLacroix
gog o
mix in
RestStatus ToXContentListener
PostCon struct
TransportCreate SnapshotAction
EventFor Filters
haschild test
pumpOne EventForFilters
5 31
5 46
6 30
6 36
7 15
7 85
9 80
C i
C ertificate
D ht
D istance
M ake
Q S
R L
R aw
S UCCESS
T ag
U tf
d n
h c
j c
n ess
n ote
r d
s ures
t ecode
w agon
z er
Ġ lic
Ġ ÂłÂłÂł
Ġ ParDo
Ġ Facet
al ance
sco rer
or n
lock ed
qu ick
array copy
Ġal gorithm
ver ified
Ġb el
Ġ} ;
Ġc at
Th ing
ĠS c
ĠS ize
Ġh eld
Ġh idden
Ġh ope
Pro filing
get Logger
Ġkey store
RE AD
assert Equals
ĠT op
03 1
ĠF l
ip ant
45 68
Ġch unk
Error WebExceptionHandler
05 3
name d
ĠP ID
Source Task
Container Launch
Fi re
57 6
ĠR ol
Kafka Producer
Message Handler
Ġv ulnerability
58 1
180 914
97 0
55 9
produc es
Fn Runner
Ġper fect
match er
Or Load
thing y
vis ible
If Absent
Ġdefin itely
78 3
ĠRe try
Sql IllegalArgumentException
Ġim ages
Meta State
ĠWARN ING
ConfigurationProperties ReportEndpoint
Converter s
Bit Set
Ġtimeout s
Ġignore Nested
visit Class
Grid Dht
plan ations
Groovy c
Concurrent HashMap
Ġfetch er
Ġeffect ively
Records Iterator
Put FormContentFilter
Ġconsist ency
UC ENE
Ġexclu ded
Ġcompil ing
EntityManager Factory
ĠLib raries
Param s
Ġpropag ate
pumpEventsFor Hierarchy
DAT A
Interruptib ly
Ġocc as
ORK ER
Ġadverti sed
world s
ĠignoreNested Properties
! "
# _
( )))
* :
* /_
4 26
7 43
: `
? ).
B l
C aret
D enied
F E
F h
G EN
J avabin
P ubsub
S imilar
S mart
T otal
T ah
W I
\ {
a id
c ad
d rain
e ven
e fined
h an
p v
p ite
s ans
t ics
x a
y w
Ġ ERR
Ġ avg
Ġ locate
Ġ Loading
Ġ answers
en ch
li J
al formed
vari antsku
for Input
re porters
ur ope
un ch
Ġs leep
Ġs elf
Ġf at
Ġre use
Ġc ircuit
Ġm anagers
us es
om a
ak ka
ĠI RI
Abstract Builder
Pr oblem
Pr ocedure
get Blob
Search Execution
], [-
80 8
impl ified
ser if
Class NotFound
Test Result
open Connection
Processor Node
vel ope
03 3
16 62
ĠF eature
ĠC oder
ĠN ull
ĠM anager
ĠM ake
State Store
chron ous
ĠH ost
ĠH ikari
Listener Container
Ġse q
ĠP ut
server Properties
aly tics
Elasticsearch Uncaught
ĠR ocksDB
ApplicationContext Exception
ĠL aunch
Not ification
dat anode
ĠUn expected
15228 112
RO OT
95 3
Ġqu ota
As Supervisor
Ġpre pare
ĠJava doc
ĠK STREAM
Mono Next
"}} }'
Indices Options
Flux Peek
Ġbet a
send Request
Lifecycle Component
Metric Registry
Resources AsSupervisor
Date Math
Prot os
park ing
Back ground
ĠMod el
Cre ation
ĠSearch Context
ĠStream ing
1522804 7
Scope s
Translog Recovery
xn u
Port able
Persistence Provider
cor s
itu de
Reduce Op
ĠEn ter
ĠSp anner
SV N
Ġcomput ed
ElasticSearch InterruptedException
download ResourcesAsSupervisor
Hdfs BlobContainer
Closed Exception
TestRule Ignore
ServletContext Initializer
ĠâĢ ĵ
AST Transformation
Ġaccumul ated
Ġassum ption
BlobStoreIndexShard Snapshot
Hdds Dispatcher
Ġcompar ison
MetadataReader Factory
ĠVAL UE
Ġpos itive
DefaultModel Registry
SearchQuery TransportHandler
Pooled ConnectionFactory
AnalyzerProvider Factory
BeanWrapper Impl
roublesho ot
Ġexpr essed
Ari al
ĠXml Configuration
Javabin Loader
Tah oma
forInput String
SearchExecution StatsCollector
ElasticsearchUncaught ExceptionHandler
# >
0 11
4 27
5 29
6 18
6 31
7 07
7 40
8 19
8 99
9 09
> ",
B Y
E P
G T
H ome
L r
L TE
P M
P ing
R AP
S ensor
T unnel
Z ero
h p
p anel
s With
u alizer
Ġ declaration
Ġ Restart
in stead
str iction
qu artz
Ġ" ,
Ġ" \"
Ġindex UUID
00 8
Re tries
Ġm or
ĠS PAR
Exception Translation
11 35
17 02
Ġp ul
cont in
ib ling
03 0
end ly
ĠF in
lib raries
Ġwhen ever
}} }}
Rec eiver
65 1
65 2
Ġy aml
09 9
Ġsu itable
Key Event
parse Value
ĠIn jection
ĠL IM
Ed it
59 4
Dec imal
ĠUn satisfied
77 4
term vectors
Component PageInfo
96 9
ĠTh anks
Block Statement
ĠRe turn
Ġdifferent ly
TE GER
XContent Helper
Sp anner
Ġreg ex
Module CL
TT Y
Ġdet ail
Ġgu ard
Al locator
Ġcustom ized
]. [/
Ġwindow ed
Restore Service
Ġclean ing
Ġlo se
ClusterState UpdateTask
ĠWeb Flux
must ache
Ġblob store
Ġbuffer ed
Zookeeper Client
stop ped
âĢ Ŀ
Declar ation
AbstractNio Selector
Try ing
AC K
Ġobserv e
mc r
ĠBy tes
MB ER
Immutable List
ĠOver riding
exclu sion
Ġsn ippet
Ġsubsequ ently
Ġwor th
Ser de
AutoConfigure MockMvc
ĠLib rary
Ġtransl ated
Ġsco res
emit ted
Ingest Document
conflu ent
Ġrecom m
ha ust
Serial Data
Micro soft
edic ated
Already ExistsException
ĠEc lipse
hit Execute
ĠLIM IT
].[/ ]
" ?
5 90
6 14
8 27
9 10
9 86
9 400
A mb
D r
H ierarchical
M aker
N or
N TI
T s
V C
V lc
W ORD
] ?
` '
b as
d isco
m ult
p th
p acemaker
u sion
Ġ er
Ġ Com
Ġ packaged
Ġ ÂłĠÂłĠÂłĠÂłĠ
Ġ Processing
Ġ KeeperErrorCode
li ce
al end
block s
se platform
it ems
is hes
un icast
iv ial
po jure
00 9
In consistent
Ġd istinct
Ġ1 38
Ġre factoring
Ġre balancing
spring Boot
ly n
12 26
test field
Abstract HandlerMethod
Exception OnError
Im prove
Im mut
Ġcom ma
Ġcom pressed
log gers
open qe
Transport Restore
ĠF ILTER
An t
do OnSubscribe
Ġare a
Ġe ager
Ad vance
Ġco ordinator
Ġco ordinates
ĠM IN
Worker SourceTask
65 4
-------- ---
File Based
Key ByWindow
doc Id
ĠG oogle
Server SocketChannelImpl
my lyn
start Internal
Ġsh ell
Ġsh ift
Local e
SpringApplication RunListener
back wards
ÂłĠÂłĠ ÂłĠ
Single Parameter
new ExceptionOnError
default Read
Write Fn
AAAAAAAA AA
Ġim person
ĠK IP
Multi Fn
Mono OnErrorResume
Delegate Category
Ġk ibana
Module Builder
Ġaggreg ator
ĠMap per
Ġent er
ClassPath Scanning
ren ame
Lifecycle ModuleBuilder
ĠTest ed
Socket Channel
Invocation Event
Token s
exp iration
bean Exporter
bl ah
Primary Shard
Ġ% {
Ġsolution s
ParDo Operation
rott le
Order ed
Tra it
US ER
authorize Request
Broadcast Helper
Rpc Call
optim ize
Ser des
Ġcontin uous
TOP IC
HttpMessageConverter s
Documents Writer
3503 75
Ġty p
ĠCap ability
GroupAlso ByWindow
cX Vlc
WebRequest TraceFilter
Validates Runner
CandidateComponent Provider
alend ar
TransportRestore SnapshotAction
SpringApplicationRunListener s
SingleParameter Injector
DelegateCategory Provider
ClassPathScanning CandidateComponentProvider
0 25
4 92
5 85
6 87
7 06
7 39
7 21
8 13
9 04
: {
; .
A pex
C ouchbase
D ump
E ar
F old
G ource
L UCENE
N n
P and
T Q
T ort
V oterApplication
W be
W ir
W iFi
] $
d an
h A
j itter
m peg
o ise
s y
s id
u R
v ing
v ulnerability
x R
Ġ Trident
Ġ Commandline
Ġ QueryPhaseExecutionException
ar ing
li be
le ay
str ument
Ġr ecur
ight ly
is ClientAvailable
class worlds
and line
uc ing
Ġs cheduling
file watch
Con sider
Ġd uplicates
Ġb ottom
pro vide
Ġre moval
run TestClass
ĠS vn
Ġjava hl
Ġh ook
Abstract Connection
ss leay
Ch rl
Task Action
char set
red ist
Ġcom andline
Test Pipeline
13 34
2018 1113
03 2
ection Strategy
OT ED
create Root
Shard StateAction
Ġde veloper
error Logger
47 5
Ad ditionally
ĠB asic
client adapter
85 1
load Sync
Ġlog viewer
Up loader
ĠP COLLECTION
ĠĠĠĠĠĠĠĠĠĠĠĠĠĠĠĠĠĠĠĠĠĠĠĠĠĠĠĠĠĠĠĠ ĠĠĠĠĠĠ
String IndexOutOfBoundsException
Http Tunnel
Ġ# .
ĠJ ust
ĠJ ackson
ĠJ ersey
ĠD SL
ĠG u
ĠR AS
ff mpeg
152280 615
sub r
node manager
180 9
97 6
Call Expression
55 1
Ġ... ]).
)))))))))))))))) ))))))))
Project s
Get ter
Get OrLoad
check Version
check CLI
check SupportedVersion
apply BeanPostProcessors
ĠJava hl
Ġdown loading
ID IA
Ġinter mitt
79 92
Ġconnect ing
Metric Export
Ġreason s
Windows Apps
Windows Power
ĠV ulnerabilities
Ġapp s
Collector s
Ġmark ing
Ġlibsvn javahl
Ġconf usion
Primary Result
Expected Exception
Ġimport s
Ġmer ges
Storage Container
ĠUp grades
Descri bing
ĠRequest ed
Ġrefer s
Ġprint ed
finish Refresh
ĠCon figure
submit ting
ys X
Clean up
Sec ret
":[{" _
Random Access
Ġmaven project
Ġincre ase
Ph ysX
Ignite Cache
setup Commandline
ĠDate TimeZone
Ġrandom ly
956 0
respon d
Ġreview ed
Ġcontroller Id
Ġip sum
Ġoverrid ing
Cached Chain
Windowed Value
Ġrecre ated
Ġreli ably
Ġsn iffer
ĠPr oblem
Ġlibapr util
Ġlibapr icon
465 8
fold ers
Ġ"* "
OB JECT
Dev Fa
Merged ContextConfiguration
eless Common
Ġfo af
Zen Ping
ĠStandard Servlet
ĠIgn ite
Decor ated
Ġequ ival
qT roubleshoot
ĠRefresh ing
ĠCent OS
dot net
attach ment
autom ated
LEn gine
SSLConfigurationReloader Tests
svn clientadapter
ĠFrame work
NV IDIA
Pu TTY
mbeans erver
locked GetOrLoad
Pand oc
Tort oise
Wbe m
Wir elessCommon
libe ay
ĠSvn Kit
createRoot ApplicationContext
HttpTunnel Server
checkCLI Executable
WindowsPower Shell
Ġlibapricon v
DevFa qTroubleshoot
Tortoise SVN
DevFaqTroubleshoot ClassNotFound
% "
+ ",
/ "
4 28
6 02
7 99
7 380
8 64
D ue
E J
F low
H ell
K d
N z
O c
R an
S at
T ue
T ags
U F
c ce
k B
n N
n able
p id
w as
x T
z N
as per
et ter
am pler
uc as
Ġs aid
Ġ{ @
sw aec
Ġb unch
ith metic
Ġre written
run Once
run UserTask
Ġc are
us age
ĠS trict
Ġbe au
Abstract Lookup
get Data
get Match
ub f
Ġex porter
Im p
Ġ' %
Ġpr act
Ġ0 3
assert True
de stroy
do Close
pos al
49 04
Stream Handler
08 1
08 7
65 6
05 2
Web Client
Ġy ellow
ĠH E
ĠH ave
ĠThe y
Log s
Http PutFormContentFilter
87 2
Rest ToXContentListener
Ġun fortunately
Ġ4 6
my Predicate
Per Field
Comp at
Comp act
handle Write
der r
Annotation Refresh
Ġrestart ing
Ġback wards
vis ualizer
check ClientAvailable
Security Interceptor
77 3
Component Scanning
Ġthrow able
Ġi e
Group Head
Ġconfiguration s
Ġspring framework
Sql Base
Logging Filter
Ġbro adcast
Ġfl ags
Script Service
Link s
Ġcontainer Id
engine Load
Str ategies
Exporter s
OP TIONS
Dependency Exception
\": \"
Ð¾ ÑĤ
Ġwant ed
convert To
Char Property
764 0
Throwable Proxy
Trident Kafka
Ġdetect s
postProcess BeanDefinitionRegistry
Ġhang ing
authorize Action
Distributed Herder
Ġoverrid den
export s
Undertow Deployment
GradleProject Cache
exclu sions
ĠMon itoring
ForEach Op
tri be
observ eOn
ValuesSource AggregationBuilder
Yaml Processor
ĠIgn oring
ĠSolr Core
Ð¾Ð ²
built in
ZookeeperDiscovery Impl
Mail Sender
ĠCREATE ing
Ġpreced ence
Ġpopul ated
Ġmaint ain
ĠBE AM
doResolve Dependency
swaec hter
Ġbeau ty
AnnotationRefresh Task
) `.
6 01
6 08
7 66
7 47
8 25
B reaker
D on
E st
J M
M atches
P SP
R g
R ocksDB
X a
Y U
b le
c ross
f g
s z
v a
Ñ Ģ
Ġ Qu
Ġ Access
Ġ 90
Ġ Logger
Ġ( /
en aming
on s
mal y
Ġr dfs
Ġcon c
ur n
il ing
Ġw atcher
Ġs ql
Ġd istributed
Ġ: )
Ġb o
ol ts
Th ank
Ġm ult
Ġh olding
test Multiple
Ġfor b
Pr inter
get S
http client
log file
13 59
16 79
rec v
Access ible
to po
86 3
Ġli ve
Ġ# ).
fix ed
ĠD iscovery
ĠD ebian
parse With
Ġun int
my type
]] ),
58 34
180 7
97 8
88 2
ĠAS C
Inter preted
Ġdis posed
96 1
96 3
ĠRe ason
69 15
Ġdat anodes
Ġign ite
Ġar r
Gradle Build
ĠTime Windowed
Status RuntimeException
seri alization
ĠClo se
some thing
Aggregation Phase
Ġsyn chronized
Ġsyn onym
Ġow ing
Ġdec ide
Merge Policy
Flink ExecutableStage
Rol lup
Ġprot ection
Ġpar ses
tra it
Enable ConfigurationProperties
(( -
Ġrepe at
Ġcomput es
Ġnormal ly
Subscription State
Ġsco rer
Ġevalu ating
Ġposs ibility
UG I
Ġfrequ ently
ĠRel ated
Disk Threshold
ĠMatch NoDocsQuery
EOF Exception
ĠAm azon
ebe b
Dispatching InvocationHandler
Verifying IndexOutput
ĠSer des
russ ian
applyBeanPostProcessors BeforeInitialization
7 36
7 28
7 67
7 55
8 14
8 39
8 91
9 11
; #
B V
B egin
F ROM
G Z
J DBC
J nL
K H
O K
T ail
T SaslClient
T Compact
U z
V ite
Z pe
Z ml
] ```
f uzziness
g f
g ender
k ka
l ag
p ubsub
r m
r n
Ġ Executing
ent ries
gu ess
ob j
ter Configs
pr io
Ġr iot
ac l
ac bef
Ġvalue d
Ġcon sequ
Ġcon sumed
iz ations
java fx
un less
tr ix
Ġ" ${
Ġ" {{
Ġal most
Ġt mp
ating ActionListener
In For
In GlobalWindow
Ġd ot
Ġa zure
Ġb eg
da aa
Ġis han
read Chunk
Ġ1 17
Ġc odec
Ġm ask
Ġm ismatch
Ġm vg
10 47
10 89
ĠS cheduler
test New
Abstract ClassGenerator
Abstract OutputStreamAppender
ss ibly
Pro filer
sp ot
get Async
get Or
fin alizing
Action Factory
Action Runner
sh iro
Ġex posed
15 476
11 73
Ġpr i
Transport ClusterInfo
Transport XPack
Un der
Un written
Un satisfied
fil l
ĠW atcher
ĠW atermark
do ControlledShutdown
Ġe quals
Java DateMath
Configuration ActionExecuter
Ġres olves
ĠC ustom
ĠC lick
ill ing
47 17
47 85
Ġg ain
85 4
State Initializer
load PSP
Ġj dbc
Dele ted
Data AutoConfiguration
To Offset
Build ActionRunner
Response ResultSet
ĠP ENDING
Source SubPhase
elect LeaderForPartitions
Container Replication
For NodeId
Rest Filter
Ġme ant
ĠD es
ĠR ow
sub QueryScore
ĠIn fo
ĠL ink
handle StateChanges
93 04
000 25
Embedded Tomcat
215 628
executeWith Retries
provid ed
col d
': {
Valid ated
Write Windowed
content text
Group Tail
Group Unwritten
Fetch SourceSubPhase
Simple ProxyLookup
Ġopen s
Iter atingActionListener
Frame Decoder
70 85
job manager
Ġk ick
"}} }
Master Nodes
Ġcommit s
Flux FlatMap
print Tree
has Subscribers
Gradle PersistenceProvider
Ðµ Ð
Listenable FutureTask
ca ped
counter s
recover able
IR G
Integration AutoConfiguration
ĠSe ems
Tomcat EmbeddedServletContainerFactory
aches Endpoint
iter al
rel ation
bug zilla
ĠTo ken
Aggregation Path
Ġ300 129
ĠLog back
615 4
TransportSearch QueryThenFetchAction
brow ser
Privileged Templates
Translog Snapshot
pn ZX
325 956
Sec ured
TA zOD
Mongo Client
StreamTask StateInitializer
Ġpick s
Ġhelp ful
388 29
Flowable Publish
<? >
weight Dispatcher
1522811 76
Snapshots Action
DefaultBuild ConfigurationActionExecuter
Term Vectors
xxxx xxxx
Ġsucceed ed
blocking Brands
YW Zpe
chang elog
sol id
ĠSub ject
ÂłÂłĠÂłÂłÂłĠÂłÂłÂłĠ ÂłÂłÂłĠ
Ġassignment s
TransportGet IndexAction
TransportGet SnapshotsAction
incre ments
Ġdiscus sed
Backend Restorer
Types QueryWithout
mcV L
Branch Conn
Origin Filter
66666666 6666
FF ER
JB HJ
take Until
409 22
Terminal Event
Atomic Cache
693 13
Wrapping Runnable
NbGradleProject Impl
Developer ControllerTest
doHandle StateChanges
Ws Filter
Ġsur pr
Public Metrics
Light weightDispatcher
exist ent
Ġthrott ling
duration Histogram
Volume Set
Ġconfir m
Ġyield s
Usage Action
Install PluginCommand
AE G
Pop up
Cross OriginFilter
Rh Zml
ĠIntel liJ
Scalar Function
Cancellable TreePathScanner
Trusted ListenableFutureTask
fec a
ReifyView InGlobalWindow
Live Reload
getNode ForNodeId
Aop Proxy
ÐĿ Ð°Ð¿Ð¾Ð»ÑĮÐ½ÑĭÐµ
OnFailure Listener
verified Brands
Ġperfect ly
GridDht AtomicCache
RAP H
emitted ToOffset
AbstractHandlerMethod Adapter
Decorated EditorPane
7380 6915
zN TAzOD
TridentKafka Emitter
TSaslClient Transport
TCompact Protocol
Vite k
InFor eground
testNew TypesQueryWithout
15476 99
TransportClusterInfo Action
TransportXPack UsageAction
JavaDateMath Parser
loadPSP Instance
WriteWindowed Files
pnZX RhZml
StreamTaskStateInitializer Impl
YWZpe C
BackendRestorer Procedure
testNewTypesQueryWithout Reshuffle
) ?
5 38
9 15
F reeMarker
G A
G cp
I X
I KE
J ersey
L abel
L icense
O W
P ID
R V
S W
T UR
T wo
W ORKER
Y j
i O
m anagers
r ank
w i
y ear
z L
z P
} \"
Ġ 66
Ġ Async
Ġ Process
Ġ UTF
Ġ acknowled
on to
ec d
al li
ex planations
lar ge
ab out
lo y
Ġw rote
Ġs olved
Ġb atches
Re play
run Tasks
12 52
ĠS uper
Ġ` %
ti ally
Ab ort
Ġfor ever
Pro p
Ġ' /'
11 34
Ġpr oceed
Test Database
13 35
Fac ade
ĠT imer
are a
app s
64 2
ĠM em
ĠM issing
ĠM anaged
ĠM AX
85 3
Ġlog in
Ġsu ffix
Listener Callback
Ġap parently
ĠJ oda
Ġsome what
Ġrec ognized
ĠR edis
Ġ@ @
23 157
call UserTask
res olved
ĠL ine
Ġsh are
114 6
Sc m
Property Exception
Fl aky
Dec ider
Or Error
Engine Exception
SS E
col umn
Global Ordinals
ĠU UID
He ight
Ġover all
Block OutputStream
XContent Structure
View Controller
Ġway s
Output Buffer
Ġhand shake
Ġali gn
SpringBoot ContextLoader
UN ASSIGNED
Json XContent
BigQuery Utils
IL ABLE
Change Logging
Ġz k
resolve Dependency
Solr Exception
Solr Call
Ġke pt
NU MBER
Ġgre en
ĠStor e
486 23157
Gu ava
rules ys
AVA ILABLE
Ġident ified
Ġtermin ates
Allow ed
book marks
att empt
Ġgr ace
optim ized
Ġbl ack
scal ed
Ġpur pose
Ġreplic ated
Ġpropag ated
bund ling
Ġconsume s
797 69313
hw x
bg p
Ġlisten ing
Compat ibility
ĠSuper visor
79769313 48623157
) _
5 20
5 34
5 99
7 92
7 34
B ool
C r
E urope
F ri
H old
L P
L aunchedURLClassLoader
M ER
M any
M ustache
N est
P ace
P AT
R S
R oute
S Q
S econds
V ector
W ildcard
Y n
b X
c y
d est
f our
j z
j sp
p urge
r g
r itable
s ame
s Deletes
t et
y ou
z Rounding
} :
} );
ĉ čĊ
Ġ pair
Ġ Observ
Ġ Once
Ġ Connector
Ġ Deleting
en ge
ar ounds
st it
able PropertyAccessor
for k
for um
Ġr aw
ro ps
am pa
00 7
Ġd rops
of Worker
Ġf air
Ġf ragment
read SerialData
Re moval
Ac tor
Ġof fic
Abstract EventExecutor
Abstract Nest
Pro ofWorker
break ing
Action RequestBuilder
ub Connection
Ġex its
eb c
80 1
Run Last
RE QU
all enge
mon go
Cont in
De precation
storm conf
Ob tain
rec eived
do Bind
ĠB lack
prod catalog
load Future
Po licies
Web Extension
ĠA v
Map Fuseable
Ġtr ivial
Store Name
File Utils
Servlet InvocableHandlerMethod
ĠP OM
Ar ithmetic
Provider Adapter
Http Connection
process Config
Ġ4 03
call WithRetry
Ġany where
mov avg
Ġclo sure
Ġpo pulate
Ġpo lygon
Ġcheck sums
Ġcur sor
ĠE OS
Value Reference
Ġper haps
BU FFER
dat aset
ĠUn caught
Security AutoConfiguration
Security RestFilter
we aver
Process Context
Ġoff line
Ġopen jdk
Ġrele ases
post s
AM L
Constructor Injector
ish ed
Ġ{} ",
Transl ators
tmp dir
Metric ExporterSpi
Invocation Writer
Lock ProofWorker
Lock Obtain
ĠAn alysis
custom ize
Ġcol or
ignore Duplicates
Streams Metrics
Retry InvocationHandler
Plan Executor
Ġrunner s
Ġselect ing
ĠDe precation
ObjectMapper Builder
tab panel
Ġpar tial
Ġ30 52
Partial Rename
Ġswitch ing
Ġappend er
blocking Get
Ġip v
Profile Secured
ĠIm mutable
Loading Cache
Loading ValueReference
Trigger ing
TransportBroadcast OperationAction
Ðº Ð°
ĠCL ASSPATH
CloudObject Translators
Ġph rase
Mutation Det
Dead LockProofWorker
Partitioned TridentSpoutExecutor
Ġds g
Ġmail ing
Ġtomb stone
TranslogOperations RequestHandler
InternalFactoryTo ProviderAdapter
ConstructorBinding Impl
"? >
Maker StateStorage
Oc cur
ĠHE AD
Unsatisfied DependencyException
MER GE
Pace MakerStateStorage
ampa ign
AbstractNest ablePropertyAccessor
processConfig BeanDefinitions
PartialRename sDeletes
ProfileSecured RequestHandler
0 17
7 14
7 33
8 11
8 24
8 90
9 44
B est
C ause
C andidates
E viction
H ER
M IT
P ainless
R ight
R outed
U uid
c ip
c amel
e val
g y
i able
k T
m Q
Ġ ame
Ġ LE
Ġ ill
Ġ ControlledShutdown
Ġ float
Ġ voter
Ġ Commons
li very
or em
Ġr ing
se ek
ur is
per spective
Ġin spec
il kin
Ġo uter
Ġt ags
Ġ1 34
Re moved
Ġm anage
ĠI S
ĠS ign
Ġh ibernate
test Rename
Pro files
Pr incipal
get Connection
get ComponentPageInfo
fin der
Ġex c
ri bb
fl atten
Ġp ause
Ġst umb
SH A
pre Analyze
Un fortunately
Client HttpRequest
Ġe ureka
64 00000
Ġco ver
Ġg cp
cluster Changed
State Change
05 4
Ġ5 24
09 0
39 75
ĠP ass
ĠP ort
Conn ectors
not es
Ġun available
Ġ4 01
152280 39
152280 38
Ġout come
Controller HandlerMapping
ĠIn v
Ġv irtual
98 1
ĠE MPTY
46 1
Coll apse
No thing
Ġload s
Partition LeaderEl
Ġrel oc
Environment Manager
Ġlook ed
TE S
400 01
Jar Hell
Ġlocal e
Ġsp ot
Start ed
send Execute
component s
Ġmin or
Ġmap s
war mer
ĠTime d
commit ted
Spout Executor
ĠWeb Sphere
visit Method
Ġreproduc ing
ear ly
FI ER
Ġreference d
Spec ification
ĠAl ready
Ġcl one
Ġexp ire
Ġfinish ing
Mongo Db
Dynamic Broker
Ġincre mental
Overflow Exception
Ġhighlight ed
environment Manager
Ġlot s
Multipart Upload
ĠZ K
Allocation Routed
Hdfs Bolt
Ġword count
Details Service
man ual
Datanode Service
observ able
Wrapped Iterator
################ ################
Hdds DatanodeService
Ġprivile ge
Ġprim itive
hel pers
ĠOut put
ĠSup port
Calc ite
parseInner Filter
Ġqual ifies
Ribbon Client
WrapperSimple AppMain
Ġdiffic ult
Ġbus iness
ĠWE EK
JsonXContent Generator
Ġill ustr
ĠControlledShutdown PartitionLeaderEl
ilkin son
ribb on
StateChange FailedException
AllocationRouted Step
ĠControlledShutdownPartitionLeaderEl ectionStrategy
2 208
3 0000
4 12
7 57
8 191
: _
C oded
C aught
C users
C Ny
D istinct
G g
R K
T B
X j
Y ear
] },
b cc
c n
d on
g lobally
j v
l F
n amenode
q k
t S
w ire
w yQ
y TW
³ Ð¾
ã Ģ
ï ¼
Ġ Execution
Ġ Actual
Ġ Ñģ
Ġ ÑĤÐµ
st er
in ality
re verse
ce wyQ
ic ode
gener ation
ro zen
": []
Ġs lash
Ġs cripted
Ġ{ -
Ġd b
Ġd ist
Ġ1 23
run Test
run Loop
Ġm anag
work s
work spaces
10 24
om o
12 43
ĠS pout
ĠS SE
Ġh arness
Abstract PropertyResolver
Abstract LifecycleComponent
15 37
Ġpr eserve
Run As
Method Invocation
Test case
13 17
Service Locator
Ġp ane
Ġst ale
Transport Percolate
03 5
invoke BeanDefinitionRegistry
Un modifiable
create Response
Ġl ack
Ad vice
Ġch oose
ĠB ad
Stream Observer
Ġ/ **
Ġ5 03
Ġrequest ing
86 8
Servlet TestExecutionListener
(" ${
Type Exclude
Read Operation
Delegating ClassLoader
ĠR a
07 3
Kafka Metric
Kafka TridentSpout
process Heartbeat
Cache Data
ĠL IKE
97 42
Call Site
Execute Actions
BU S
Create Container
Count DownLatch
ĠTh ymeleaf
Ġallow ing
WebApp Configuration
Streaming TransformTranslator
Ġam d
Remote SolrException
Template AutoConfiguration
()) ,
Bulk Operation
script s
Bytes StreamOutput
Topology TestDriver
Ð¾ Ð½Ð°
Metadata Store
Ġdes eri
Ð» ÐµÑĦ
Ġwrap ping
big table
Ġsimilar ity
Ġz ones
Throw s
round ing
Offset Strategy
ServerTransport Filter
BE ARE
Inner Metered
Forwarding ServerCallListener
Timeout Exception
IM E
IM BUS
input s
Sample Actuator
ecess arily
Filters FunctionScoreQuery
pli es
Reactive WebServerFactory
Ġcombin ed
coun ting
Ġextract ed
Struc t
Ġsitu ations
Man ifest
KS IGN
Finish ed
Ġtre at
Ġstand by
Ġcor ner
Transactional State
OO OO
Sign al
ne KSIGN
coming Request
PG neKSIGN
InMemory MetricRepository
MonoLift Fuseable
Ġdemonstr ate
Ð¾Ð ³Ð¾
Metered KeyValueBytesStore
ĠRDF DataMgr
Hypermedia AutoConfiguration
fab d
asd asd
Introspec tor
Mk cewyQ
ĠOff set
AUTH BEARE
Queryable Pipeline
ĠRx Java
Kerberos SaslTransportPlugin
Ġord inals
ClearScroll Controller
Ġbel ong
contin ent
NTI FIER
defaultRead Fields
Ġpract ice
Ð¾ÑĤ Ð¾Ð²
UndertowDeployment Service
optimized Plan
CNy PGneKSIGN
ĠÑģ Ð¾ÑĤÐ¾Ð²
ĠÑĤÐµ Ð»ÐµÑĦ
TransportPercolate Action
invokeBeanDefinitionRegistry PostProcessors
processHeartbeat Response
ExecuteActions TaskExecuter
InnerMetered KeyValueStore
SampleActuator Log
AUTHBEARE R
CNyPGneKSIGN tS
ĠÑģÐ¾ÑĤÐ¾Ð² Ð¾Ð³Ð¾
ĠÑĤÐµÐ»ÐµÑĦ Ð¾Ð½Ð°
2 171
4 20
5 98
7 23
8 66
9 88
? ?
B oss
C auses
C ircuit
E poch
F C
G W
H ave
I Q
O VY
P T
R r
T UGI
U W
[ "
_ :
_ ":
d G
d ht
e eb
h udson
k ill
m Y
m ate
m anaged
p ipelining
w an
w atches
x sd
y S
y gon
Ġ ann
Ġ Handler
Ġ Runner
er ance
co uld
ing Strategy
Ġr ack
re play
ed Task
Ġin fra
ap t
Ġt al
Ġw riter
Ġs lower
update Document
20 94
Ġb ring
ol erance
Ġ1 45
Ġ1 01
Ġc ycle
Ac cumul
em pel
ĠS n
get And
get Message
get InputStream
get Leader
Action Provider
Ġnot ification
Ġex tr
Ġex haust
Ġwh atever
Dir ected
Tr acking
io s
11 65
11 81
Ġpr incipal
Ġ0 5
() ]
set Size
22 25
yn chronous
19 70
FO R
Ġp ython
pre ter
pre processor
En hancement
Transport Plugin
exec utable
syn tax
de limiter
Event Listener
Client QuotaManager
0000 05
ĠW rong
Ġus able
Ġpro ps
ĠC red
02 8
Query Cache
Ġch o
ĠM ET
ĠB UT
Ġg l
49 0
data Node
Stor ed
08 8
Worker Process
Ġlog back
09 4
Store Builder
Ġse es
ĠP ainless
Http SolrCall
Pipeline Result
Ġun clear
And Check
Field Name
Properties ToTarget
Ġpo wer
}, {"
vir tual
Ġ+ =
Ġver ified
Cap acity
Ġdis pose
RO OVY
Ġtrans actions
Ġopen qe
ĠRe produce
TE MP
Ġim mutable
ud io
keyword s
coll apse
Ġserv ed
Ġaccess ing
Network Nodes
AN G
Work around
Ġfac ing
ĠWeb Security
Ġdebug ger
Ġdes pite
FA ILED
ĠWindow ed
Delete Response
Producer StateManager
Ġdec ided
TR UNCATE
Arch ives
Ġrepl aces
TA IN
Ġmis leading
Ġingest Document
postProcess PropertyValues
AbstractHttp Connection
Ġindic ates
Ġjoin ed
ocks db
NetBeans Projects
Routing Table
Ġcollection s
Shared Interruptibly
ServerCall Impl
Gateway MetaState
replace Directed
Ġaccording ly
shardOperation OnPrimary
Ġfi t
ĠByte Buffer
ĠAuth entic
ja as
ĠBlob Store
WebServerFactory Customizer
Ġrename d
hand ling
runUserAction Task
runUserAction TaskImpl
============ ==
doWith Methods
ĠSkip ping
waitFor Condition
upgra ding
SAX Parser
Ġoccas ion
ĠSearchContext MissingException
getMatch Outcome
Ġame t
TUGI WrapProcessor
preprocessor bridge
replaceDirected NetworkNodes
# !/
* ]
/ \
6 88
7 30
7 65
8 495
< <
> }}
A WS
A wait
C Z
C w
C ategories
D rop
E MPTY
H adoop
J xD
J ohn
J Fh
K K
K w
M beanExporter
M rg
N ECT
R H
R v
R ecur
R enaming
S ection
S implified
U Q
U r
V ert
a vo
b atches
c lick
d fa
g oto
m ixed
n gram
n esting
p urgatory
q Ug
r s
t oc
t el
w M
z AT
{ }'
Ġ Color
Ġ ÂłÂłÂłÂł
Ġ xpack
Ġ ,"
Ġ Metric
Ġ RestHighLevelClient
Ġ Localizer
Ġ Validation
Ġ ------------------------------------------------------------------------
Ġ( _
at ives
Ġn aming
oc curr
th rottle
co ol
)))) ;
ab stract
Ġr isk
Ġr anges
re es
im mutable
binary Key
com pojure
ur omo
ch ecker
net igso
date time
Ġs rc
est er
card inality
20 65
Ġa kka
pro per
read Internal
Re m
Ġc ut
Ġc aches
Th ymeleaf
201 60
ĠS sl
Ġ` ./
ti e
Ġon going
Abstract IOReactor
Thread Renaming
Pr ess
get Options
14 35
sh EZ
Ġex poses
15 07
Task Name
Tr acer
eb xz
art ic
fa ke
Ġst yle
Res pon
ĠT ra
Transport Rollover
De pendencies
invoke ChannelActive
Filter ing
create Argument
Client Async
Ġas ynchronous
0000 000000
ĠW riting
37 77
ĠC lean
record s
Query Iter
ĠB oo
85 2
IO Dispatch
48 04
... )
name space
Build Manager
ĠH AV
Ġtr ust
Store Provider
File Util
Listener s
ĠP ack
Source InputFormat
main Run
For Testing
Server Impl
With Cancel
process MouseEvent
Ġ4 06
Message Channel
152280 27
AutoConfiguration ImportSelector
Do es
User Name
88 3
ĠE lement
Internal Aggregations
vir g
Cap s
Or Book
Or phan
Plugin Manager
)))))))))))))))) ))))))))))))))))
Get Response
SS LEngine
Ġsee med
Open Census
Ġac qu
Ġsub stit
ĠĠĠĠĠĠĠĠĠĠ Ċ
anc y
mark Panel
Group Encoder
Environment Prepared
Sql Validator
Document Field
go od
LI D
Ġoccur ring
ClassPath Resource
112 6
DataSource AutoConfiguration
Line OrBook
result StandardScheme
Ġel ection
Ext Kit
sec ured
Ġhel ps
.* `
Authentication Filter
uffle Grouping
finish Connect
document ation
HealthIndicator Configuration
Ġeffect s
address es
Dynamic ally
Ġmis s
RestTemplate Builder
Constant s
339 95
Ġdev tools
Ġsim pli
Closed Event
TreePath Handle
Ġhon our
ĠMulti part
Percolator Executor
Ġexecutor s
Ġrespons ible
Ġinvestig ating
ridge Handler
Fast ThreadLocal
Injection Metadata
KQ w
Ġrepeated ly
Book marks
JB ridgeHandler
Ġcancel led
ĠSL OT
Ġsynchron ization
Rele as
Mutation GroupEncoder
567 12
SocketProcessor Base
xc yTW
MonoPeek Terminal
Goto Action
Goto LineOrBook
Ġ15602077 56712
Assigned Tasks
MessageBus Adapter
Highlight ing
Ġdesign ed
Ġconsum ers
AbstractProcessor Light
ManagedChannel Orphan
alis ation
FRecord IO
ListTasks Response
Overrid es
ĠConn ected
Percent iles
ĠRED ACTED
ĠBit mapFont
ScriptEngine Service
Denied Exception
Kd shEZ
SqlBase Parser
four tel
JxD u
JFh Mrg
Simplified KinesisClient
qUg KQw
toc opy
zAT Uu
occurr ence
uromo ji
ThreadRenaming Runnable
ebxz JFhMrg
TransportRollover Action
createArgument Array
ĠHAV ING
OpenCensus MetricExporterSpi
EnvironmentPrepared Event
SqlValidator Impl
FastThreadLocal Runnable
Bookmarks GotoAction
xcyTW KdshEZ
GotoLineOrBook markPanel
ManagedChannelOrphan Wrapper
xcyTWKdshEZ qUgKQw
' `
( -
0 13
8 12
9 92
B Q
G D
H o
R ole
S Y
W idth
Z F
f uture
g i
h ref
v u
x t
Ð Ł
Ġ Ac
Ġ Ap
Ġ ClassLoader
Ġn a
Ġn egoti
in strument
ation Manager
th rough
pr ivile
state Machine
par do
el k
ab ort
re le
con verter
Ġt s
Ġs ym
In cre
Ġd ie
Ex pect
ext ra
Ġb olts
read ing
Re production
Ġc aret
Ġm ill
ÂłÂł čĊ
ĠI M
ang er
get ClassLoader
:// /
Ġkey word
Ġst aging
ĠT OP
Par sed
16 80
invoke Matching
OT HER
Index Response
18 40
ĠW ill
very thing
64 28
37 73
ĠC o
02 3
ip s
web flux
ĠB az
AR D
65 9
min utes
ĠA tt
Build ing
Default s
ĠP ython
Ar g
\" \
Node Exception
Log Dir
Id entity
ĠD ue
Ġ_ ___
parse Sub
Delegating Smart
Ġ4 1
Name space
ĠIn ner
ĠL et
IT ION
97 4
No NodeException
border Style
Mon itor
Info s
config props
Ġqu ad
Ġtrans ient
Process Bundle
ĠTh us
ĠElasticsearch Exception
Buffer ed
Ġ\ \
Indices Admin
Ġsp ent
Ġfind s
MetaData Delete
war eness
initi alization
Date Histogram
Back off
Ġnum er
atic ally
Ġhost name
custom er
OutOf Range
117 08
Gr ab
âĢ ¦
initialize State
Parameter ized
Ġexp ired
ĠArray s
ĠDe precated
There fore
Ġdeploy ing
Ġcolumn s
backup s
------------ -
Ġincre ases
DateTime Zone
broker s
Hook s
ĠNode Exists
Ġhon or
EntityManager FactoryBean
Pol ygon
Ġyear s
Ġaccumul ator
Ġpur poses
ĠSte p
Ġevalu ation
ĠMar king
Ġcop ies
Ġdrop ped
ĠPer form
Ġpack ages
Rele ase
Ġactiv ated
conflu ence
parseInner Query
TG S
Kv Coder
Ġmigr ated
Rolling File
sen sitive
ĠSPAR QL
Immut ability
Contin uous
TAIN ER
invokeMatching Method
DelegatingSmart ContextLoader
MetaDataDelete IndexService
OutOfRange Exception
' {"
. :
/ ,
6 95
6 96
7 96
8 30
8 32
9 52
A ly
A GE
C p
C op
C ron
C achesEndpoint
D exec
E LD
G X
H alf
I SO
J SR
K ern
M Y
M l
M ux
N one
S K
T olerance
U B
U U
U LID
V A
Z l
b reaker
c ampaign
d raw
e ich
e js
j b
p ast
r as
t R
w ine
Ñ ĥ
Ġ Result
Ġ Empty
Ġ CompoundProcessor
ŀ ľ
en ull
at trib
ame s
st s
st ation
ex pecting
loc ality
able Like
con cat
con struct
Ġcon te
ch wan
ra ise
iv ing
Ġs olr
update Key
pl orer
line Image
Ex cel
Ġb ench
ke i
us kei
ĠĠĠĠĠĠĠĠĠĠĠĠĠĠĠĠ ĠĠĠĠĠĠĠĠ
12 87
Ġof fer
ĠS peed
Abstract Endpoint
Abstract AggregationBuilder
Thread Impl
Thread Executor
ss a
], [
04 2
Ġpr ice
open ing
Service With
Service No
Ġst ation
Ġst ed
cont acted
Application EnvironmentPreparedEvent
Par allelism
invoke ProcessElement
Qu ick
Index able
ĠW SV
Ġpro filing
do Dispatch
do Delegate
Java TokenProvider
64 3
AA F
ime d
Query String
ĠM aybe
ĠM oy
ĠM ediaType
ĠB elow
ĠB rix
Resource Loader
48 99
Ġlog To
Runner WithArgs
add WebApp
05 5
Data Bag
Async Supplier
flow id
Build Operation
Default Single
File InputStream
File Tree
File ChangeListener
mit s
Key Group
For Class
For BlobStore
Http Status
Rest Channel
ĠJ AVA
ĠG las
Ġrec ogn
ĠR abbit
Ġ3 00000
Auto Profiling
And Document
Dis cr
start Object
start Grid
start RunnerWithArgs
Field AndDocument
Ġ6 086
Ġv ector
blob s
User Type
Local DevTools
Hint Registry
Ġper man
container ID
Mapping Jackson
Boot Zip
Create Time
Engine And
Project CompilerOptionsQuery
Security RequestInterceptor
Single ObserveOn
ial ect
.... ..
we avo
100 2
TE ST
Ġim plies
Ġx t
Pre processor
Level SecurityRequestInterceptor
Instance Support
Instance DataObject
ĠKafka Streams
Options Panel
Logger Factory
Ġsp an
ClassPath Change
send Command
view model
Hel p
Gradle JavaTokenProvider
application Context
After FailureDelay
Once Listener
Ġboot Run
Work space
Top Component
Is lock
Ġdeleted Managers
result Changed
Static Import
auto update
Ġwant s
author s
Schema Translation
Ġpost ed
temp Dir
AdminClient Runnable
ĠSh ell
ĠUp load
Ġ[?:?] ",
AbstractNio Channel
Caching AsyncSupplier
Boolean Weight
Grpc Client
Cmd Lang
connection Factory
SP AR
306 06
mo use
405 3
Throwable Collector
Ġpick ing
Ġdeclar e
Tra vers
Ġtra iling
authorize IndexAction
Database Shared
Ġsupervisor s
ĠEn g
DateTime Formatter
ÑĤ Ñı
Profile Value
ServerCall s
ĠCor rect
Ġ\"_ \"
IST S
irc ular
Amazon S
ĠProperty Override
ĠEvent Type
ObjectFile Storage
411 927
country Id
Declarative HintRegistry
Datanode StateMachine
Ġ"* ",
ValuesSource Parser
Vol cano
OzoneManagerProtocol Protos
SaslClient Authenticator
receive Base
Ġsetter s
Validate ID
TabbedPane UI
Ġpres ence
3503 76
Rollover Info
AUT O
KrbTgs Rep
hel p
Notify OnceListener
Ġmut ated
GridCache DatabaseShared
Ip Node
Ġmanifest s
"}}, {"_
ZookeeperDiscovery Spi
Upgra der
AuthenticationManager Configuration
Selection Model
bra ins
stra int
ĠSubscri bed
NumericToken izer
TestMethod TestDescriptor
Discover er
MobilePlatforms OptionsPanel
NM ClientAsync
Ġess entially
special s
ANAL YZ
Ġmor enull
Dr iven
expiration Date
MetricExport AutoConfiguration
Ran ker
Ġbeg ins
ĠLink ed
ChangeLogging KeyValueBytesStore
Ġoffic ial
Triggering Policy
DynamicBroker Config
Rem over
20160 107
TGS Rep
Aly ssa
Kern al
Mux ClassPathImplementation
Excel Id
ServiceWith Transact
ServiceNo Transact
ĠWSV R
ĠBrix ton
ĠlogTo JSR
DefaultSingle SelectionModel
AutoProfiling Interceptor
Discr im
FieldAndDocument LevelSecurityRequestInterceptor
BootZip CopyAction
ProjectCompilerOptionsQuery Implementation
AfterFailureDelay Millis
StaticImport Visitor
CmdLang Parse
Travers ableLike
GridCacheDatabaseShared Manager
MobilePlatformsOptionsPanel Controller
NMClientAsync Impl
! )
4 66
6 80
7 13
7 90
8 287
9 12
9 38
C ycle
J an
K otlin
L ATE
M ost
O paque
S econd
V T
W as
[ ]</
` [
c u
d ab
d ue
e h
e qu
e af
e aa
g ap
h ib
j A
m ur
m ask
m anage
r ender
w d
Ġ Configuration
Ġ Runnable
Ġ Repository
Ġ Before
Ġ Zookeeper
Ġ Initialization
Ġ( '
)) :
ar es
st derr
in cluding
or net
le Task
par tial
value Of
an ho
im ate
Ġo pts
be arer
try ing
Ġs ch
Ġa wareness
Ġb as
Ġf un
read Access
Ġre ver
Ġc oders
10 45
12 14
em as
ĠS tr
ĠS ay
Ġ` *
Ġh y
Abstract HdfsBolt
get Position
http core
IN ode
Beans Of
13 85
17 30
fa a
---- -
Ġp id
Ġp ooled
with in
de finition
ĠF ind
27 46
Index Request
do Service
Ġl inux
error Channel
45 97
ron eo
ĠM icro
ĠB atch
":" [
Ġj anho
To IOException
ĠH DDS
String s
ĠD istribution
Read ing
inter s
Pipeline Aggregator
ĠR ight
Ġ4 096
my app
Message Queue
152280 69
152280 79
call Decode
]] "
ĠIn stanti
Ġv iol
Do e
IT Y
Ġpo p
000000 05
Operation Routing
executeWith Info
15228 105
Ġspec ification
Simple TransportPlugin
yy y
transform Expressions
fe fc
ĠKafka AdminClient
Assert ing
Big table
Ġaccess ible
Ġplace holder
CON VERT
CON TAINER
ok http
Transaction Exception
Ġassert False
Shutdown Non
Nodes ShutdownNon
bl ack
Ġext end
Groovy TemplateAutoConfiguration
Ġem itter
getBean NamesForType
Ġdec om
Ġput ting
finish Bundle
Ġsepar ately
Arch aius
Ġbit set
oauth bearer
php unit
Ġrol es
156 395
Ph rase
Jackson AutoConfiguration
-* `
Term Query
ĠStack Overflow
285 6154
Ġhard c
ĠIm mediate
Ġdownload ed
Hdfs BlobStore
det ect
contains Key
aop alli
ĠDis patcherServlet
translate ToIOException
incre ment
NOT E
await TerminalEvent
observ ables
CC R
ĠPer haps
IndexTemplate MetaData
Annotations PropertySource
Ġinde pend
wal k
ĠVAL UES
Ġbr ack
ĠTer ms
Eureka DiscoveryClient
VI CE
Ġexperi ence
noop s
Declaration Test
Ġunint ended
9304 486
Ġann oy
Press ure
stateMachine Step
8287 93
BeansOf Type
roneo us
Ġjanho y
NodesShutdownNon MasterNodes
156395 9304486
aopalli ance
EurekaDiscoveryClient Configuration
" "
/ ...
0 22
7 20
9 07
C D
D netbeans
E F
F r
F unc
F olding
G M
G f
K NO
M ask
M ime
M ove
N IO
N aming
O ur
P H
P S
R W
T z
T ant
U l
\ ":{
_ "
a U
c ant
d virg
f ragments
h g
m search
n arayana
p ass
r ating
u G
â ŀľ
Ġ html
Ġ Prior
er able
li est
es cape
list Blobs
pr eserve
for t
re ts
ed c
ur ch
tur es
class reading
)))))))) )))))))))))))))
ast ore
Ġin direct
po unt
ap proved
pl oded
Ġ[ \
Ġto po
20 48
read NonProxy
Ġ1 68
Re pro
ĠS ocket
Ġ` --
Ġon Next
Abstract RowSet
Ch icago
15 21
Handler Impl
11 85
Ġpr eserv
Class Node
Ap pro
ĠT E
ĠĠĠĠĠĠĠĠĠĠĠĠ čĊ
Event Multicaster
Client Interceptor
0000 04
Shard OperationAction
ĠW ITH
AA H
Ad ditional
ĠM ay
ĠM VC
Ġg oogle
}} }'
36 28
49 03
cluster Service
2019 02
Ġj etty
Async ShardOperationAction
Ġsu ite
On t
ĠH ome
Ġtr uststore
File Channel
ĠP ers
ĠP LAIN
main Class
Container Protocol
Container Management
ĠĠĠĠĠĠĠĠĠĠĠĠĠĠĠĠĠĠĠĠĠĠĠĠĠĠĠĠĠĠĠĠ Ġ
String TermsAggregator
Key NotFoundException
87 4
Elasticsearch Assertions
Endpoint WebMvcAutoConfiguration
Ġun used
mer ce
ĠO ur
07 2
07 7
23 36
Sh ort
Ġfin ishes
Connection Configuration
Reg ression
fo x
fo af
Repository Data
handle Retry
fir ma
ĠUn der
Ġac quire
alth ough
Ġover written
fire MessageReceived
Simple ForwardingClientCallListener
Multi Task
the Context
Of Ref
Protocol Proxy
Ġstop words
br anch
Warning s
initi alized
Helper s
Leader ListenerCallback
Ozone OutputStream
Ġtoken izer
Bit mapFont
Tomcat WebServer
Statement Writer
Root Causes
Row View
Ġconf used
ĠSE VERE
Timer Internals
Ġgroovy c
Ġdec oding
BE ANS
output s
Setting Command
ĠDo uble
collection s
Non fair
Stats Module
Ġes caped
COM P
Ġsubscri bed
Address es
js se
Enable WebMvcConfiguration
Am z
Ref Count
ĠDat anode
Ignite Kernal
ĠStreams Builder
cs dvirg
NoSuch FileException
Ġ[/ **
Ġed ge
ConstantScore Query
SearchRequest Builder
Ġtransl ation
ITest PartialRenamesDeletes
Ġconstruc ting
Census Tracing
Census StatsModule
/** ").
Ġprim aries
Ġ1048576 00
SER VER
Ġty po
ĠProtocol Handler
nor ms
Ġautocon figuration
Ġdetermin istic
ĠOther wise
ĠIter ator
ByteSize Value
Lat eness
Buckets Aggregator
XMLDocument Fragment
ĠDAYOF WEEK
spell checker
CB OR
ĠTLS v
PrimaryOperation TransportHandler
GEN ER
Hierarchical Test
PrimaryShard Reference
Ġequival ent
guess RootCauses
PAT TERN
StreamsMetrics ThreadImpl
Cop ies
SPAR QL
KNO WN
Tant ra
pount z
readNonProxy Desc
ContainerProtocol Calls
ContainerManagement ProtocolProxy
Nonfair Sync
CensusTracing Module
XMLDocumentFragment ScannerImpl
" ^^
' ],
* ,
* /
, /
8 16
9 30
9 46
= ./
C he
D istributor
G ame
H ow
J t
K f
K s
L H
M alformed
N s
N ET
P I
S dk
S CH
T w
[ ...]
a I
a o
b m
c ensus
c wiki
d ifferent
e ther
f fer
j x
m ig
q W
s se
u art
z s
Ġ od
Ġ ui
Ġ Loader
Ġ Collection
Ġ LoggerContext
Ġ QUERY
Ġ According
id ing
ar eness
gu s
al s
or iginal
el ocity
int o
local domain
com bin
ann ed
av atica
Ġin ference
and by
am a
ap sing
jar s
Ġd uration
Ġd ummy
Ġb is
Ġb reaker
ke ep
Ġf our
Ġ1 03
Re fer
Re write
Re partition
om bok
bo s
bo at
ti jn
Ġh appy
Ch allenge
set ting
open census
Cont ain
ĠT emplate
invoke Listener
Client Impl
Ġpro filer
34 25
34 37
Object PostProcessor
aw areness
45 2
ĠB ST
/_ /
}} )
Ġj vm
Ġsu ffer
06 0
ĠH TML
File BlobStore
ĠĠĠĠĠĠĠĠĠĠĠĠĠĠĠĠĠĠĠĠĠĠĠĠĠĠĠĠĠĠĠĠ ĠĠĠĠĠĠĠĠĠĠĠĠĠĠĠĠĠĠĠĠĠĠĠĠĠĠĠ
87 0
87 1
OR S
OR Y
ĠJ ira
ĠD ynamic
ĠG CS
path InForeground
Ġun pack
process Exception
Basic Container
]] {
Field Element
ash orn
Ġbec ame
Ġ... ,
Mod ified
ĠE ach
ĠE valu
Ġ7 8
Ġver bose
Cluster Snapshot
Ġback pressure
77 7
anc hes
Process ed
ĠTh ose
evaluate Challenge
Block Join
ĠRe production
Net igso
Ġdat atype
fe a
ĠKafka IO
codec s
rit ical
":{ }}}
Big Arrays
Big Decimal
dele tes
ordin ary
print StackTrace
Metric FilterAutoConfiguration
Restore IT
Ġend ed
AN GE
Record Batch
df c
SSL Context
ĠException s
range Check
recover ies
recover ToTarget
Ġfac ed
Ġfac ets
Ġrespon ds
Ġcommon s
Cre ated
Av g
214 748364
Autowired FieldElement
Ġimport ance
Ġperform s
>> ()
Ġdescri ptor
Ġspecific ally
Stats Action
ys ical
mk dirs
Ġcheckpoint ing
Ġwho se
Min utes
ĠNOT E
Available Port
Ġcombin ations
tun nel
Ġindic ating
Mark up
Ġoptim ize
Ġiter ating
cg i
Ġplatform s
Ġcomple tes
ĠSub mit
9999 9999
Rename Action
Ġregular ly
Ġwor ld
Ġguarante es
Oz E
ĠPl atform
Ġassum ing
Ġassum ptions
Dev ice
ĠMac OS
Te ardown
Wait ing
Ġcomplex ity
Ġdemonstr ates
white list
Exchange Tracer
Ġrecom p
DAY OF
DataFrame Transform
yon d
(* )
Ġcommun ic
Unbounded Source
Ġlen ient
asci i
ĠLaunch ing
ĠReturn s
Est im
ĠObserv e
LockObtain FailedException
ĠInv ocation
Ġcho ice
ĠBoo lean
FileBlobStore Impl
ClusterSnapshot RestoreIT
( ..
- \"
6 13
9 202
9 243
A j
B Z
D l
E sc
H ist
H VQ
I net
J O
L imi
M AA
N A
R w
R FA
R UNN
S imilarity
T IO
T ools
W IP
W izard
X pr
] #
a R
a os
a EJ
c Q
c k
c tr
d H
e q
g ote
g Ci
h ight
h ook
h ave
h air
h ours
j T
k r
k y
m en
m shade
p Z
s r
t aps
z Y
| ...
Ġ et
Ġ RequestProcessor
Ġ ÂłĠÂł
Ġ RestClient
Ġ MeterRegistry
Ġ Question
Ġ Behavior
ķ Ĺ
en velope
at omic
st ill
Ġn bin
li o
al Value
list Status
field caps
mal l
ing Or
str ic
Ġr ules
Ġcon struction
se er
ic gCi
is que
ro me
et ween
ĠĠĠĠĠ čĊ
ut pat
lo ur
arch aius
po lish
Ġt b
Ġs m
ild fly
In line
Ġ{ ...
Ġd r
Ġd elta
Ġ1 20
Ġre ply
run Event
run Suites
Ġc d
Ġm ix
10 58
10 72
ĠI de
Ġ` {"
Ġjava docs
test ed
test Write
Abstract Listener
Abstract Before
Abstract ObjectParser
Abstract QueryBuilder
Ġfor um
Exec Java
Action Executor
ho use
Ġnot ified
Cl one
04 3
Dir ties
Run Hist
13 62
Com mitted
Ġan ti
vent ion
plicit ly
ure fire
Ġp unctuation
LE S
Ġst aged
pre Process
Channel Send
invoke Provider
invoke Callback
invoke Init
Initi alized
Ġ2 32
end Object
create Shard
create ParDoOperation
Index Lifecycle
Index Folder
18 95
Event Repository
Event Driven
Client AutoConfiguration
Client Input
Ġe viction
ov ing
ĠC AST
Ad ded
Ġco lour
Query Test
ĠB l
ph ot
}} "
32 00000
Rec ycler
Stream Transport
Stream Id
reg exp
Runner Builder
add ed
add All
Ġj o
Ġ5 6
09 5
min Freq
To Stage
On Methods
On WebApplication
Map Elements
Build Command
26 34
Ġtr acked
Ġnew er
Log Messages
Key word
Http Invocation
Http URLConnection
56 3
Ġme mbers
Type Provider
max Freq
ĠD on
Ġun parsed
Trans Binary
"," @
ApplicationContext RequestMatcher
Auto Creds
And Get
152280 76
Ġen for
Field Mappings
ĠL O
IT G
cub ating
Repository Rest
Not Null
Ġprocess Element
88 9
handle New
handle Discrim
Integ TestCase
Bind Handler
Resol ved
No Shadow
Ġ~[?:?] ",
IndexShard RecoveryException
Nio SocketChannel
Annotation InvocationHandler
Ġrestart s
AL LOC
worker s
Project Builder
Ġproperty Source
Ġdis posable
Stat istics
Valid ating
Window Action
user Id
from Inclusive
TE qk
Consumer ActionExecutor
We aving
Iter ators
alar m
Ġindices AnalysisService
Pre Built
ĉĉĉĉ Ġ
SE Library
ier a
Ġar bit
Ġvalid ator
Ġvalid ated
Ġ\ {
Assert Provider
Standard Root
Reference Counting
Network Proxy
view ControllerHandlerMapping
Ġinter fer
Ġinter preted
Bootstrap ForTesting
Metric Reader
After Rule
After Max
SpringBoot TestContextBootstrapper
HttpServlet Response
Ġ100 1
Back wards
Back Pressure
FileSystem s
HighLevelClient Scripts
Operator State
cent os
Ġhigh lighter
DataSource Properties
Forward ClientInput
Dependency Descriptor
CP U
Ġintr oduce
delete Blob
Change Log
tw TEqk
Ġdes ktop
Report Parser
Sasl Authenticator
Close WindowAction
Aware Router
Entity Links
Tasks Endpoint
Ġ300 126
task list
termin ated
Ġsyn onyms
Streams Builder
Compile Worker
Ġsuggest s
CO RE
Ġinstall ing
Bucket Collector
Ġanalyzer Provider
Boolean Scorer
Flink Job
Port ability
dvphuFi RT
Cmd Exec
Terms AggregatorFactory
SP R
ĠY AML
ĠFail ures
Docs Filter
Validation PostProcessor
1522808 34
CopyAction Decorator
docker java
Ġsec ured
Ġreset ting
DFS Client
Processing Loop
Restart Launcher
ĠDate Time
Reactive X
Cloud SolrClient
Annotated Builder
Mark Failure
Geo Shape
NPE Check
Tuple Lib
vol utpat
NoSuch Method
Ġ201 2
Credentials Provider
Ġexclu des
Login Module
Foo Bar
Ġvar un
TestRule MarkFailure
Instantiation Util
Ġwor se
cr Xj
(... )
804 2
ĠâĢ ¦
readClass Desc
ĠDoc Lookup
ĠPre Built
Ġfall s
ĠDataset Graph
Acl s
ProjectOpenedHook Impl
Zk Client
Ġut ili
ĠStandard Environment
Optional Time
TransportNodes OperationAction
Ġconcurrent ly
nor mal
ĠUN AVAILABLE
Interruptib leTask
PHPStan ReportParser
Zy gote
Ġisol ation
ĠLook ing
123456 789
Activity Thread
GV uR
Ok HttpInvocation
ĠWork around
ForkJoin Pool
../ ../
fair hair
yon a
Ġintention al
Ġnear ly
Instant RenameAction
rj twTEqk
ĠPo lish
ĠâĶ Ĥ
nl Ua
ĠDown load
TimeZoneRounding Tests
916 666666666666
Ġâ ķĹ
Narayana Jta
PW D
GRE EN
ateri alized
Ca iera
JN I
Ġextreme ly
getChildren Count
fireCompletion Actions
TestRuleIgnore AfterMax
Nor mal
Ġer roneous
cXVlc nlUa
Ġconc ern
testMultiple NodesShutdownNonMasterNodes
FlinkExecutableStage ContextFactory
Rollup Index
terConfigs Response
Ġfair ly
Ġstumb led
RibbonClient Specification
KafkaTridentSpout Emitter
TaskName Resolver
SSLEngine Impl
MessageBusAdapter Configuration
Overrides OnMethods
future Completed
ClassPathChange Uploader
ĠTE XT
Limi ter
TIO StreamTransport
Xpr g
aEJ icgCi
hight light
Ġnbin st
ingOr OverridesOnMethods
runEvent ProcessingLoop
runSuites InProcess
AbstractListener Write
AbstractBefore AfterRule
ExecJava Mojo
Dirties Context
ChannelSend Operator
invokeInit Methods
IndexFolder Upgrader
EventDriven Consumer
OnWebApplication Condition
BuildCommand Only
TransBinary DataFile
handleNew Request
handleDiscrim ination
NoShadow ingOrOverridesOnMethods
Weaving Adaptor
SELibrary TypeProvider
ReferenceCounting FlinkExecutableStageContextFactory
BackPressure Status
crXj rjtwTEqk
Zygote Init
GVuR mV
OkHttpInvocation Builder
916666666666666 6
TestRuleIgnoreAfterMax Failures
cXVlcnlUa GVuRmV
aEJicgCi Xprg
NoShadowingOrOverridesOnMethods Rule
crXjrjtwTEqk K
' _
0 85
5 21
6 92
8 28
8 42
9 59
A ws
B ANG
F ish
G auge
L iteral
S F
V AR
Y f
] ->
b v
b ippo
c S
c ancel
e v
g ot
h R
h i
i gu
j av
l Ã¤
n anos
p w
p ot
p ooled
r T
r ic
s cheduling
z a
} </
Ġ ..
Ġ Int
Ġ acknowledged
Ġ ARQ
fi t
ar q
st uart
th ere
es ides
el ation
el ine
string s
Ġr out
an sion
Ġcon tract
qu ot
is es
ker b
tr ust
Ġin jected
Ġt ill
Ġt eam
tion Results
Ġs chedule
In Same
Ġ[ /_
file beat
Ġa ws
read s
Ġ1 80
Ġre assigned
Re gular
Re peat
Th u
Ġm ag
Ġm anner
us hes
10 18
12 13
ow ner
test index
Se ems
get As
14 10
14 112
11 74
Ġcom posite
stor es
stor ed
22 14
all back
ant ic
ĠT uple
03 87
Ġ2 000
Initial Response
Client InitialResponse
64 503
Ġl aunched
ach able
execute FilterParser
47 11
pt om
ĠM er
ĠM ON
Ġg one
Rec eive
Ġrun nable
add ing
Ġj oda
Ġ-- :--
Val Comparator
To End
06 3
to List
Servlet RegistrationBean
ĠP assword
ĠĠĠĠĠĠĠĠĠĠĠĠĠĠĠĠĠĠĠĠĠĠĠĠĠĠĠĠĠĠĠĠ ĠĠĠĠĠĠĠĠĠĠĠĠĠĠĠĠĠĠĠĠĠ
not ifications
ĠJ Unit
ĠJ mx
ĠJ vm
ĠD id
ĠG rok
ĠG lass
Read Only
Kafka Channel
ApplicationContext Loader
Per Thread
Ġen sures
Sh ow
Config Def
word count
ĠIn put
Ġv ectors
Post Size
67 3
97 1
55 94
ART ER
98 4
98 9
Internal Order
Gener ationException
Property Placeholder
Mapping Exception
db a
ee e
over ride
Ġexist ence
Ġsub class
78 19
os gi
Ġpre par
Subscri bed
Pattern Converter
Ġk v
Session Store
Ġam ong
subscri ber
DoFn Invoker
Ġparameter ized
jo hn
analyz ers
94 29
Token Filter
Number Of
Ġcount Response
Ġlast Shard
Report Logging
Ġfil ename
Ġprevent ing
prepare Request
Tab les
!! !
Settings Module
Offset OutOfRangeException
nb javac
Ġdec re
ĠRequest Options
cf d
Boolean Query
Ord ValComparator
Meter Binder
writ ing
Ġmov es
Put Mapping
Ġinterval s
Optim ized
~~ ~
ĠSome times
atal og
ĠServlet Context
Ġide as
Cached Introspec
Follow ing
Ġsim ulate
Ġexclu sion
gss kerb
Remove PluginCommand
Ġsco ring
Fast Class
ĠCre ated
ĠBulk Processor
IfN ecessary
HE AD
ĠAuth orization
Ġpercent iles
ĠSpringApplication Builder
Ġconfir med
Ġsw allow
Ġcoordin ating
ĠSun day
Ġsemant ics
ĠAggreg ation
ano maly
Ġ154 17
RandomAccess DataFile
ĠStandardServlet Environment
ĠTimeWindowed Deserializer
Ġgrace fully
Ġinfra structure
Ġbench mark
ĠPers on
DataFrameTransform Task
invokeProvider InSame
ĠMON TH
Ġ--:-- :--
ĠGlass Fish
CachedIntrospec tionResults
invokeProviderInSame ClassLoader
) -
1 152
6 26
7 38
8 31
= \
A U
A pr
A zure
C ook
F oop
G cs
H d
H im
H istory
J b
K B
L Y
L m
P s
P ay
R f
T f
T FRecordIO
V elocity
X C
X P
Y z
_ ,
a ae
c lock
d bo
e ach
f fort
g Q
g ce
g son
h ire
j ul
s ur
s ecur
t oo
u su
w est
y so
Ġ ari
Ġ modifier
Ġ Âł
Ġ Executor
Ġ ach
Ġ Parent
Ġ AdminClient
Ġ Producer
Ġ PropertySource
Ġ DEFAULT
Ġ( {{
en s
er un
on Shard
on etic
at on
st c
st ones
Ġn ic
al ready
able Urls
Ġle aking
ĠĠĠĠ ĉĉ
cre dentials
com par
ot es
tur tle
un til
un wrap
ance stor
ance led
Ġoper ating
Ġt ro
ard s
Ex plain
ir ror
ol ation
Ġ1 08
Ġre p
Ġre factor
Re moving
Ġc amel
Ġc anceled
Th rift
Ġm and
aliz es
10 14
ĠS napshot
af finity
Ġbe yond
Abstract Collection
Pr essed
get Re
14 29
04 6
Tr ied
Context Selector
Class Finder
Test Cluster
17 27
Ġp ainless
Res ize
ĠT ABLE
de liver
create Test
ĠF urther
lib gdx
0000 12
do Call
thread pool
Java doc
Ġres pecting
ĠN AM
ST O
47 737
Ġco un
Ġco erce
Query Translator
Query Planner
ĠB LO
Ġg ithub
Ġg arbage
Resource Config
Resource Memory
load Latest
... "
Web Sphere
On Response
127 3
Build Info
ĠH ead
Ġrequest Cache
File Object
86 0
ĠP acemaker
ĠP DT
Http Async
Http Host
Http ExchangeTracer
ĠJ enkins
ĠG RAPH
Server Socket
Delegating TransportChannel
Ġun usable
ĠR ange
Ġ. /*:$
Mess aging
99 4
Auto Value
Per formed
44 6
Config Utils
ĠL ATE
Post ings
mat ically
Value StoreBuilder
Ver ifier
}{ [
Ġ\" %{
120 4
ry ption
': .
Window ingStrategy
map s
ĠU s
Ġtrans formation
Ġsearch er
Write PrimaryResult
ĠError s
ĠRe plication
Net Utils
Clo sing
Location Protocol
Ġindices Options
Element Exception
View s
84 64503
ĠKafka Producer
Ġiniti ate
Parse Element
Ġcontainer id
Ġcontainer ResourceMemory
LI KE
Ġproduc ing
DoFn Info
ren ces
Lifecycle Test
Metric Name
BeanDefinition Loader
Connect Schema
activ ity
aged Bytes
Beam QueryPlanner
[] {
Ġclean er
location s
ĠĠĠĠĠĠĠĠĠĠĠĠĠĠĠĠĠĠĠĠĠĠĠĠĠĠĠĠĠĠĠ čĊ
/* ':.
KeyValue Handler
Ġlo ve
Change ableUrls
custom izer
Vis it
inner OnResponse
prepare Index
214 7483647
ConnectionFactory Wrapper
authentic ated
SL ASH
00000000 04
Ġcoll ector
perform FirstPhase
var s
Ġencounter s
"] `
Ġchild ren
Ġsay ing
stand ing
Char Sequence
Ġsup ply
Ġbinding s
Ġaccept able
Ġflush ing
Min imum
Ġsimpl ified
consume Token
conf licts
vol cano
Ġrequire ments
ĠIm prove
445 13
Ġreal ms
JSON Parser
Filtered QueryParser
ĠMon itor
Ġturn s
Opt Configurator
Cor s
ĠâĢ ľ
Sign ificant
ĠStat s
Ms g
More Executors
Avro Coder
bund le
Tri be
Prepare For
Ġsynchron ous
SER VICE
ĠFAILURE S
Norm alized
Jta TransactionManager
Present er
Poll OffsetStrategy
Ġdig its
ConfigurationMetadata AnnotationProcessor
123456 78
Ġ149219 64
ĠcontainerNode URI
External Resource
obin Engine
Logback LoggingSystem
Ġcancell ing
Typed Read
tim ers
ĠEnter ing
ServletContextInitializer Beans
ASTTransformation Visitor
ĠFin ished
Ġcontinuous ly
Ġforb id
Ġacknowled ge
ĠMem ory
SHA DE
ãĢ ģ
Ġsimpli fy
Volcano Planner
"^^ <
BasicContainer OptConfigurator
ALLOC ATED
dbo e
Ġach ie
47737 2094
loadLatest State
ĠLATE ST
8464503 16
' );
) [
) `,
* \"
/ =
6 23
7 16
8 46
9 64
: ~
: ${
; "
B ody
B anner
B LA
B OOT
C atalog
G S
G v
G yD
J olokia
M ed
P f
Q I
U CE
Y A
Y C
\ __
_ ",
` ?
a im
b E
b all
e yw
f Ug
j C
k F
m po
n ear
n ashorn
q o
v s
v in
w idth
| ___
Ġ integr
Ġ impl
Ġ )\
Ġ Converter
Ġ Compar
Ġ Verify
Ġ( _|
in ing
es data
pr incipal
re ified
re alm
con version
ch ain
vo ked
un n
un ce
tr aces
et ect
su ffix
date OptionalTime
try Advance
Ġs l
00 10
Ġto uch
Con trib
Ġb igger
Ġf et
read only
Ġ1 09
Re index
Ġc alendar
Ġc ircular
spring boot
em is
ĠS O
Ġh our
get ApplicationContext
14 50
ub er
15 68
Context s
Ġpr em
log y
Test Secure
19 53
Ġ= ========
16 26
Event Manager
Ġus ages
34 298
Ġres ume
ĠM aking
ĠB olt
ĠB WC
Ġtest T
Ġso ftware
08 9
05 9
Ġ/ \\
Ġsu mm
); }}
On Startup
28 668
ql K
ĠH ow
ĠP ull
Key Range
doc Freq
ĠJ ohn
ĠG ROOVY
Ġ_ `
Ġ_ (_
With Custom
ET Te
parse Entity
Ġ| _|
Ġ| ____
Ġun related
aut omatic
ĠR outing
URL Resource
Ġ. __
process Action
my host
And Run
build Aggregation
152280 56
152280 78
call InContext
Ġrest Template
Sh rink
start EmbeddedServletContainer
Connection States
Ġag o
Ġsh aring
Local Exporter
Ġpl aced
Ġapplication Context
Gener ate
ÂłĠÂłĠ ÂłĠÂłĠÂłĠÂł
Ġback port
Ġdis appear
77 8
++ +
ĠNo Such
") `
Group s
EN A
html single
ĠRe plica
Ġcomp any
Sup press
Ġiniti ali
Ġport ion
Ġ\ /
Ġdet ector
Indices Aliases
session Id
Template Resolver
Wh y
Transaction Management
df d
IL L
info Endpoint
Ġthrough put
Memory Controller
Memory Records
Row s
Coder Registry
link s
Ġcoll apsing
binding s
Ġhealth Endpoint
initialize ServletContainerInitializer
Ġrefer ring
listener s
QU OTED
Ġ}' `
Ġred ucing
Ġpublish er
486 95
Ġcorr elation
consume s
Ġma preduce
Tra mpo
Ġmon th
Ġcombin e
ĠEn countered
Ġident ify
Ġpic ture
mbean Exporter
wj ETTe
Scan Finished
RI OT
meta object
Ġtermin ate
Cor rect
PR ki
limit ed
Trust Store
TIME OUT
CLI ENT
Ġmigration s
Att empt
Ġthrott le
fab ric
month ly
Ġinject ing
Ġ88 28668
|_| ==============
/_/_ /_/
Ġ|_ )|
Ġ|_ \__
IDE NTIFIER
FileStructure Finder
need s
Recover From
Ġaccur ate
qX qlK
Ġ___ )|
ĠFollow ing
Ġlic en
5834 48695
Gcp Options
zP m
cip her
ĠMET A
Ġ\\ /
SCH EM
phot os
Keyword FieldMapper
7819 63
*\" ]"
/= /_/_/_/
GyD fUg
|___ /=/_/_/_/
Ġ)\ ___
Ġ========= |_|==============
EventManager Imp
Ġ_(_ )_
Ġ|_| _|
Ġ|____ |
Ġ.__ |_|
initializeServletContainerInitializer s
Trampo line
wjETTe P
Ġ|_\__ ,
GyDfUg PRki
Ġ=========|_|============== |___/=/_/_/_/
0 24
5 93
5 661
5 468
6 22
6 363
8 15
8 45
9 03
9 06
9 43
; )
= %
@ "
B K
B last
B eta
B ecause
C ET
D AD
D IST
G iven
J m
M is
M zY
N atives
R obinEngine
S ys
S mith
T L
T l
T rees
U aW
V anilla
W G
Y TI
Z vc
Z GE
[ {"
] "}],"
` _
` /`
a VJ
c auses
d om
d pb
e in
e ign
e arch
f Z
j Q
j Z
j ack
m get
p od
r G
r fc
s ence
s TestExecutionListener
s YW
t eb
t icket
u dd
w ell
w aW
x h
} ;
· Ð¾
Â ¿
Ã ¿
Ð ·Ð¾
Ġ 37
Ġ App
Ġ fire
Ġ Integration
Ġ Commit
Ġ -----------
Ġ ordinary
İ ģ
Ĳ ŀ
en es
ent s
me m
me an
on Event
al Code
par rot
Ġr oute
Ġr otation
re view
an imal
an alytics
))))) ->
Ġcon sid
ic ipant
qu ad
ker s
org p
Ġ" %
am F
pl ane
Con cat
ext ension
Ġa u
ir i
Ġf eatures
Ġ1 07
Ġ1 89
Ġre ve
Ġre flection
Ġc ritical
10 74
ĠS uccess
ĠS erializer
pen s
que ues
Ġh ome
test ID
Abstract Index
Abstract Map
Abstract Wal
Abstract RootsWork
Abstract ErrorWebExceptionHandler
Abstract ValuesSourceParser
get Urls
get DoFnInfo
Exception Helper
Ġex port
15 000000
15 458
Task Outputs
11 00
Ġpr ed
Run When
ser ies
Class Exception
Class Writer
() /
Executor Scheduler
Ġconstructor s
Service Creds
SH VG
Channel ActionListener
app deployment
De precated
16 33
Initi alizing
ail y
Un icode
rec onnect
Index Field
Client Helper
Access LoggingFilter
0000 3
Ġus eless
66 69
Ġe u
Ġe ase
Object Start
ĠC ancel
ĠB roadcast
Ġg auge
}} ]
Ġtest db
85 3773
":" /
":" _
Resource Utils
48 923
continue Stor
load time
08 3
Ġlog stash
Error Attributes
Ġ/ {
Async ContextImpl
security Check
Map Subscriber
Default Con
Ġtr im
Spring ApplicationContextLoader
File Permission
Ġap prec
ClassLoader WeavingAdaptor
Main Observer
doc Value
Rest SqlQueryAction
ĠD uplicate
Ġun recoverable
URL Exception
Basic Fuseable
Next Channel
res ume
Result RowSet
Field Value
Field SortBuilder
Properties Launcher
vc s
Ġ6 00000
Ġv ulnerabilities
58 339
Ġne ither
Post Handshake
User DoFn
97 3
Not ice
Not Load
88 26
files ize
Dispatch Filter
handle Handshake
Command Ass
Command Support
OS ED
No YX
Ġab sence
fir med
Editor Caret
Get Future
Security Netty
Single Amb
Single GetFuture
bind Object
---------------- -
Perform Work
Ġsearch ers
As Merged
Write able
fire Deployed
Environment PostProcessor
Simple ChannelHandler
Simple MetadataReaderFactory
ready Inbound
Sql Transform
Ġim proved
Ġ15 380
Document Root
ĉĉĉĉ ĉĉĉ
SE ARCH
Job BundleFactory
WebApp NotLoad
post alCode
sl ave
89 254
Model Trace
Buffer OverflowException
Script ScoreFunction
Remote SpringApplication
Remote ClusterService
Ġgu ava
AB X
Shell FactoryImpl
Doc Values
ren ew
ES IntegTestCase
Ġreason able
Ġbreak point
Expression Statement
Ozone InputStream
BigQuery Helpers
WS DV
ĠÐ º
Reflective MethodInvocation
ĠV ulnerability
Inbound Observer
exp iry
Ext CommandSupport
Close IndexResponse
214 6
My Handshake
ĠIndex ing
Generic ConversionService
Grid Partitioned
Ġautow iring
Invoke Cmd
link ed
216 3
Groovy Starter
124 11708
termin ate
Plain OperationRouting
Ġhel ped
resolve AsMerged
ĠSet up
Segment Merger
condition s
Timer Data
Solr DispatchFilter
Ġsuggest ion
cb or
InternalEngine Factory
Non Null
Rx NT
ĠAl though
GroupByKey Operator
ĠCon sumed
Domain Object
Boolean Filter
ĠMy SQL
Ġpar allel
Ġbind s
Ġalloc ate
ObserveOn Subscriber
Ġ`/ `
Ð½ Ð·Ð¾
mc u
ĠBeam Sql
Enable AutoConfiguration
GE H
weight ed
NodeTable Wrapper
NodeTable Inline
ĠDate Histogram
Cloud Objects
ĠEn hancement
Range Parser
Archive OutputStream
Jdbc Assert
acquire ServiceCreds
lt ZS
Completed Callback
RI B
InterruptedException Test
637 8
extract Value
Ġprogram atically
Ġgr anted
LocalFsBlobStore Test
Current Status
team Id
Oz gx
Trust ManagerImpl
Ġpermis sive
YY YY
Vari ables
squ ares
Ordinals FieldData
609 1
Te fal
Ġut ility
Ġimpact s
TransportNodes Action
ConcatMapMaybe MainObserver
Tar ArchiveOutputStream
ðŁ İģ
ðŁ Ĳŀ
recoverFrom Translog
LTA wM
Ġequ ality
Interval Millis
startApplication Dynamically
Instantiator Strategy
Ġbr anches
RxJava Plugins
Ġdeal ing
ĠEX ISTS
MonoPeek Fuseable
JP DAD
JS YTI
ĠPartition Manager
ĠDisposable Helper
xw vu
Ġslot s
1545 853773
1545 89254
Std Call
setSniff AfterFailureDelayMillis
setSniff IntervalMillis
determine NextChannel
subdivision Id
Central Directory
ebugger Impl
setUp CommandAss
ingTask State
ĠTop ic
FluxPeek Fuseable
BY TES
FileBased Source
Ġtyp ical
Ġintermitt ently
ampler Aggregator
Ġ117 90
IRG Node
1547699 58339
bX NB
ĠAv ro
MutationDet ectors
Eviction Run
ĠLE FT
lF bXNB
getAnd PerformWork
nesting test
artic les
6428 2146
LocalDevTools AutoConfigurationTests
ĠEng lish
eaf cd
Ġindirect ly
214748364 8
Inet Address
FlinkJob Invocation
RollupIndex Caps
FastClass BySpringCGLIB
Jb nN
processAction Perform
ScanFinished Support
Blast ShellFactoryImpl
DIST RIB
Vanilla CompileWorker
aVJ RM
udd y
waW RxNT
Ġconsid ers
testID etect
AbstractIndex OrdinalsFieldData
AbstractWal RecordsIterator
15458 64282146
RunWhen ScanFinishedSupport
SHVG aVJRM
IndexField Cache
continueStor ingTaskState
BasicFuseable Observer
UserDoFn Extractor
NoYX Jk
fireDeployed ObjectStart
readyInbound PostHandshake
WebAppNotLoad edException
WSDV IRGNode
MyHandshake CompletedCallback
GridPartitioned SingleGetFuture
12411708 74
resolveAsMerged Mapping
Ozgx MzY
JPDAD ebuggerImpl
JSYTI waWRxNT
1545853773 146
154589254 1359
setUpCommandAss istance
JSYTIwaWRxNT lFbXNB
( \\
. **
0 18
4 19
8 29
9 37
D ist
D iscovered
E ven
H ard
K ED
L d
L orem
M F
N ice
O AUTHBEARER
S creen
T i
V j
W l
X SD
] ...
b ob
b or
b ce
b les
b bd
b idden
c dd
c anc
d ummy
e ff
f ed
f fa
f ragment
g rok
i coll
j et
k o
k init
o ught
v l
w J
{ \"
Ġ sequ
Ġ amb
Ġ lambda
Ġ pa
Ġ Tests
Ġ Deploy
Ġ ApplicationListener
Ġ Completed
Ġ Extended
Ġ ConcurrentModificationException
Ġ located
Ļ ħ
at ur
li min
or ter
ex act
vari ance
block ed
re vision
con catMap
an it
Ġcon ven
im ately
com pression
generic s
uc t
ad ly
up load
Ġw idth
Ġd ies
ver al
Ġ1 02
Ġm ass
um eric
12 57
em and
ĠS um
Ġh i
test utils
Abstract Parse
Ġfor get
get BeansOfType
ist ers
14 487
04 4
IN PUT
Context Filter
log Message
22 45
19 99
17 23
---- --
hard ware
assert No
16 20
16 30
invoke Super
storm code
Filter SecurityInterceptor
create Resource
create Customizer
ĠW arning
ED T
Ġl ayout
Ġl acks
ĠN exmark
Query Shard
Query Builders
Ġg e
36 15
Error Exception
source AsString
05 0
Data Type
Ġclass Loader
ĠIN IT
); `
Default SearchContext
ĠH W
Ġtr ick
Ġtr icky
29 505
ĠP attern
CT ION
Ġ] \
pend s
Log Context
(" _
Ġme d
ĠJ dbc
ĠJ SR
ĠG o
ĠG ive
With Context
Read Callback
inter mediate
inter rupted
parse And
And View
And Flush
Ġint act
]] ]]
Cache Manager
Ġag ent
67 01
Mod ules
Content s
Ġ7 480
Ġper son
back type
Ġab c
container manager
Time Unit
Condition Outcome
Inter est
Ġmod ular
Ġdis abling
Info Endpoint
If Not
Ġpre ferred
128 9
Ġund efined
Ġsc r
Multi Subscription
Ġcomp iles
Ġreg isters
Model AndView
Standard Server
Ġpartition ed
OP EN
populate Bean
Ġplace holders
[] )
SQL Syntax
ĠTime stamp
Off heap
Kryo Exception
aa a
Ġhost s
ĠClo sed
Groovy Methods
Ġsyn ced
clean ing
Ġimport ing
temp ting
bf d
ĠSet tings
FI ELD
Ġdeprec ate
register ed
300 6
Cred ential
Ord inal
Ġcopy ing
Ġkeep ing
sn icoll
Ali ve
Ġswitch ed
Ġtra it
ĠIDE A
Serializable Exception
acquire SharedInterruptibly
Ġshort ly
Ġemit ting
report Error
ĠReg istr
Det ail
await Done
SwitchIfEmpty Subscriber
Author ized
ĠMongo DB
Ġreduce d
Ġinvestig ate
Ġcalc s
StormTimer Task
Ġop posed
Ġgeneric s
ĠIniti ating
Ġinfin itely
Ġ36 00000
ocom plete
"}}}} '
Ġfi res
ĠProject s
Ġliteral s
ðŁ Ļħ
Ġ1048576 0
Ġsignificant ly
ĠTer m
rx java
cap ture
Enum erable
ĠShould n
ĠGroup ByKey
ju li
ĠId entity
separ ated
ĠHealth Endpoint
Real Method
Ġcar ri
Ġnavig ate
onPhase Done
Ġsav ed
Ġstructur es
BeanType Registry
Cg lib
Ġ"{{ _
Ġnumer ics
Ġod d
Ġbis ect
Ġarbit rary
getAs Boolean
Ġtro uble
canc ellable
MultiSubscription Subscriber
SQLSyntax ErrorException
( $
+ /
- /
6 0000
8 80
> /_
A WT
B etween
C d
E h
F t
F mt
H OD
K n
L T
M D
M E
M SHADE
O s
O YQ
P g
Q o
S f
S ur
S ET
S we
S chedule
S UM
T oggle
W X
X A
Z Q
b ec
b ab
c ated
d ash
d Stat
f V
f use
g ht
g BW
k Q
k uromoji
m ay
o es
q Q
r ob
r pc
t oggle
u H
w avy
x J
y e
y our
Ġ ec
Ġ mar
Ġ vc
Ġ Entity
Ġ Complete
Ġ Composite
Ġ Expand
Ġ xmlns
Ġ volutpat
Ġ( ?
)) `
)) ",
ar m
me itu
Ġn eg
in gu
in Memory
type safe
th anks
th acker
th eless
par allelism
ab oom
ing Buffer
re li
re porter
con crete
im balance
im kF
ed ge
com pens
ot ally
cl r
ra st
null Safe
tr uth
row ser
Ġ< --
Ġin line
Ġ" ."
po sing
ad i
net es
super vision
": -
Ġs ig
Ġ[ ]];
Ex if
Ġb esides
instance Class
Ġf old
Ġf useki
Ġre used
Ġre verse
Re factor
plic able
ain st
10 83
om i
test ng
Ġfor mer
Pr ivate
quest ion
get Sub
get Done
get AvailablePort
Ġex hib
Im mediate
IN rn
80 84
Ġpr one
set Selected
22 22
ug s
19 42
17 15
Ġan te
message Bus
Request SendThread
Request Converters
ib us
ind ent
de velop
Filter Handler
create Normalized
Ġby tecode
ĠF ETCH
Index MissingException
0000 08
Ġpro m
Ġpro pose
do va
Ġe ffort
64 956
Configuration Property
put ing
ĠC aching
Ġco uchbase
Query Transform
ĠB uffer
ĠB rokenConfigProperties
ph ases
ph ysical
Ġg jz
This Shard
}} ]}}
Rec ived
08 28
08 186
Worker Transfer
Error Annotator
Ġj avac
Data BuilderImpl
Size Exception
ĠIN TEGER
On Save
Default Launcher
Default BulkScorer
Default InstantiatorStrategy
ĠH adoop
29 86
File Change
File Storage
ĠP I
38 17
home page
Log InputStream
Http Security
Ġli ght
Ġme ter
not Null
ĠJ pa
ĠJ KS
Base ActionListener
Base ProjectBuilder
ĠG odot
enc rypt
Kafka IO
scri pted
And Validator
152280 64
152280 63
Dis abled
Dis junction
gin x
Config Setter
Execution Graph
Connection Counting
Properties Rebinder
ĠIn cre
Ġsh ot
Ġv oting
67 403
180 5
Local Developer
Co un
Parent Path
Value Converter
Internal TestCluster
Content Table
Array SizeException
Le ast
Coll ect
Ġ* /*
Fn Executor
db ugs
Or Else
Get DataBuilderImpl
Security Handler
15228 109
Ġdir s
Info Impl
Ġtw itter
active Timers
Ġlist ing
Partition Batch
Ġ8 6400000
") }
Simple DateFormat
StoreRecovery Service
53 1134
When Available
Ġ15 124
Custom OperationAction
Sp an
Mono Just
Pre viously
Job Service
ĠFor Each
ough ly
Compilation InfoImpl
AM RM
Logging Failure
Ġfl atten
Script Utils
Metrics Reader
Ġvalid ating
Ġaggreg ated
Ġaggreg ates
Function Registry
Ġsystem s
LI C
Protocol Client
subscri bed
Ġinv olving
ClassPath FileChangeListener
Ġformat ting
Failure Handler
Bootstrap Utils
Gradle BaseProjectBuilder
persist ed
fetch Decode
next Scope
Socket Strategies
Record CollectorImpl
ĠTime Zone
Graph Executer
ability Provider
Leader Epoch
Ġstr ip
Binding InputStream
TI C
141 15
Ġfil led
multi job
hal e
ĠObject FileStorage
Ġactive Stage
md IM
Ġallocation s
Ġwrap s
216 67403
ĠLog Manager
Ġcoll ected
Compile OnSave
Spec s
Binary Expression
Ġanalyzer Providers
single OrError
Flink Batch
cor dova
ND I
Download Blob
Avail abilityProvider
Header ValueConverter
Ġmis ses
deploy Nodes
Invalid ClassException
CK p
Ġtemp or
Authorization Result
sn ippet
Ġdeclar ing
launch Server
DefaultBuild Executer
ĠStack OverflowError
Management ContextConfiguration
cs rf
Mark Occur
Relaxed PropertyResolver
Analyze Response
Jdbc Test
NbEditor Document
Analysis Reporter
oda hale
Immutable Map
Ġtri ple
ĠÐ² Ð¸
Gateway Service
Ssl StoreProvider
Ġvis it
Ġvis ibility
Transformation Chain
AccessControl Exception
TransportSingle CustomOperationAction
KafkaSpout Config
SC A
percent iles
Ġcalc ulated
Ġfeed back
Jpa AutoConfiguration
met al
piv ot
Expand SearchPhase
Ġrender ing
Sw XC
COL OR
ĠLi ke
Hikari CP
RDF Parser
Mockito ContextCustomizer
Ġfr ont
Comment Action
Ġfrequ ency
Ġabort ing
BeamSql FnExecutor
Ġgetter s
KX CKp
fast json
consumeBatch WhenAvailable
Inf Model
Roles Store
Mail box
heartbeat Loop
Ġ188 969
birth day
gA GEH
Ġ150 64956
ĠAss ertion
Sorted Set
OAuthBearer ClientInitialResponse
ĠSpec ifying
Fill Interest
ĠFormat ting
PROD UCE
Syntax Exception
loadBeanDefinitions For
LB JC
onPhase Failure
Extract Words
ĠOrigin ally
DefaultTask GraphExecuter
newInstantiator Of
LZ gAGEH
getNested JarFile
ĠAuto scaling
Negative ArraySizeException
DocValue Format
ĠFl ux
edicated ClusterSnapshotRestoreIT
Ġimperson ation
Apex GroupByKeyOperator
Couchbase HealthIndicator
spot less
LiveReload Server
REQU EST
yS mdIM
TEMP LATE
ĠWebSecurity ConfigurerAdapter
4804 531134
Percentiles Bucket
ThreadExecutor Map
Ġrecogn ize
dab e
ornet Q
ĠInstanti ating
Archaius AutoConfiguration
Gf TD
ĠPLAIN TEXT
GENER IC
3437 4804531134
Tools AutoConfiguration
Ġvarun thacker
Ġutili z
123456789 123456789
ServerSocket Adaptor
rences Highlighter
uber netes
rG KXCKp
Ġ189 067
DataType Conversion
intermediate Ranker
Cglib AopProxy
Fmt Lib
OYQ ySmdIM
Swe ep
Toggle CommentAction
gBW LZgAGEH
wavy GfTD
meitu an
compens ated
setSelected Index
createNormalized Weight
Ġgjz x
2986 83
ConnectionCounting Handler
LocalDeveloper ToolsAutoConfiguration
LoggingFailure AnalysisReporter
ĠTimeZone Rounding
CompileOnSave Action
HeaderValueConverter AndValidator
MarkOccur rencesHighlighter
34374804531134 08186
OYQySmdIM INrn
# !
) ]]
. }}
. ");
2 0000
8 26
9 58
A i
C AT
C lick
F RE
G PL
H al
K p
L TS
O U
O ld
P OM
P agedBytes
S J
T oo
V l
` {
b and
b ay
d Shards
d rop
f atal
h C
h u
i co
k p
k ind
p ages
p ping
w a
} #
} ).
Ã ©
ĉ ĠĠĠĠĠĠĠ
Ġ scoped
Ġ ir
Ġ Par
Ġ ThreadPool
Ġ 388
Ġ TransportClient
me chanis
li ts
method Block
co erce
ob e
or se
pr it
Ġtype d
str ix
Ġr iver
con tribute
it al
ic table
ed gen
com pose
ul ating
ul prit
vo lat
un e
Ġin clusive
Ġ" ...
Ġth rift
po l
ap top
Ġt otally
Ġs park
00 05
Ġ[ @
Con vert
Ġ{ {"
Ġb its
ir able
read Blob
run All
run IfNot
12 15
Ġ` $
Ġh ide
Ġfor ces
Pr ime
sp here
get String
get Port
14 09
ho od
http Address
15 88
IN TERVAL
Ġ' *
11 201
:// <
() "
Test Client
13 21
Com pressed
17 06
92 1
query String
List ing
internal Configuration
create EmbeddedServletContainer
Shard Operation
37 55
ĠC ases
ĠC alling
ĠN ative
ST ART
ĠB UG
ph onetic
AR Y
Aut om
Ġj s
source Port
source NodeId
Web Async
ĠA CL
ĠA zure
To polog
ĠIN TO
06 8
Text Index
to Query
Spring Data
Ġwork arounds
cc cc
ĠP RE
ĠP ST
compute IfAbsent
Ġ] ]
main ClassName
String Terms
transport Address
(" \
Rest Request
Endpoint Configuration
inter rupt
ĠĠĠĠĠĠ čĊ
07 6
Kafka Exception
my Field
Dis posed
Ġint end
sub string
ĠIn consistent
Ġsh uts
Ġbehav es
ash ion
ash ed
Ġ{{ ?
Value With
Dec l
tomcat EmbeddedServletContainerFactory
Project Action
ĠUn til
Ġdir ection
96 34
new OutputStream
Ġrel atively
Ġdiffer s
Block s
Frame Buffer
Ġsc rolling
Multi Node
Pattern Resolver
sl ot
Lazy Mutex
rit es
ĠElasticsearch ParseException
Ġimplement ing
Ġinv olves
Output DeployInfo
Lif e
Authoriz ationException
112 1
application s
BeanDefinition StoreException
next Handle
Ġob viously
Ġpoint ing
park AndCheck
ous and
Work ing
Input Exception
conn ectors
KeyValue Pair
ĠWeb sphere
ĠClo jure
ĠObject s
Close able
Ġcol lision
Ġz en
partition Keys
partition Mask
Ġdec oded
Ġposition s
gl Clear
ENT S
buffer Server
HealthIndicator AutoConfiguration
115 8
Meter Filter
mo jo
tra verse
Descriptor s
Ph p
Redis Pooled
entity Manager
Processing Filter
ĠOr iginal
-* /_
environment Prepared
Ġlow est
Termin ate
ĠTO DO
>] ],
report ing
Ġ[/ ]
Ġfal ling
Ġgr ab
Ġguess ing
delay ed
Ġguarante ed
ĠCheck ing
Some thing
Rabbit Template
Ġdrop ping
Place holders
sch m
loadContext Internal
Tri ple
Ġfeel s
Cent OS
Ġabort ed
notifyListener s
ĠRec ently
Ġmajor ity
real time
enu Item
ARCH AR
amz n
Ġsav ings
ĠRol ling
ĠGu ava
Ġbo gus
Ġ524 28
Ġmanag ing
ĠRa ise
Buffered OutputStream
Naming Strategy
combin e
Contain ers
onShard Failure
ĠUs ages
edgen gram
volat ile
internalConfiguration AnnotationProcessor
sourcePort Name
WebAsync Manager
Topolog ically
LazyMutex Implementation
parkAndCheck Interrupt
traverse Topologically
RedisPooled ConnectionConfiguration
/ ${
6 90
7 01
A x
A spect
A ffix
B alance
C ED
D Q
G b
G w
G ce
H S
I H
I v
K c
L on
L ate
N F
N ON
P C
T Frame
V H
V f
X B
X KK
Z V
b H
c B
d Transport
f ca
h ang
j asper
l r
l v
m box
n di
r ich
r ocksdb
t ured
u v
u mar
v h
v r
w k
y k
Ð Ĵ
Ġ 0000
Ġ parking
Ķ âĶĢâĶĢ
Ġ( ({
ar ely
on Half
at able
at tribute
ec ord
in ic
li ability
od le
oc tet
ing Decoder
Ġr oughly
Ġle ts
Ġle aving
re on
im itive
im prove
local Node
ed FilterCache
gener ator
ot ating
cl inic
ra m
Ġin spect
Ġth er
su ites
ap do
flo od
fr ecord
Ġs py
Ġs peed
Ġ[ ...]
fac ets
Ġd f
Ġd uplic
Ġd anger
Ġis su
read From
Ġ1 36
Ġre porter
run cated
Ġm ount
us i
ĠĠĠĠĠĠĠĠĠĠĠĠĠĠĠĠ ĠĠĠĠĠĠĠĠĠĠĠĠĠĠ
om b
12 50
ĠS co
ĠS cheduled
af fix
ti ka
Ġon Partitions
test Basic
Abstract Request
Pr ices
Pr imitive
get Column
14 36
14 57
Search ActionListener
sh a
Im plicit
Ch aos
15 11
15 57
80 268
figu ring
11 15
11 33
11 99
Run Mojo
log viewer
() =
Test able
22 29505
13 37
17 81
Ġkey ed
open EngineAnd
Service Exception
Ġp ages
Application Tests
ĠT C
Channel Builders
16 24
invoke Action
Un ary
rec eiver
create Weight
Initial Handler
ĠF reeMarker
Index Exception
18 24
Client Response
Access Level
Access TokenProvider
0000 14
0000 15
0000 13
0000 17
0000 16
ĠW rap
Ġde limiter
thread ed
ach ability
ĠC opy
ĠC andidate
execute Phase
ĠN eed
AA B
record ed
Ġco verage
Ġg ender
Resource Server
Resource Aware
2019 0
Ġj pountz
05 7
Size Value
Ġclass desc
Text Format
ĠH Base
Ġtr aces
-------- --
Proxy Factory
File Watcher
File Chunk
File LogInputStream
Ġget Value
clu ded
\" ",
sc ans
Node C
ĠĠĠĠĠĠĠĠĠĠĠĠĠĠĠĠĠĠĠĠĠĠĠĠĠĠĠĠĠĠĠĠ ĠĠĠĠĠĠĠĠĠĠĠĠĠĠĠĠĠĠĠĠĠĠĠĠĠĠĠĠĠĠĠ
For LeaderEpoch
Http Parser
Http Content
Http Url
Rest TestCase
The y
Type Parsers
ĠJ Shell
Id ent
ĠD etails
Base IOReactor
ĠG LES
inter pret
Ġun usu
ĠO f
Kafka RequestHandler
99 3
Cache Group
res ize
project A
180 8
Co verage
Parent FilterParser
Not Support
Not Writeable
Ġexpected Length
Ġdata Cache
init NonProxy
Internal IODispatch
Ġ7 5
IndexShard Operations
Nio Server
Get ting
check style
Ġac kers
apply OrElse
Partition er
Partition Copies
Select ChannelEndPoint
Ġrel axed
") },
EN TI
LO CATION
=" ${
write To
iet f
ĠK ill
Ġx content
Ġund ertow
Mono Zip
ceptor s
Pre par
ten ant
Over seer
ynam o
"}} ]}}
=[ ]}"
Buffer s
Buffer ing
Script Impl
Metrics Impl
":{ }}
Tree Translator
Ġad v
Logger Binder
ĠMap Elements
Match Type
Ġsp in
Al locate
Rel Subset
old Graph
Output Receiver
Ġmax Docs
Control Client
Ġgroup ing
Writer Appender
ĠTest Proto
[] >
AN OSE
Ġresource Loader
Graph Util
Iterator Txn
Off lineImage
move To
Ġu uid
Input DeployInfo
Ġhigh est
DataSource BeanFactoryPostProcessor
wrap per
-------------------------------- ----------------
ĠWeb MvcAutoConfiguration
Static LoggerBinder
Ext ra
Down stream
target ing
complete Topology
Report TestExecutionListener
ĠOS X
Av atica
Ġfil ling
inner Run
ConnectionFactory Utils
Tasks Action
Then Else
Groovy Shell
Ġ300 128
clean Up
last Name
AdminClient IntegrationTest
155 29
calc ulated
CO UNT
Authentication Principal
ĠClass ic
filtered Query
finish Him
Ġfoo ter
Ġexp ansion
Ġelse where
\", \"
Address ing
Mongo DataAutoConfiguration
Entry Point
Deployment Info
145 27
Ġwritten By
Ġwritten Length
Gu ice
sn iffer
Validator FactoryBean
:[ *
hasNext Binding
Ignite H
Ġsever ity
Ġtra vis
Database Pop
"}, {"
rupt IndexException
Ġmig rate
")) .
Ġrelocation s
ĠSp ent
Full Addressing
Ġrequire ment
mock file
Ġcrash ed
Immutable TreeTranslator
Ġforward ing
Bar p
TransportGet Action
person s
ĠHttp Client
OO XML
team city
Ġperiod ically
Det ector
Ġexplain s
ecom merce
ĠResource Config
Ġbl ank
pet clinic
Jms AutoConfiguration
AutoConfigure ReportTestExecutionListener
MessageToMessage Encoder
War mer
Wrapping Spliterator
Ġreject ion
Fixed Windows
ZK StateStorage
TransportNodes HotThreads
Ġpack et
Ġautocon figured
Behav iour
MILLI S
ĠRUNN ABLE
Ġgrow s
Has ParentFilterParser
doOn Dispose
Sun day
Ġdeliver ed
Ġidle Timeout
Pass ing
ĠAss ign
Hosts Provider
PO INT
face book
Ġ149219 635
ĠDAYOF YEAR
Slow Log
Af XKK
~~~~ ~~~~
ĠQU ARTER
Ġsdk s
ByteBuf Allocator
BytesRef OrdValComparator
ĠÂłĠÂłĠÂłĠÂłĠ Âł
350375 87
Ġsurpr ised
Replay ingDecoder
testRename ParentPath
proper ly
Respon ses
Ġsym ptom
Folding Rule
DAYOF YEAR
Estim ator
testWrite FullAddressing
Backwards IT
secur ing
deliver ableException
STO RE
HttpAsync RequestExecutor
HttpHost Builder
Postings Format
Ġsupply ing
Cors Handler
12345678 90
Ġamb igu
ĠSum mary
QueryShard Context
nullSafe Filter
physical Plan
SortedSet DV
TextIndex ES
schm usi
TFrame dTransport
onHalf Close
apdo odle
Ġdanger ous
CacheGroup MetricsImpl
NotSupport edException
IndexShardOperations Lock
ANOSE CONDS
IteratorTxn Tracker
calculated Prices
AuthenticationPrincipal ArgumentResolver
DatabasePop ulator
TransportNodesHotThreads Action
AfXKK fq
testRenameParentPath NotWriteable
" )))
, '
. (
. {
0 19
7 19
8 23
8 000
9 34
9 01
D AP
D AF
D ifferent
E GL
F ly
F allback
G R
G i
G re
I B
I BM
J y
L W
L X
M acro
N Q
Q F
Q z
R et
S cheduling
S YS
T ASK
V yQ
Y d
] &
a eb
b xD
d ig
g zip
g mail
h h
h iddenHttpMethodFilter
j fx
k es
l B
l m
m antic
n oc
p k
q s
r mi
r obin
s cheme
w rong
x ec
x FF
z S
Ġ ).
Ġ 97
Ġ ÂłĠÂłĠ
Ġ View
li f
li hood
ty p
ex porters
pr ite
ĠĠ ĉĉĉĉĉ
able MvcEndpoint
Ġr id
Ġr arely
ac b
im ot
se p
se mantic
cre p
cre ator
qu A
is ions
cl one
Ġin flight
il ent
il ang
Ġo mit
Ġo auth
su ccess
ap id
ap ted
Ġoper ates
Ġw arn
Ġw izard
Ġs cheme
file structure
Ġb low
Ġf a
Ġf ragments
Ġf avor
ali es
Ġ1 40
Ġc ent
Ġc ulprit
Ġm bean
Ġm ulticast
plic ated
10 15
10 36
10 88
om ics
om alies
12 35
ĠS ame
Ġh ack
Abstract AutoCreds
get URL
get Password
key Set
14 92
ho ge
Ġnot ed
15 92
15 70
Cl g
Cl xx
Task Scheduler
IN K
Context Listener
() *
() }},
22 80
ug g
ug m
ri er
ri Lr
Processor Factory
Ġp i
Ġp uts
Ġst d
Factory Factory
with Zone
Channel Builder
Channel Registry
Channel Spec
De pth
OT mY
Ġ2 84
Qu eries
Ġpro posal
do Process
64 797
34 99
37 00
Ġl ac
ĠC ur
ER a
35 68
Ġg te
Ġtest Case
Rec on
109 7
source ID
Ġ/ *
Ġ5 4
flow Exception
ĠA pr
ĠA udit
Ġclass loading
To Call
To Parent
Default GroovyMethods
ĠH azelcast
Ġrequest Mapping
channel Active
Store File
86 82
Listener Adapter
Node ToString
son g
ĠJ ENA
ĠD TD
ĠG PL
With Equals
inter preter
57 2
57 14
enc oded
07 1
Ġresult ed
And Start
And Handle
152280 66
152280 34
152280 85
152280 89
152280 75
152280 628
emp loy
Connection Handler
ĠL DAP
Ġ6 048
Post ableMvcEndpoint
eri alizing
Comp DeclarationTest
Ġafter wards
Ġ7 4
match ed
ĠSt empel
Condition Object
Ġwould n
Ġmessage Bus
Ġtrans fer
Ġover l
Write Result
EN U
model s
ĠRe moved
cp u
request Line
post commits
number Of
dir ectory
Streaming Codec
"}} }}}
Buffer Under
Ġgu ys
Standard TaskAction
Ġcustom ize
prec ate
Ġinter esting
Output ChannelSpec
ĠĠĠĠĠĠĠĠĠĠĠĠĠĠĠĠĠĠĠĠĠĠĠĠĠĠĠĠĠĠĠĠĠĠĠĠĠĠĠĠĠĠĠĠĠĠĠĠĠĠĠĠĠĠĠĠĠĠĠĠĠĠĠĠ ĠĠĠ
ES TestCase
ĠTest ing
Iterator Spliterator
Json NodeToString
Input s
Lock Internals
KeyValue Container
ik os
Topology Builder
Cre ating
Ġhost ed
Ġask ing
wait ing
ĠST C
Generic PostableMvcEndpoint
FlatMap Inner
ĠNet work
Ġhel lo
Refresh Endpoints
Ġclear s
Ġclear ing
SO LE
private Get
Ġrefer encing
1522805 34
1522805 39
Persist ent
Ġsign ed
ĠDe veloper
Ġ34 281
1522810 34
1522810 65
Replica Fetcher
Assign or
odet ect
1522808 37
1522808 49
1522808 95
') "
docker client
Header ChannelRegistry
Ġpublish ing
Redis Properties
Reactive SecurityAutoConfiguration
ĠStack trace
1522806 25
1522806 32
Analyze Rule
Based Log
ĠSp lit
SV VyQ
Var s
Var CompDeclarationTest
Channels Endpoint
Login Context
Ġtermin ated
Ġtre ats
does nt
Ġsn iff
ĠPr oduce
Ġperiod s
Percolator Service
Cor rupted
Ġtransl ate
gon omics
Rebinder Configuration
Same Thread
Sl ugm
Ġrender ed
Ġpres ure
ĠUpdate d
Ġanalyz e
Ġsensor s
NamesFor Annotation
Ġfr action
LOC AL
Ġauthor ized
ExecutableStage DoFnOperator
WebSecurity AutoConfiguration
WebSecurity ConfigurerAdapter
Ġautodet ect
Public MetricsAutoConfiguration
Ġkill ing
hand led
Ratis Pipeline
Ġexperi ment
MessageBus AwareRouter
ReadWrite Lock
ĠSelect or
exit Process
Ġconsum ing
Ġshape s
Ġdiscard s
Ġmigr ating
Ġcommun icate
ConfigurationPropertiesRebinder Configuration
period ic
Ġinser ted
getType For
ĠMin iOzone
IF EST
ĠOP TIONS
ĠAnalyzer Scope
determin istic
Ġredirect s
ĠGSS API
ĠTIM ESTAMP
mile age
Ġmac OS
Configuring BeanFactoryPostProcessor
PM Clg
endly JsonNodeToString
Spanner IO
ĠMIN US
ĠFramework Servlet
kB P
Ġcodec s
ĠWatermark Hold
Fri endlyJsonNodeToString
StreamObserver ToCall
click house
GD X
Ġperman ently
transformExpressions Up
BlockJoin Query
1568 64797
InfoEndpoint RebinderConfiguration
ĠAssertion Error
Ġ388 38
ShardOperation FailedException
imot ov
filestructure finder
Clxx Slugm
riLr ClxxSlugm
ToParent BlockJoinQuery
StoreFile MetaData
Ġ6048 00000
ĠStempel AnalyzerProviderFactory
BufferUnder flowException
RefreshEndpoints Configuration
SVVyQ PF
MessageBusAwareRouter Configuration
FriendlyJsonNodeToString Converter
StreamObserverToCall ListenerAdapter
156864797 8682
" `.
. -
. [/
1 155
1 151
5 000
6 29
6 362
7 80
7 95
8 40
9 17
9 50
A G
B h
B SD
B ippo
D L
F at
G EST
H k
J PG
J SSE
K STREAM
L ar
L org
L ater
M d
N k
N r
R otation
R otating
V EL
W atches
W rites
\ '
\ *
] \
c ab
c fe
d cc
d ry
f oc
f be
f avicon
g ar
i endly
j r
j ContextFactory
k v
k ama
m L
m Z
o Z
r anges
s mall
t k
x v
} \";
Ġ AP
Ġ Aut
Ġ 99
Ġ fir
Ġ Restore
Ġ Change
en ew
on nummer
st e
st alled
Ġn ecessarily
in ion
in ox
al in
al ed
list en
for Pattern
con ver
int r
it unes
ed Builder
parent s
av id
java ee
tr ack
Ġal t
ut m
am ount
net server
Ġs qu
Ġs nap
00 07
Con ver
Ġd ol
Ġf n
read th
Ġ1 28
Ġ1 98
Ġre order
Ġre strict
Ġm it
Ġm ongo
ĠĠĠĠĠĠĠĠĠĠĠĠĠĠĠĠ ĠĠĠĠĠĠĠĠĠĠĠĠĠĠčĊ
um ped
12 64
12 42
ĠS N
ĠS ender
af f
pen sive
Ġh alf
Ab str
Abstract Unsafe
Pr int
resource manager
get Declared
get DefaultModel
sh op
Ġex pensive
15 30
index er
11 64
() {
Test Config
Test Pubsub
set Min
13 14
13 13
13 65
19 84
Ġan t
Request Cache
25 04
ĠT GT
pre view
En sure
En countered
16 00
invoke No
internal EventListener
Filter Aggregator
27 48
Client Builder
Shard Routing
do Stuff
Java Completion
put Policy
Ġl aptop
ĠC ID
ĠC ouchbase
ĠC ORS
execute Recur
Ġif ThenElse
aw ilkinson
ST EM
ĠM ove
Ġtest case
Ġversion Map
49 90
State Service
Po jo
2019 09
Web Filter
ipe d
ĠA L
26 82
ĠH ive
ĠH ERE
ĠH ubConnection
Ġtr ial
Store Result
File Action
Response Entity
Servlet Holder
Servlet InitialHandler
ĠP ER
Source Options
elect ed
String FieldMapper
For Field
(" {}
Rest Indices
Base Configuration
Endpoint MBean
leg acy
ĠO uter
ApplicationContext Initializer
build Project
Ġout bound
AAAA CE
call Blocking
Ġfin alize
start sWith
format s
Ġsh alin
67 6
blob Container
2015 09
Ġstate d
ĠE GL
Internal Aggregation
Chain ed
Array StoreException
Ġ* :
Bind able
Operation Per
ĠURL ClassLoader
gs f
ane ous
Or Buffer
ĠUn supported
Ġback up
42 30
Ġsee k
Ġread able
Collection Binder
96 8
apply Transform
maybe Run
Ġover loaded
As List
Ġgener ally
RequestHandler Base
ĠTh ing
write Object
Ġpre view
Custom Boost
Ġsc anning
Pre ferred
ATE G
Instance Member
Instance AlreadyExistsException
ĠElasticsearch IllegalArgumentException
Ġaggreg ators
Tree Set
Indices RequestCache
find First
ins ide
Shell Bolt
correct ly
ome try
less ly
Load s
Ġorder ed
Ġinter pret
Suggest ion
ConfigurationProperties Binder
Bulk Shard
used Comment
Lifecycle Starter
restore File
{{ !
Dat atype
PRO CESS
Graph TopComponent
Fix es
Change Event
proxy TargetClass
Row Coder
prepare Search
ĠST S
Aggregation ParseElement
EST RING
ĠQuery ParsingException
Temp Location
ename s
Producer Id
Producer Config
Ġselect or
TR ACT
rott ling
SingleThread edBuilder
Requ ire
Replica FetcherManager
Ġvari ant
ĠObservable Source
[...]
