{"<s>":0,"<pad>":1,"</s>":2,"<unk>":3,"<mask>":4,"!":5,"\"":6,"#":7,"$":8,"%":9,"&":10,"'":11,"(":12,")":13,"*":14,"+":15,",":16,"-":17,".":18,"/":19,"0":20,"1":21,"2":22,"3":23,"4":24,"5":25,"6":26,"7":27,"8":28,"9":29,":":30,";":31,"<":32,"=":33,">":34,"?":35,"@":36,"A":37,"B":38,"C":39,"D":40,"E":41,"F":42,"G":43,"H":44,"I":45,"J":46,"K":47,"L":48,"M":49,"N":50,"O":51,"P":52,"Q":53,"R":54,"S":55,"T":56,"U":57,"V":58,"W":59,"X":60,"Y":61,"Z":62,"[":63,"\\":64,"]":65,"^":66,"_":67,"`":68,"a":69,"b":70,"c":71,"d":72,"e":73,"f":74,"g":75,"h":76,"i":77,"j":78,"k":79,"l":80,"m":81,"n":82,"o":83,"p":84,"q":85,"r":86,"s":87,"t":88,"u":89,"v":90,"w":91,"x":92,"y":93,"z":94,"{":95,"|":96,"}":97,"~":98,"¡":99,"¢":100,"£":101,"¤":102,"¥":103,"¦":104,"§":105,"¨":106,"©":107,"ª":108,"«":109,"¬":110,"®":111,"¯":112,"°":113,"±":114,"²":115,"³":116,"´":117,"µ":118,"¶":119,"·":120,"¸":121,"¹":122,"º":123,"»":124,"¼":125,"½":126,"¾":127,"¿":128,"À":129,"Á":130,"Â":131,"Ã":132,"Ä":133,"Å":134,"Æ":135,"Ç":136,"È":137,"É":138,"Ê":139,"Ë":140,"Ì":141,"Í":142,"Î":143,"Ï":144,"Ð":145,"Ñ":146,"Ò":147,"Ó":148,"Ô":149,"Õ":150,"Ö":151,"×":152,"Ø":153,"Ù":154,"Ú":155,"Û":156,"Ü":157,"Ý":158,"Þ":159,"ß":160,"à":161,"á":162,"â":163,"ã":164,"ä":165,"å":166,"æ":167,"ç":168,"è":169,"é":170,"ê":171,"ë":172,"ì":173,"í":174,"î":175,"ï":176,"ð":177,"ñ":178,"ò":179,"ó":180,"ô":181,"õ":182,"ö":183,"÷":184,"ø":185,"ù":186,"ú":187,"û":188,"ü":189,"ý":190,"þ":191,"ÿ":192,"Ā":193,"ā":194,"Ă":195,"ă":196,"Ą":197,"ą":198,"Ć":199,"ć":200,"Ĉ":201,"ĉ":202,"Ċ":203,"ċ":204,"Č":205,"č":206,"Ď":207,"ď":208,"Đ":209,"đ":210,"Ē":211,"ē":212,"Ĕ":213,"ĕ":214,"Ė":215,"ė":216,"Ę":217,"ę":218,"Ě":219,"ě":220,"Ĝ":221,"ĝ":222,"Ğ":223,"ğ":224,"Ġ":225,"ġ":226,"Ģ":227,"ģ":228,"Ĥ":229,"ĥ":230,"Ħ":231,"ħ":232,"Ĩ":233,"ĩ":234,"Ī":235,"ī":236,"Ĭ":237,"ĭ":238,"Į":239,"į":240,"İ":241,"ı":242,"Ĳ":243,"ĳ":244,"Ĵ":245,"ĵ":246,"Ķ":247,"ķ":248,"ĸ":249,"Ĺ":250,"ĺ":251,"Ļ":252,"ļ":253,"Ľ":254,"ľ":255,"Ŀ":256,"ŀ":257,"Ł":258,"ł":259,"Ń":260,"Ġ(":261,"en":262,"ent":263,"er":264,"fi":265,"))":266,"ifi":267,"ifier":268,"id":269,"ident":270,"identifier":271,"ar":272,"me":273,"ment":274,"on":275,"at":276,"ion":277,"pe":278,"ame":279,"gu":280,"gument":281,"argument":282,"st":283,"ec":284,"Ġn":285,"Ġname":286,"in":287,"ation":288,"li":289,"ty":290,"type":291,"od":292,"oc":293,"al":294,"th":295,"arguments":296,"es":297,"thod":298,"method":299,"list":300,"Ġarguments":301,"co":302,"ess":303,"ect":304,"ob":305,"ject":306,"inv":307,"object":308,"ocation":309,"invocation":310,"))))":311,"dec":312,"sco":313,"scope":314,"Ġobject":315,"ter":316,"or":317,"ex":318,"pr":319,"expr":320,"ession":321,"expression":322,"lar":323,"declar":324,"le":325,")))":326,"ate":327,"Ġtype":328,"state":329,"statement":330,"scoped":331,"par":332,"liter":333,"literal":334,"Ġscope":335,"declaration":336,"el":337,"ĠĠ":338,"ator":339,"loc":340,"eld":341,"declarator":342,"field":343,"mal":344,"ameter":345,"parameter":346,"ab":347,"able":348,"ari":349,"vari":350,"variable":351,"ing":352,"str":353,"ig":354,"string":355,"for":356,"ue":357,"Ġr":358,"parameters":359,"ac":360,"lock":361,"block":362,"formal":363,"ht":364,"ft":365,"ight":366,"Ġle":367,"Ġright":368,"Ġleft":369,"val":370,"value":371,"re":372,"Ġvalue":373,"con":374,"int":375,"mod":376,"ody":377,"body":378,"Ġdeclarator":379,"cess":380,"access":381,"an":382,")))))":383,"modifier":384,"modifiers":385,"Ġcon":386,"eg":387,"Ġfield":388,"integ":389,"Ġbody":390,"ary":391,"im":392,"se":393,"local":394,"bin":395,"binary":396,"as":397,"it":398,"imal":399,"decimal":400,"ĠĠĠĠ":401,"ce":402,"integer":403,"ic":404,"ass":405,"))))))":406,"ort":407,"ed":408,"port":409,"Ġparameters":410,"čĊ":411,"import":412,"cre":413,"ener":414,"iz":415,"com":416,"gener":417,"creation":418,"generic":419,"ized":420,"hes":421,"parent":422,"parenthes":423,"parenthesized":424,"ur":425,"ition":426,"dition":427,"Ġcondition":428,"comment":429,"qu":430,"ence":431,"sequ":432,"sequence":433,"Ġconsequence":434,"ot":435,"if":436,"ch":437,"ul":438,"tur":439,"turn":440,"ign":441,"return":442,"assign":443,"assignment":444,"ann":445,"is":446,"annot":447,"annotation":448,"cl":449,"ra":450,")))))))":451,"ker":452,"ull":453,"null":454,"this":455,"ro":456,"mar":457,"vo":458,"av":459,"marker":460,"void":461,"ray":462,"array":463,"ava":464,"class":465,"java":466,"integr":467,"integral":468,"per":469,"un":470,"tr":471,"))))))))":472,"ast":473,"sion":474,"row":475,"throw":476,"Ġ<":477,"ĠĠĠ":478,"sions":479,"ensions":480,"dim":481,"dimensions":482,"tern":483,"org":484,"atch":485,"ĠĠĠĠĠĠĠĠ":486,"Ġin":487,"il":488,"catch":489,"Ġ\"":490,"et":491,"iv":492,"and":493,"</":494,"oo":495,"tor":496,"ive":497,"Ġal":498,"throws":499,"ative":500,"Ġo":501,"Ġaltern":502,"Ġalternative":503,"Ġth":504,"ĠĠĠĠĠ":505,"ut":506,"lo":507,"su":508,"ans":509,"cast":510,"ance":511,"am":512,"be":513,"arch":514,"uc":515,"Ġorg":516,"true":517,"po":518,"ad":519,"dex":520,"up":521,"fal":522,"false":523,"struc":524,"structor":525,"ap":526,"Ġdimensions":527,"ele":528,"net":529,"Ġthe":530,"boo":531,"lean":532,"Ġoper":533,"search":534,"boolean":535,"Ġoperand":536,"unary":537,"super":538,"Ġt":539,"tion":540,")))))))))":541,"use":542,"point":543,"element":544,"constructor":545,"ating":546,"date":547,"ard":548,"Ġw":549,"flo":550,"fr":551,"\":":552,"frame":553,"Âł":554,"ause":555,"astic":556,"our":557,"floating":558,"Ġat":559,"Ġindex":560,"beans":561,"try":562,"ag":563,"asticsearch":564,"Ġs":565,"00":566,"ild":567,"est":568,"hance":569,"enhance":570,"enhanced":571,"ine":572,"elasticsearch":573,"Ġarray":574,"update":575,"netbeans":576,"clause":577,"In":578,"Ġelement":579,"ĠĠĠĠĠĠĠ":580,"pl":581,"jar":582,"Ġ[":583,"ules":584,"modules":585,"file":586,"``":587,"Ġto":588,"he":589,"Con":590,"line":591,"fac":592,"Ġ{":593,"sw":594,"esour":595,"Ġd":596,"card":597,"ildcard":598,"wildcard":599,"ver":600,"Ex":601,"20":602,"Ġ:":603,"terfac":604,"ext":605,"age":606,"stance":607,"of":608,"Ġa":609,"--":610,"itch":611,"Ġb":612,"switch":613,"ints":614,"pring":615,"da":616,"superclass":617,"ke":618,"instance":619,"instanceof":620,"Ġ}":621,"ith":622,"ir":623,"))))))))))":624,"ache":625,"pro":626,"amb":627,"ambda":628,"lic":629,"lambda":630,"ack":631,"Ġis":632,"Ġf":633,"read":634,"iti":635,"ol":636,"ase":637,"ali":638,"Ġ1":639,"Ġre":640,"fer":641,"Re":642,"ption":643,"run":644,"ork":645,"Ġc":646,"Th":647,"act":648,"Ġm":649,"apache":650,"Be":651,"spring":652,"plic":653,"lab":654,"label":655,"resour":656,"interfac":657,"ile":658,"text":659,"aliz":660,"Ac":661,"ÂłÂł":662,"ly":663,"\",":664,"201":665,"param":666,"util":667,"gra":668,"hints":669,"ternary":670,"ception":671,"us":672,"ĠĠĠĠĠĠĠĠĠĠĠĠĠĠĠĠ":673,"ain":674,"erv":675,"work":676,"10":677,"um":678,"pack":679,"ode":680,"Ġ~":681,"om":682,"```":683,"alizer":684,"12":685,"Ġ~[":686,"Ġ-":687,"Ġupdate":688,"Ġinit":689,"ak":690,"em":691,":/":692,"ĠI":693,"ces":694,"ow":695,"Ġof":696,"ĠS":697,"af":698,"Ġ`":699,"itializer":700,"Ġbe":701,"pen":702,"tp":703,"Ġ</":704,"Ġjava":705,"**":706,"ler":707,"ocess":708,")))))))))))":709,"initializer":710,"ang":711,"bo":712,"ti":713,"Ġon":714,"ner":715,"que":716,"Ġh":717,"reak":718,"framework":719,"stract":720,"Ab":721,"test":722,"Abstract":723,"Ġand":724,"Ġfor":725,"gram":726,"Thread":727,"ss":728,"Pro":729,"Pr":730,"ord":731,"ask":732,"springframework":733,"St":734,"Se":735,"sp":736,"quest":737,"break":738,"resource":739,"get":740,"key":741,"cur":742,"fin":743,"Ġsuperclass":744,"ist":745,"14":746,"Search":747,"Exec":748,"Action":749,"sh":750,"],":751,"package":752,"${":753,"Exception":754,"ho":755,"http":756,"ub":757,">${":758,"ery":759,"program":760,"Ġnot":761,"Ġex":762,"Im":763,"Ġwith":764,"andler":765,"und":766,"lient":767,"Ch":768,"ook":769,"pec":770,"spi":771,"ult":772,"15":773,"Me":774,"Serv":775,"ference":776,"Cl":777,"Ġwh":778,"04":779,"index":780,"interface":781,"ide":782,"Task":783,"Impl":784,"Dir":785,"char":786,"ute":787,"Tr":788,"red":789,"Ġit":790,"acter":791,"ata":792,"eb":793,"io":794,"IN":795,"character":796,"plication":797,"Context":798,"Ġ'":799,"rc":800,"Handler":801,"Beans":802,"ice":803,"80":804,"figu":805,"annel":806,"11":807,"ust":808,"action":809,"Ġpr":810,"Col":811,"..":812,"impl":813,"reference":814,"rent":815,"ĠĠĠĠĠĠĠĠĠĠĠ":816,"ally":817,"Run":818,"boot":819,"ser":820,"tory":821,"Ġcom":822,"Ġthat":823,"://":824,"ansport":825,"netBeans":826,"netBeansDir":827,"Class":828,"Method":829,"ple":830,"Ap":831,"lang":832,"ocessor":833,"stor":834,"log":835,"art":836,"Ġ0":837,"()":838,"Test":839,"set":840,"ookup":841,"22":842,"yn":843,"utor":844,"mess":845,"te":846,"13":847,"ug":848,"Com":849,"19":850,"wh":851,"17":852,"ert":853,"Bean":854,"ource":855,"ror":856,"Ġkey":857,"open":858,"itor":859,"interfaces":860,"ternal":861,"24":862,"Executor":863,"Ġinterfac":864,"))))))))))))":865,"Color":866,"Ġan":867,"message":868,"ri":869,"fl":870,"vent":871,"Request":872,"fa":873,"Processor":874,"Ġinterfaces":875,"sing":876,"pa":877,"RE":878,"FO":879,"hase":880,"AS":881,"Fil":882,"plicit":883,"----":884,"25":885,"Ġ=":886,"][":887,"all":888,"ay":889,"hard":890,"Ġconstructor":891,"ka":892,"ure":893,"92":894,"openide":895,"Service":896,"Ġp":897,"Hints":898,"ĠĠĠĠĠĠĠĠĠ":899,"LE":900,"Ġst":901,"aster":902,"current":903,"explicit":904,"core":905,"pair":906,"ader":907,"cont":908,"ferred":909,"afka":910,"AP":911,"Ġthis":912,"ool":913,"finally":914,"uld":915,"mon":916,"UI":917,"Phase":918,"Fac":919,"rom":920,"og":921,"query":922,"Res":923,"ific":924,"Factory":925,"assert":926,"Cont":927,"ib":928,"ration":929,"with":930,"ant":931,"2018":932,"Application":933,"version":934,"SH":935,"while":936,"vel":937,"pon":938,"esources":939,"ĠT":940,"concurrent":941,"pre":942,"En":943,"Par":944,"Transport":945,"are":946,"Ġ},":947,"invo":948,"Channel":949,"app":950,"enum":951,"exec":952,"List":953,"De":954,"ÂłÂłĠ":955,"syn":956,"ity":957,"spec":958,"03":959,"resources":960,"Ġ\"_":961,"16":962,"ection":963,"figuration":964,"uild":965,"invoke":966,"form":967,"OT":968,"ification":969,"ize":970,"internal":971,"ĠĠĠĠĠĠĠĠĠĠĠĠĠĠĠ":972,"ew":973,"Initi":974,"ail":975,"Un":976,"ind":977,"Ġresources":978,"Ġ2":979,"inferred":980,"storm":981,"Ob":982,"low":983,"de":984,"cri":985,"let":986,"SearchPhase":987,"Filter":988,"sup":989,"fault":990,"specification":991,"rec":992,"end":993,"ASE":994,"create":995,"SN":996,"Initial":997,"Ġby":998,"op":999,"ath":1000,"RELE":1001,"RELEASE":1002,"APSH":1003,"APSHOT":1004,"ĠF":1005,"SNAPSHOT":1006,"27":1007,"Ġdo":1008,"InitialSearchPhase":1009,"support":1010,"Qu":1011,"ers":1012,"ĠĠĠĠĠĠĠĠĠĠĠĠ":1013,"Index":1014,"javax":1015,"18":1016,"cat":1017,"out":1018,"Event":1019,"Client":1020,"fil":1021,"parsing":1022,"Access":1023,"swing":1024,"lib":1025,"Ġas":1026,"0000":1027,"orker":1028,"ere":1029,"Lookup":1030,"Shard":1031,"lob":1032,"til":1033,"Pool":1034,"ĠW":1035,"Ġus":1036,"lis":1037,"Ġde":1038,"An":1039,"Ġpro":1040,"Ġwhen":1041,"66":1042,"flect":1043,"ED":1044,"uster":1045,"ties":1046,"do":1047,"spiimpl":1048,"thread":1049,"Ġfrom":1050,"beam":1051,"plaf":1052,"Ġare":1053,"Ġe":1054,"Java":1055,"ound":1056,"illis":1057,"ecur":1058,"stant":1059,"very":1060,"ov":1061,"Invo":1062,"kafka":1063,"iled":1064,"ThreadPool":1065,"64":1066,"ecurity":1067,"Configuration":1068,"vid":1069,"pos":1070,"34":1071,"37":1072,"ted":1073,"Ġres":1074,"Util":1075,"ainer":1076,"common":1077,"perties":1078,"level":1079,"Object":1080,"put":1081,"Ġl":1082,"ite":1083,"ting":1084,"millis":1085,"api":1086,"ach":1087,"ĠC":1088,"02":1089,"unner":1090,"ER":1091,"time":1092,"error":1093,"ThreadPoolExecutor":1094,"constant":1095,"Invoker":1096,"Er":1097,"netty":1098,"ill":1099,"code":1100,")))))))))))))":1101,"execute":1102,"ĠN":1103,"isk":1104,"https":1105,"Ġif":1106,"AA":1107,"ime":1108,"aw":1109,"HintsInvoker":1110,"reflect":1111,"Accessor":1112,"esource":1113,"35":1114,"ST":1115,"ip":1116,"testr":1117,"record":1118,"testrunner":1119,"UT":1120,"47":1121,"rol":1122,"Ad":1123,"Ġco":1124,"Query":1125,"ore":1126,"dk":1127,"30":1128,"pt":1129,"45":1130,"ÂłÂłÂłÂł":1131,"ou":1132,"comp":1133,"Ġch":1134,"apping":1135,"ron":1136,"ĠM":1137,"web":1138,"asic":1139,"uth":1140,"ream":1141,"ĠB":1142,"/_":1143,"client":1144,"ph":1145,"ponse":1146,"Ġg":1147,"asterisk":1148,"This":1149,"}}":1150,"anag":1151,"pread":1152,"Ġtest":1153,"85":1154,"spread":1155,"DE":1156,"{\"":1157,"Lo":1158,"Ġso":1159,"'t":1160,"9200":1161,"IO":1162,"hould":1163,"serv":1164,"\":\"":1165,"runner":1166,"erver":1167,"Resource":1168,"32":1169,"36":1170,"Rec":1171,"Ġversion":1172,"AR":1173,"49":1174,"prod":1175,"inue":1176,"cluster":1177,"Ġbut":1178,"awt":1179,"Stream":1180,"Ġshould":1181,"48":1182,"State":1183,"ollow":1184,"continue":1185,"Ġfail":1186,"01":1187,"ax":1188,"load":1189,"Po":1190,"Ġwe":1191,"data":1192,"host":1193,"ated":1194,"ms":1195,"Stor":1196,"xy":1197,"Ġset":1198,"stem":1199,"context":1200,"08":1201,"ystem":1202,"Ġrun":1203,"MethodAccessor":1204,"Ġuse":1205,"unt":1206,"curl":1207,"Ġdoes":1208,"own":1209,"Worker":1210,"oot":1211,"ution":1212,"reg":1213,"oop":1214,"ices":1215,"Aut":1216,"base":1217,"ink":1218,"runners":1219,"ave":1220,"ui":1221,"Ġlog":1222,"fig":1223,"INFO":1224,"ailed":1225,"Error":1226,"Runner":1227,"Ġfollow":1228,"Ġor":1229,"anager":1230,"add":1231,"109":1232,"tring":1233,"sync":1234,"2019":1235,"Ġj":1236,"65":1237,"ĉĉ":1238,"overy":1239,"Dele":1240,"source":1241,"lookup":1242,"05":1243,"...":1244,"Web":1245,"ipe":1246,"Data":1247,"Ġ--":1248,"name":1249,"Loader":1250,"unit":1251,"Ġy":1252,"eck":1253,"shard":1254,"Val":1255,"Ġ/":1256,"Ġcan":1257,"Size":1258,"one":1259,"Async":1260,"dle":1261,"filter":1262,"Ġ5":1263,"Ġfile":1264,"security":1265,"**:":1266,"09":1267,"Ġsu":1268,"flow":1269,"min":1270,"ĠA":1271,"Ġclass":1272,"To":1273,"ĠIN":1274,");":1275,"On":1276,"127":1277,"chron":1278,"eam":1279,"Provid":1280,"06":1281,"28":1282,"==":1283,"Text":1284,"39":1285,"ql":1286,"255":1287,"Map":1288,"PUT":1289,"Ġerror":1290,"Ġreturn":1291,"Build":1292,"Default":1293,"26":1294,"ĠH":1295,"to":1296,"inal":1297,"Ġtr":1298,"positor":1299,"El":1300,"so":1301,"localhost":1302,"--------":1303,"MethodAccessorImpl":1304,"bed":1305,"Proxy":1306,"uture":1307,"ĠThe":1308,"Ke":1309,"Spring":1310,"ipeline":1311,"ml":1312,"29":1313,"1522":1314,"Ġwill":1315,"Manager":1316,"Ġrequest":1317,"ColorUI":1318,"ColorUIResource":1319,"UR":1320,"Runn":1321,"ich":1322,"channel":1323,"Store":1324,"Ġhave":1325,"ĠINFO":1326,"stream":1327,"Deleg":1328,"File":1329,"86":1330,"Listener":1331,"junit":1332,"Ġwork":1333,"Ġse":1334,"cc":1335,"Ġfollowing":1336,"Ġget":1337,"=,":1338,"Up":1339,"Response":1340,"Servlet":1341,"ĠP":1342,"Ġquery":1343,"CT":1344,"Future":1345,"compute":1346,"ested":1347,"ule":1348,"?:":1349,"38":1350,"greg":1351,"ument":1352,"ace":1353,"order":1354,"dis":1355,"Ġexception":1356,"num":1357,"catal":1358,"ample":1359,"Ar":1360,"server":1361,"clu":1362,").":1363,"Source":1364,"ocument":1365,"aly":1366,"Ġnode":1367,"shot":1368,"Utils":1369,"Ġnew":1370,"ies":1371,"nap":1372,"Ġio":1373,"\\\"":1374,"uce":1375,"actu":1376,"Ġusing":1377,"BeanFactory":1378,"Runnable":1379,"elect":1380,"Provider":1381,"Ġ]":1382,"main":1383,"mit":1384,"foo":1385,"napshot":1386,"pend":1387,"ber":1388,"Container":1389,"etty":1390,"ugin":1391,"))))))))))))))":1392,"home":1393,"sc":1394,"Node":1395,"ttp":1396,"ype":1397,"33":1398,"Parser":1399,"Log":1400,"ithub":1401,"Ġap":1402,"ĠĠĠĠĠĠĠĠĠĠĠĠĠĠĠĠĠĠĠĠĠĠĠĠĠĠĠĠĠĠĠĠ":1403,"github":1404,"editor":1405,"pository":1406,"ĠčĊ":1407,"son":1408,"rap":1409,"String":1410,"patch":1411,"oble":1412,"stat":1413,"Key":1414,"ClassLoader":1415,"For":1416,"perty":1417,"Main":1418,"Final":1419,"gle":1420,"Conn":1421,"chronized":1422,"transport":1423,"Ġwhich":1424,"ater":1425,"Ġup":1426,"Ġnull":1427,"Http":1428,"az":1429,"rite":1430,"Ġli":1431,"87":1432,"(\"":1433,"ations":1434,"doc":1435,"oogle":1436,"OR":1437,"synchronized":1438,"clo":1439,"aused":1440,"store":1441,"xpack":1442,"Rest":1443,"56":1444,"The":1445,"Ġ#":1446,"bound":1447,"Fi":1448,"factory":1449,"Ġtime":1450,"Loc":1451,"lease":1452,"ote":1453,"ep":1454,"roller":1455,"End":1456,"ther":1457,"Ġcont":1458,"gn":1459,"Ġhas":1460,"43":1461,"led":1462,"Ġme":1463,"exception":1464,"fix":1465,"ChannelHandler":1466,"Type":1467,"not":1468,"ĠJ":1469,"Builder":1470,"Id":1471,"ded":1472,"Ġall":1473,"ire":1474,"max":1475,"ket":1476,"oblem":1477,"gradle":1478,"ublic":1479,"tric":1480,"ĠD":1481,"Int":1482,"Elasticsearch":1483,"Ġsome":1484,"Base":1485,"Ġwas":1486,"ĠG":1487,"ector":1488,"'s":1489,"ll":1490,"no":1491,"Server":1492,"Ġ_":1493,"figure":1494,"?]":1495,"With":1496,"dd":1497,"ĠĊ":1498,"Ġstart":1499,"ION":1500,"ChannelHandlerContext":1501,"abled":1502,"tom":1503,"Read":1504,"Endpoint":1505,"Recovery":1506,"Ġrec":1507,"ange":1508,"ger":1509,"ĠThis":1510,"path":1511,"imple":1512,"ÂłĠ":1513,"ET":1514,"Ġ09":1515,"inter":1516,"valu":1517,"ĠĠĠĠĠĠ":1518,"Native":1519,"AbstractChannelHandlerContext":1520,"roup":1521,"had":1522,"Pipeline":1523,"parse":1524,"Ġsun":1525,"Ġ|":1526,"TaskProcessor":1527,"ve":1528,"pha":1529,"leg":1530,"Delegating":1531,"Ġun":1532,"aut":1533,"sue":1534,"ING":1535,"mer":1536,"57":1537,"enc":1538,"ĠO":1539,"AsyncAction":1540,"ĠR":1541,"By":1542,"21":1543,"Trans":1544,"URL":1545,"legal":1546,"07":1547,"src":1548,"pected":1549,"ĠĠĠĠĠĠĠĠĠĠĠĠĠ":1550,"Ġ3":1551,"alpha":1552,"Kafka":1553,"kip":1554,"ason":1555,"ding":1556,"apter":1557,"Ġyou":1558,"Ġproblem":1559,"imum":1560,"google":1561,"Pl":1562,"fter":1563,"Ġ.":1564,"\",\"":1565,"scri":1566,"hadoop":1567,"ACT":1568,"Ġfound":1569,"Unit":1570,"andle":1571,"2017":1572,"Ġ@":1573,"mand":1574,"ior":1575,"ff":1576,"Ġissue":1577,"Ġcreate":1578,"istr":1579,"Ġshard":1580,"Mess":1581,"process":1582,"23":1583,"Ġ4":1584,"Ġno":1585,"ge":1586,"properties":1587,"Ġresult":1588,"ould":1589,"Ġadd":1590,"Basic":1591,"Adapter":1592,"ging":1593,"indow":1594,"ApplicationContext":1595,"99":1596,"my":1597,"bedded":1598,"Ġinst":1599,"escri":1600,"AbstractSearch":1601,"AbstractSearchAsyncAction":1602,"odes":1603,"Oper":1604,"top":1605,"Auto":1606,"And":1607,"Message":1608,"build":1609,"bc":1610,"py":1611,",\"":1612,"ĠĠĠĠĠĠĠĠĠĠĠĠĠĠĠĠĠĠĠ":1613,"Ġ~[?:":1614,"arget":1615,"152280":1616,"sql":1617,"alyz":1618,"Ġmore":1619,"ning":1620,"Name":1621,"ibm":1622,"sed":1623,"AT":1624,"Dis":1625,"Ġout":1626,"AAAA":1627,"ws":1628,"Per":1629,"Kit":1630,"call":1631,"catalog":1632,"align":1633,"Ġen":1634,"alignment":1635,"fore":1636,"44":1637,"sdk":1638,"Ġint":1639,"emp":1640,"Ġtrue":1641,"TextColor":1642,"imumSize":1643,")))))))))))))))":1644,"ulti":1645,"Wrap":1646,"]]":1647,"sub":1648,"Next":1649,"skip":1650,"Ġ>":1651,"Cache":1652,"Ġ---":1653,"basic":1654,"XPUT":1655,"Auth":1656,"324":1657,"watch":1658,"RequestProcessor":1659,"res":1660,"Ġone":1661,"hen":1662,"Ġfailed":1663,"gin":1664,"gine":1665,"node":1666,"ocon":1667,"bus":1668,"achine":1669,"Ġrest":1670,"Sh":1671,"Ġfin":1672,"DelegatingMethodAccessorImpl":1673,"Result":1674,"Config":1675,"start":1676,"jdk":1677,"servlet":1678,"Execution":1679,"Ġcluster":1680,"project":1681,"ProxyLookup":1682,"rt":1683,"Field":1684,"Ġreprod":1685,"ell":1686,"Ġonly":1687,"format":1688,"Controller":1689,"ped":1690,"ates":1691,"computeHints":1692,"Connection":1693,"autocon":1694,"Properties":1695,"vc":1696,"auth":1697,"word":1698,"part":1699,"Reg":1700,"llegal":1701,"ĠIn":1702,"Ġag":1703,"autoconfigure":1704,"skipShard":1705,"Ġdocument":1706,"AutoConfiguration":1707,"ful":1708,"ĠL":1709,"Ġ6":1710,"ched":1711,"ccess":1712,"Files":1713,"Ġsh":1714,"ustom":1715,"Ġv":1716,"event":1717,"Ġbeh":1718,"ACTION":1719,"ree":1720,"Em":1721,"]</":1722,"fo":1723,"rr":1724,"ponent":1725,"58":1726,"Ġne":1727,"90":1728,"unc":1729,"etch":1730,"Post":1731,"67":1732,"its":1733,"Do":1734,"ingle":1735,"Set":1736,"ovy":1737,"Wrapper":1738,"OST":1739,"roovy":1740,"sumer":1741,"Ġany":1742,"IT":1743,"180":1744,"blob":1745,"cub":1746,"Caused":1747,"Ġ13":1748,"release":1749,"Out":1750,"eri":1751,"User":1752,"ĠĠĠĠĠĠĠĠĠĠĠĠĠĠĠĠĠ":1753,"Ġnested":1754,"Ġthere":1755,"Ġhttps":1756,"):":1757,"cubator":1758,"Ġmethod":1759,"2015":1760,"imbus":1761,"62":1762,"Blob":1763,"97":1764,"]:":1765,"Call":1766,"mov":1767,"ken":1768,"Local":1769,"Ġclo":1770,"ake":1771,"114":1772,"ableBeanFactory":1773,"Ġstate":1774,"aven":1775,"gr":1776,"Ġpo":1777,"Co":1778,"dataflow":1779,"jrt":1780,"\":{\"":1781,"SpringApplication":1782,"GET":1783,"Parent":1784,"trans":1785,"Update":1786,"ÂłčĊ":1787,"Ġincubator":1788,"Sc":1789,"zone":1790,"eper":1791,"repe":1792,"ĠSystem":1793,"Illegal":1794,"##":1795,"Ġreport":1796,"reate":1797,"Ġbug":1798,"Ġ10":1799,"Ġbehav":1800,"tings":1801,"ARN":1802,"lish":1803,"elastic":1804,"55":1805,"reason":1806,"ash":1807,"Repository":1808,"size":1809,"Ġdefault":1810,"Ġpl":1811,"31":1812,"anner":1813,"repeater":1814,"empl":1815,"mat":1816,"Ġcheck":1817,"Ġcur":1818,"Ġlike":1819,"ong":1820,"Not":1821,"Ġexpected":1822,"Ġprocess":1823,"Annot":1824,"Registr":1825,"Ġbec":1826,"}'":1827,"88":1828,"Comp":1829,"ART":1830,"Ġsame":1831,"ene":1832,"dog":1833,"valid":1834,"Ġcode":1835,"watchdog":1836,"count":1837,"fres":1838,"FutureTask":1839,"files":1840,"Ġ{{":1841,"Dispatch":1842,"otal":1843,"Ġinclu":1844,"Ġapplication":1845,"pendenc":1846,"handle":1847,"indices":1848,"unction":1849,"dc":1850,"Ġ...":1851,"Mod":1852,"fresh":1853,"uf":1854,"ply":1855,"rrect":1856,":\\":1857,"Ġactu":1858,"ucene":1859,"trics":1860,"App":1861,"POST":1862,"SearchService":1863,"52":1864,"Ġreproduce":1865,"cm":1866,"98":1867,"tes":1868,"Ġdata":1869,"();":1870,"ĠE":1871,"ccessful":1872,"entic":1873,"ible":1874,"kn":1875,"ts":1876,"},":1877,"init":1878,"),":1879,"DEX":1880,"Ġstat":1881,"produc":1882,"INDEX":1883,"hex":1884,"91":1885,"Value":1886,"46":1887,"Internal":1888,"====":1889,"Ġ][":1890,"ala":1891,"Content":1892,"cript":1893,"Ġfails":1894,"Gener":1895,"Hint":1896,"vir":1897,"Ġafter":1898,"`.":1899,"Lookups":1900,"ulk":1901,"Chain":1902,"clou":1903,"Ġpublic":1904,"Array":1905,"INDEXING":1906,"Execute":1907,"ĠSpring":1908,"putStream":1909,"Ver":1910,"ĠĠĠĠĠĠĠĠĠĠĠĠĠĠĠĠĠĠĠĠĠĠĠ":1911,"Autow":1912,"Le":1913,"ory":1914,"sets":1915,"nio":1916,"Integ":1917,"Coll":1918,"Ġdele":1919,"93":1920,"iew":1921,"successful":1922,"dices":1923,"380":1924,"Ġtry":1925,"40":1926,"Ġused":1927,"VM":1928,"mote":1929,"escription":1930,"Ġ*":1931,"aus":1932,"Ġmapping":1933,"PostProcessor":1934,"viron":1935,"endpoint":1936,"vironment":1937,"Que":1938,"oder":1939,"000000":1940,"sel":1941,"lip":1942,"Command":1943,"ParentRunner":1944,"ARTED":1945,"indexing":1946,"ON":1947,"Bind":1948,"OS":1949,"Ġexec":1950,"Target":1951,"ww":1952,"score":1953,"Common":1954,"Fn":1955,"aun":1956,"kit":1957,"}{":1958,"Ġfalse":1959,"Ġfix":1960,"UID":1961,"Operation":1962,"Ġ7":1963,"Ġdoesn":1964,"Sub":1965,"Resol":1966,"Ġper":1967,"select":1968,"BU":1969,"Ġthen":1970,"back":1971,"mapping":1972,"No":1973,"Path":1974,"Ġbecause":1975,"match":1976,"STARTED":1977,"Bund":1978,"Property":1979,"ĠSt":1980,"||":1981,"Queue":1982,"Ġfilter":1983,"ix":1984,"JUnit":1985,"Ġcall":1986,"Executors":1987,"Ġab":1988,"Ġ\\\"":1989,"lobal":1990,"120":1991,"actor":1992,"ĠURL":1993,"000":1994,"fs":1995,"Ġ+":1996,"Ġcase":1997,"master":1998,"ÂłĠÂłĠ":1999,"aunch":2000,"ublish":2001,"__":2002,"gest":2003,"container":2004,"aybe":2005,"ĠAS":2006,"1217":2007,"ucket":2008,"Ġmy":2009,"cloud":2010,"480":2011,"Mapping":2012,"ead":2013,"Ġ~[?:?]":2014,"Ġver":2015,"ify":2016,"Ġ11":2017,"by":2018,"Embedded":2019,"way":2020,"fir":2021,"db":2022,"Ġclient":2023,"Ag":2024,"machine":2025,"fields":2026,"alled":2027,"ry":2028,"Ġbehavior":2029,"Boot":2030,"800":2031,"Ed":2032,"](":2033,"20181217":2034,"Ġhttp":2035,"Ġthread":2036,"NativeMethodAccessorImpl":2037,"na":2038,"ÂłÂłÂłÂłÂłÂłÂłÂł":2039,"BUG":2040,"Fl":2041,"FilterChain":2042,"der":2043,"attern":2044,")\\":2045,"Step":2046,"shad":2047,"76":2048,"DEBUG":2049,"59":2050,"ps":2051,"ActionEvent":2052,"igh":2053,"500":2054,"Version":2055,"nect":2056,"Ġother":2057,"ost":2058,"ĠIf":2059,"umber":2060,"alyzer":2061,"Cap":2062,"adata":2063,"ux":2064,"polog":2065,"41":2066,"gs":2067,"emplate":2068,"MainThread":2069,"GUID":2070,"ags":2071,"ired":2072,"ane":2073,"IndexShard":2074,"()||":2075,"fce":2076,"ia":2077,"Ġalso":2078,"215":2079,"ena":2080,"Nio":2081,"xml":2082,"shards":2083,"lucene":2084,"car":2085,"****":2086,"fdc":2087,"Dec":2088,"uffer":2089,"4806":2090,"Ġaut":2091,"Or":2092,"ChannelRead":2093,"Editor":2094,"lit":2095,"when":2096,"ee":2097,"pretty":2098,"over":2099,"izer":2100,"ERR":2101,"Plugin":2102,"Time":2103,"ely":2104,"Ġpath":2105,"tomcat":2106,"Annotation":2107,"Ġrestart":2108,"ems":2109,"Ġload":2110,"ever":2111,"dat":2112,"AL":2113,"Cluster":2114,"PER":2115,"Condition":2116,"pc":2117,"scala":2118,"It":2119,"ayout":2120,"executeWith":2121,"50":2122,"cache":2123,"Ġbean":2124,"Bundle":2125,"Inter":2126,"bar":2127,"ĠAST":2128,"worker":2129,"Ġmod":2130,"Ġinto":2131,"Ġexample":2132,"failed":2133,"))))))))))))))))":2134,"provid":2135,"Resolver":2136,"snapshot":2137,"ERROR":2138,"Create":2139,"ÂłÂłÂł":2140,"ocol":2141,"ugh":2142,"ĠĠĠĠĠĠĠĠĠĠĠĠĠĠ":2143,"cmd":2144,"Ġwould":2145,"Scanner":2146,"thing":2147,"Engine":2148,"otocol":2149,"Ġpart":2150,"strap":2151,"Pointer":2152,"gregations":2153,"pendency":2154,"vn":2155,"first":2156,"total":2157,"ĠFiles":2158,"Project":2159,"Ġneed":2160,"ĠUn":2161,"Ġ000000":2162,"Autowire":2163,"60":2164,"RM":2165,"down":2166,"Ġ(`":2167,"Ġback":2168,"known":2169,"208":2170,"Count":2171,"pology":2172,"Get":2173,"vis":2174,"Ġproperty":2175,"ptions":2176,"Ġ0000007":2177,"sist":2178,"ullPointer":2179,"border":2180,"eat":2181,"Ġ2018":2182,"42":2183,"AbstractAutowire":2184,"CapableBeanFactory":2185,"AbstractAutowireCapableBeanFactory":2186,"Ass":2187,"Ġdif":2188,"runtime":2189,"des":2190,"Mar":2191,"ullPointerException":2192,"check":2193,"Compil":2194,"148":2195,"Ġexist":2196,"Registry":2197,"SS":2198,"itable":2199,"Mon":2200,"Mvc":2201,"econ":2202,"Security":2203,"ĠFile":2204,"Ġdis":2205,"Ġsee":2206,"Pane":2207,"ĠWhen":2208,"Indexer":2209,"loader":2210,"anage":2211,"Open":2212,"noformat":2213,"Ġ],":2214,"Ġac":2215,"col":2216,"));":2217,"Ġread":2218,"amp":2219,">(":2220,"fn":2221,"chedul":2222,"olr":2223,"BlobStore":2224,"Stat":2225,"Add":2226,"oduc":2227,"maven":2228,"77":2229,"Single":2230,"Ġid":2231,"TransportService":2232,"ocket":2233,"bind":2234,"Ġsub":2235,"15228":2236,"eiv":2237,"issing":2238,"artition":2239,"ĠBoot":2240,"Met":2241,"Ġ20":2242,".<":2243,"Global":2244,"left":2245,"ActionListener":2246,"ĠĠĠĠĠĠĠĠĠĠ":2247,"':":2248,"RO":2249,"Ġcannot":2250,"ools":2251,"Ġdir":2252,"static":2253,"ptor":2254,"ottom":2255,"95":2256,"Ġremov":2257,"Handlers":2258,"values":2259,"2016":2260,"Valid":2261,"Collection":2262,"2014":2263,"elow":2264,"Ġkafka":2265,"/:":2266,"ling":2267,"term":2268,"Info":2269,"Ġcurrent":2270,"right":2271,"Ġtw":2272,"Window":2273,"Ġspec":2274,"alth":2275,"terms":2276,"anc":2277,"odec":2278,"Ġ14":2279,"Authentic":2280,"Integer":2281,"user":2282,"Component":2283,"active":2284,"System":2285,"hits":2286,"layout":2287,"Program":2288,"AbstractRunnable":2289,"anagement":2290,"----------------":2291,"++":2292,"appen":2293,"Ġcontain":2294,"Ġmessage":2295,"config":2296,"from":2297,"owever":2298,"dispatch":2299,"processor":2300,"cle":2301,"96":2302,"editable":2303,"Ġthrow":2304,"Ġqu":2305,"Ġsupport":2306,"Perform":2307,"ial":2308,"Ġcontext":2309,"emon":2310,"flags":2311,"....":2312,"map":2313,"new":2314,"apply":2315,"Ġhappen":2316,"Ġlist":2317,"FORM":2318,"disabled":2319,"If":2320,"Partition":2321,"maybe":2322,"ince":2323,"Ġ'{":2324,"321":2325,"bottom":2326,"292":2327,"jena":2328,"selection":2329,"HintsTask":2330,"UpdateHandler":2331,"ĠU":2332,"];":2333,"Ġwhile":2334,"caret":2335,"Ġrunning":2336,"ferredSize":2337,"appli":2338,"TextUI":2339,"BasicTextUI":2340,"PERFORM":2341,"PERFORMED":2342,"andard":2343,"EditorPane":2344,"Code":2345,"ward":2346,"API":2347,"internals":2348,"por":2349,"RunnableAdapter":2350,"He":2351,"sues":2352,"Ġtrans":2353,"margin":2354,"[,":2355,"Ġresults":2356,"selected":2357,"Border":2358,"Ġover":2359,"Ġchang":2360,"=]</":2361,"typeHandlers":2362,"Insets":2363,"preferredSize":2364,"minimumSize":2365,"maximumSize":2366,"alignmentX":2367,"alignmentY":2368,"disabledTextColor":2369,"selectionColor":2370,"caretColor":2371,"selectedTextColor":2372,"Gra":2373,"split":2374,"Ġuser":2375,"eature":2376,"status":2377,"Ġ**":2378,"Select":2379,"ions":2380,"Err":2381,"ĠSystemErr":2382,"plo":2383,"().":2384,"ait":2385,"products":2386,"TestUtil":2387,"CommonTestUtil":2388,"Ġsearch":2389,"groovy":2390,"Ġmay":2391,"Ġi":2392,"asks":2393,"we":2394,"ĠNo":2395,"Aggreg":2396,"ScannerImpl":2397,"Ġlocalhost":2398,"Ġactual":2399,"Ġhe":2400,"Ġ8":2401,"ages":2402,"Ġcorrect":2403,"default":2404,"704":2405,"sert":2406,"Ġdefin":2407,"providers":2408,"As":2409,"ili":2410,"Ġbelow":2411,"54":2412,"CL":2413,"Ġresponse":2414,"ateg":2415,"Argument":2416,"onResponse":2417,"mark":2418,"WARN":2419,"Ġvoid":2420,"StateException":2421,"Ġmain":2422,"Ġincluding":2423,"econd":2424,"51":2425,"Process":2426,"Ġcre":2427,"json":2428,"Ġjob":2429,"Write":2430,"Ġreturns":2431,"ĠAPI":2432,"Ġserver":2433,"Ġbefore":2434,"Performer":2435,"content":2436,"BaseKit":2437,"position":2438,"Ġrel":2439,"lig":2440,"Ġbeing":2441,"Ġjust":2442,"\")":2443,"ĠIt":2444,"fire":2445,"doFilter":2446,"valuate":2447,"lipse":2448,"Ġgener":2449,"splitter":2450,"Group":2451,"AAAAAAAA":2452,"utdown":2453,"RequestPerformer":2454,"public":2455,"Ġconfiguration":2456,"78":2457,"handler":2458,"`,":2459,"Ġcause":2460,"streams":2461,"EN":2462,"runWorker":2463,"RequestHandler":2464,"Ġdiffer":2465,"Environment":2466,"Ġproject":2467,"AbstractBeanFactory":2468,"Ġsource":2469,"LO":2470,"=\"":2471,"model":2472,"Ġworks":2473,"alize":2474,"getTest":2475,"ina":2476,"med":2477,"Fetch":2478,"html":2479,"uring":2480,"ectory":2481,"ĠFileObject":2482,"Ġblock":2483,"ĠTh":2484,"catalina":2485,"ware":2486,"TransportAction":2487,"stamp":2488,"Targets":2489,"refresh":2490,"InputStream":2491,"getTestTargets":2492,"auncher":2493,"Ġsnapshot":2494,"ShardExecution":2495,"successfulShardExecution":2496,"write":2497,"ĠMethod":2498,"eived":2499,"ycle":2500,"ExecuteNext":2501,"maybeExecuteNext":2502,"os":2503,"rary":2504,"eclipse":2505,"les":2506,"Ġoff":2507,"BasicB":2508,"100":2509,"Ġlook":2510,"porter":2511,"Simple":2512,"Ġcould":2513,"Loop":2514,"ances":2515,"Ġspring":2516,"Ġinstead":2517,"IllegalStateException":2518,"orders":2519,"iet":2520,"Ġpre":2521,"ifact":2522,"ĠError":2523,"uting":2524,"JavaKit":2525,"Mapper":2526,"ginBorder":2527,"MarginBorder":2528,"704324":2529,"BasicBorders":2530,"ready":2531,"cheduler":2532,"QL":2533,"Ġthan":2534,"Byte":2535,"74":2536,"Ġ148":2537,"Ġcreated":2538,"ploy":2539,"MBean":2540,"evaluate":2541,"ĠJava":2542,"Ġchange":2543,"Nimbus":2544,"empty":2545,"Ġopen":2546,"Ġ[?:":2547,"tools":2548,"Block":2549,"ĠRe":2550,"Failed":2551,"68":2552,"sus":2553,"Net":2554,"publish":2555,"ends":2556,"'m":2557,"Ġdifferent":2558,"ryo":2559,"Sql":2560,"rame":2561,"Ġatt":2562,"aggregations":2563,"TE":2564,"ines":2565,"Description":2566,"yy":2567,"Ġim":2568,"Ġfirst":2569,"Ġbeen":2570,"Ġwhere":2571,"ĠK":2572,"Quiet":2573,"StoreRecovery":2574,"QuietEditorPane":2575,"ases":2576,"',":2577,"ISH":2578,"logging":2579,"Ġ14837":2580,"Consumer":2581,"69":2582,"cp":2583,"We":2584,"tadata":2585,"Ġline":2586,"Clo":2587,"imary":2588,"ISHED":2589,"ecycle":2590,"Runtime":2591,"Combin":2592,"Fail":2593,"/</":2594,"andom":2595,"actuate":2596,"AbstractApplicationContext":2597,"/.":2598,"Ġdoc":2599,"eng":2600,"Steps":2601,"Sco":2602,"Iter":2603,"Ġtwo":2604,"group":2605,"plugin":2606,"Ġx":2607,"ĠWe":2608,"128":2609,"request":2610,"ebug":2611,"tat":2612,"53":2613,"Location":2614,"Ġrestarted":2615,"400":2616,"XContent":2617,"ese":2618,"Ġstill":2619,"Subscri":2620,"Ġdat":2621,"ĠString":2622,"plete":2623,"ators":2624,"Frame":2625,"cept":2626,"vide":2627,"Ġund":2628,"webcontainer":2629,"When":2630,"isco":2631,"Ġign":2632,"embedded":2633,"ema":2634,"Ġ15":2635,"ged":2636,"Unknown":2637,"execution":2638,"Ġdown":2639,"artifact":2640,"Custom":2641,"GlobalLookup":2642,"sure":2643,"XGET":2644,"Seri":2645,"Sp":2646,"Ġduring":2647,"Ġthese":2648,"Ġmatch":2649,"ArgumentException":2650,"NullPointerException":2651,"lement":2652,"tm":2653,"rong":2654,"shade":2655,"sis":2656,"Ġ{\"":2657,"azy":2658,"Ġvalues":2659,"Ġsc":2660,"Multi":2661,"Mono":2662,"ven":2663,"Ġfeature":2664,"Binder":2665,"rup":2666,"dev":2667,"Dataflow":2668,"ationService":2669,"ceptor":2670,"Plugins":2671,"service":2672,"Ġcaus":2673,"alysis":2674,"ud":2675,"From":2676,"193":2677,"Document":2678,"Users":2679,"72":2680,"Ġcomp":2681,"sun":2682,"Ġparse":2683,"Ġproperties":2684,"alar":2685,"Sup":2686,"ssible":2687,"arning":2688,"Ġindices":2689,"Ġallow":2690,"Ġ//":2691,"ivate":2692,"ures":2693,"Element":2694,"clude":2695,"Ġnumber":2696,"pout":2697,"Ġdon":2698,"Pre":2699,"Ġlogs":2700,"Ġrele":2701,"Jar":2702,"ility":2703,"FIN":2704,"ozone":2705,"ĉĉĉĉ":2706,"Ġthink":2707,"invokeChannelRead":2708,"ified":2709,"Ġ[]":2710,"Ġseems":2711,"SE":2712,"Syn":2713,"ten":2714,"ĠFailed":2715,"JVM":2716,"imer":2717,"ooke":2718,"Ġbuild":2719,"ookeeper":2720,"nested":2721,"ock":2722,"DO":2723,"Ġthrows":2724,"arn":2725,"166":2726,"Transform":2727,"70":2728,"ister":2729,"Ġreg":2730,"Ġfiles":2731,"Ġmulti":2732,"library":2733,"Job":2734,"trib":2735,"Su":2736,"usr":2737,"Intel":2738,"Pattern":2739,"JavaSource":2740,"WebApp":2741,"FINISHED":2742,"post":2743,"TestClass":2744,"ATE":2745,"clients":2746,"View":2747,"Ġshards":2748,"Ġversus":2749,"publisher":2750,"ĠrestartedMain":2751,"Ġbaz":2752,"ĠFor":2753,"avail":2754,"plica":2755,"Ġsetting":2756,"Ġnodes":2757,"ĠSource":2758,"Ġits":2759,"daemon":2760,"number":2761,"Ġwithout":2762,"Level":2763,"OM":2764,"atis":2765,"Replication":2766,"!--":2767,"ough":2768,"rid":2769,"Ġ->":2770,"Ġstatic":2771,"Ġagain":2772,"ier":2773,"Ġunder":2774,"PE":2775,"Ġupgra":2776,"dir":2777,"Ġtests":2778,"Delegate":2779,"ength":2780,"Ġempty":2781,"repository":2782,"84":2783,"sl":2784,"settings":2785,"\"}'":2786,"job":2787,"jetty":2788,"ual":2789,"Ġ22":2790,"transform":2791,"IllegalArgumentException":2792,"89":2793,"Model":2794,"Instance":2795,"fe":2796,"ress":2797,"Ġmaster":2798,"Ġsince":2799,"Ġbar":2800,"Ġk":2801,"oth":2802,"omcat":2803,"keyword":2804,"Batch":2805,"Ġfields":2806,"nection":2807,"ick":2808,"implement":2809,"Compilation":2810,"Ġthey":2811,"WebApplicationContext":2812,"63":2813,"Ġdate":2814,"Ġwrong":2815,"Ġhere":2816,"AM":2817,"mis":2818,"ThreadContext":2819,"pletion":2820,"Logging":2821,"grpc":2822,"Found":2823,"solr":2824,"bucket":2825,"arter":2826,"testing":2827,"Ġinstalled":2828,"ae":2829,"Streaming":2830,"Over":2831,"Ġbro":2832,"Reader":2833,"loadClass":2834,"Snapshot":2835,"`):":2836,"Ġinstance":2837,"ynam":2838,"ApplicationFilterChain":2839,"\"}":2840,"Ġstring":2841,"licy":2842,"doRun":2843,"Ġplugin":2844,"www":2845,"81":2846,"go":2847,"Ġalready":2848,"Ġtop":2849,"Ġfailure":2850,"the":2851,"flink":2852,"130":2853,"Launcher":2854,"ĠKafka":2855,"ove":2856,"Check":2857,"roll":2858,"Meta":2859,"other":2860,"Ġsize":2861,"Format":2862,"codec":2863,"Lazy":2864,"Session":2865,"anti":2866,"Ġiniti":2867,"appliances":2868,"Parse":2869,"Ġrequ":2870,"278":2871,"oper":2872,"embed":2873,"\"}}":2874,"\");":2875,"=[":2876,"ied":2877,"Ġport":2878,"Module":2879,"Ġar":2880,"ynamic":2881,"rit":2882,"xx":2883,"ĠElasticsearch":2884,"Ġfl":2885,"Ġmake":2886,"Options":2887,"All":2888,"Ġimplement":2889,"ics":2890,"ackson":2891,"122":2892,"Ġ?":2893,"Observ":2894,"Constructor":2895,"Ġgo":2896,"Ġnon":2897,"ish":2898,"Child":2899,"Received":2900,"Ġam":2901,"Master":2902,"Ġdelete":2903,"Buffer":2904,"Script":2905,"Metrics":2906,"clj":2907,"ape":2908,"========":2909,"Link":2910,"analyzer":2911,"ift":2912,"Ġcontainer":2913,"available":2914,"Of":2915,"\":{":2916,"Ġdue":2917,"Ġvalid":2918,"qual":2919,"Ġmight":2920,"Ġoc":2921,"leton":2922,"ĠES":2923,"Ġway":2924,"Ġaggreg":2925,"Table":2926,"alarms":2927,"Tree":2928,"Framework":2929,"alization":2930,"HandlerMapping":2931,"EDIT":2932,"200":2933,"XPOST":2934,"oriz":2935,"Ġoutput":2936,"EmbeddedWebApplicationContext":2937,"Ġad":2938,"trl":2939,"ClassRunner":2940,"Function":2941,"TT":2942,"example":2943,"296":2944,"bulk":2945,"Ġ\\":2946,"Ġlocal":2947,"engine":2948,"egment":2949,"Ġclosed":2950,"finition":2951,"IG":2952,"aset":2953,"Ġsystem":2954,"Ġ01":2955,"Logger":2956,"Remote":2957,"opy":2958,"Ġnow":2959,"ArrayList":2960,"Ġdet":2961,"olve":2962,"scan":2963,"rest":2964,"utable":2965,"ĠMap":2966,"ggest":2967,"coll":2968,"BeanPostProcessor":2969,"EDITOR":2970,"ush":2971,"ĠĠĠĠĠĠĠĠĠĠĠĠĠĠĠĠĠĠĠĠĠĠĠĠĠĠĠ":2972,"ords":2973,"Tests":2974,"Ġconfig":2975,"geo":2976,"ues":2977,"264":2978,"LI":2979,"273":2980,"Interceptor":2981,"eries":2982,"ignite":2983,"Ġ{}":2984,"chema":2985,"Ġ18":2986,"ride":2987,"Indices":2988,"boost":2989,"Ġrequests":2990,"ÂłÂłÂłÂłÂłÂłÂł":2991,"Decoder":2992,"pul":2993,"Ġ9":2994,"find":2995,"LOG":2996,"afe":2997,"ServletContainer":2998,"Act":2999,"Transl":3000,"Protocol":3001,"WebMvc":3002,"ToMessage":3003,"Methods":3004,"CE":3005,"DK":3006,"Match":3007,"dfs":3008,"Ġreactor":3009,"EventLoop":3010,"Assert":3011,"Ġstop":3012,"Definition":3013,"subversion":3014,"73":3015,"DB":3016,"mory":3017,"extends":3018,"Ġthem":3019,"Errors":3020,"NioEventLoop":3021,"2033":3022,"mappings":3023,"ĠAM":3024,"assword":3025,"1418":3026,"Ġcommit":3027,"\",\"_":3028,"61":3029,"mb":3030,"unter":3031,"Ġjavax":3032,"Ġgu":3033,"Standard":3034,"blobstore":3035,"ĠWARN":3036,"ie":3037,"Reference":3038,"Ġdocuments":3039,"Ġendpoint":3040,"chedule":3041,"LD":3042,"Ġpossible":3043,":?]":3044,"Big":3045,")))))))))))))))))":3046,"mx":3047,"routing":3048,"Ġeven":3049,"ached":3050,"atorrent":3051,"Ġsp":3052,"LocalCache":3053,"datatorrent":3054,"TTP":3055,"Str":3056,"279":3057,"AB":3058,"enable":3059,"9300":3060,"221":3061,"ins":3062,"admin":3063,"session":3064,"asl":3065,"Ġsettings":3066,"Ġyour":3067,"factor":3068,"Ġboth":3069,"Ġent":3070,"Shell":3071,"317":3072,"Ġuses":3073,"!/:":3074,"Al":3075,"dele":3076,"ln":3077,"Ġevent":3078,"Ġsecond":3079,"Copy":3080,"Template":3081,"Start":3082,"Doc":3083,"Ġcustom":3084,"75":3085,"748":3086,"pect":3087,"Ġshow":3088,"jure":3089,"Canc":3090,"atform":3091,"ways":3092,"Prior":3093,"please":3094,"subscri":3095,"Ġserv":3096,"Ġproduc":3097,"Ġcorrectly":3098,"Ġ12":3099,"correct":3100,"ingleton":3101,"Support":3102,"Ġinv":3103,"Ġmissing":3104,"745":3105,"educe":3106,"riter":3107,"Ġoccur":3108,"Ġ{},":3109,"Exporter":3110,"663":3111,"Ġelasticsearch":3112,"ClassPath":3113,"libs":3114,"Flux":3115,"Ġaccess":3116,"Ġbet":3117,"Ġcreating":3118,"ses":3119,"DoFn":3120,"$$":3121,"Ġfinal":3122,"Ġtrying":3123,"recovery":3124,"ID":3125,"Mgr":3126,"visor":3127,"ome":3128,"graph":3129,"less":3130,"send":3131,"ected":3132,"Ġdirectory":3133,"Ġpartition":3134,"ĠServer":3135,"Load":3136,"ategy":3137,"Ġalways":3138,"board":3139,"ordin":3140,"Es":3141,"Ġparameter":3142,"Ġscript":3143,"OP":3144,"pare":3145,"print":3146,"514":3147,"ListableBeanFactory":3148,"Ġstarted":3149,"Rel":3150,"verter":3151,"old":3152,"integration":3153,"Ġtask":3154,"111":3155,"ertow":3156,"561":3157,"Ġformat":3158,"controller":3159,"DefaultListableBeanFactory":3160,"has":3161,"Ġorder":3162,"Network":3163,"Inv":3164,"br":3165,"385":3166,"ren":3167,"rer":3168,"102":3169,"queue":3170,"view":3171,"pression":3172,"564":3173,"metrics":3174,"avac":3175,"uggest":3176,"ProviderImpl":3177,"iscovery":3178,"enabled":3179,"prec":3180,"Generated":3181,"Initializer":3182,"actions":3183,"Ġfind":3184,"consumer":3185,"()`":3186,"component":3187,"168":3188,"Ġproper":3189,"ObjectInputStream":3190,"335":3191,"Ġinter":3192,"Output":3193,"].":3194,"inux":3195,"Ġcauses":3196,"Hel":3197,"bit":3198,"sum":3199,"Ġsuch":3200,"light":3201,"Wh":3202,"connect":3203,"Ġhand":3204,"cli":3205,"figured":3206,"ConfigurationClass":3207,"tasks":3208,"Ġmax":3209,"Ġwhat":3210,"eo":3211,"ential":3212,"eserv":3213,"isto":3214,"Control":3215,"EventQueue":3216,"ClientFactory":3217,"Ġeach":3218,"Suggest":3219,"TER":3220,"ious":3221,"Ġmin":3222,"ConfigurationProperties":3223,"Aggregator":3224,"jo":3225,"sole":3226,"Failure":3227,"Bootstrap":3228,"())":3229,"ĠTask":3230,"Ġmust":3231,"Reflect":3232,"runAnd":3233,"ĠNov":3234,"now":3235,"oduce":3236,"Hub":3237,"Ġplease":3238,"empt":3239,"Shift":3240,"Lif":3241,"bootstrap":3242,"pulate":3243,"utes":3244,"older":3245,"Ġmap":3246,"Admin":3247,"ToMessageDecoder":3248,"Ġhow":3249,"79":3250,"Ctrl":3251,"any":3252,"rift":3253,"ails":3254,"Ġgroup":3255,"High":3256,"Mer":3257,"timestamp":3258,"Ġreturned":3259,"Ġremove":3260,"Authoriz":3261,"Ġauto":3262,"Bulk":3263,"Ġadded":3264,"mapper":3265,"ider":3266,"pear":3267,"Ġworking":3268,"classes":3269,"itoring":3270,"());":3271,"mvc":3272,"used":3273,"Cancel":3274,"ches":3275,"ĠDEBUG":3276,"Ġstream":3277,"112":3278,"script":3279,"MgrImpl":3280,"Machine":3281,"Singleton":3282,"dbc":3283,"stanti":3284,"ĠĠĠĠĠĠĠĠĠĠĠĠĠĠĠĠĠĠĠĠĠĠĠĠĠĠĠĠĠĠĠĠĠĠĠĠĠĠĠĠĠĠĠĠĠĠĠĠĠĠĠĠĠĠĠĠĠĠĠĠĠĠĠĠ":3285,"Ġconnect":3286,"UILD":3287,"Ġrecovery":3288,"subscribe":3289,"Writer":3290,"root":3291,"Customizer":3292,"798":3293,"baz":3294,"Ġfunction":3295,"ĠCould":3296,"MetaData":3297,"Translator":3298,"XX":3299,"vert":3300,"]\"":3301,"ync":3302,"GeneratedMethodAccessor":3303,"ratis":3304,"war":3305,"657":3306,"Warning":3307,"Gradle":3308,"ping":3309,"stram":3310,"Ġwindow":3311,"Ġsomething":3312,"ird":3313,"Ġstep":3314,"Ġvia":3315,"Synchron":3316,"Ter":3317,"Ġparent":3318,"messages":3319,"tmp":3320,"imi":3321,"Ġerrors":3322,"DefaultChannel":3323,"--------[":3324,"Lifecycle":3325,"analyz":3326,"Ġcache":3327,"BUILD":3328,"application":3329,"ĠĠĠĠĠĠĠĠĠĠĠĠĠĠĠĠĠĠĠĠĠ":3330,"OpenProject":3331,"ES":3332,"Go":3333,"table":3334,"Metric":3335,"Ġali":3336,"Ġgetting":3337,"issues":3338,"Ġ17":3339,"BeanDefinition":3340,"[/":3341,"Ġnever":3342,"JavaSourceAccessor":3343,"Resources":3344,"bool":3345,"Connect":3346,"Svn":3347,"Ġavailable":3348,"soft":3349,"SvnClientFactory":3350,"Ġtopology":3351,"initi":3352,"igger":3353,"activ":3354,"At":3355,"rl":3356,"********":3357,"702":3358,"flection":3359,"DefaultChannelPipeline":3360,"->":3361,"94":3362,"plain":3363,"After":3364,"child":3365,"187":3366,"projects":3367,"82":3368,"Ġ25":3369,"akes":3370,"Ġstack":3371,"OutputStream":3372,"ĠTest":3373,"esent":3374,"SpringBoot":3375,"Ġabout":3376,"echo":3377,"populate":3378,"HttpServlet":3379,"close":3380,"####":3381,"EmbeddedServletContainer":3382,"restore":3383,"persist":3384,"Observer":3385,"=]":3386,"Ġreason":3387,"haus":3388,"Ġdid":3389,"Elastic":3390,"aged":3391,"ĠPlease":3392,"ML":3393,"nimbus":3394,"codehaus":3395,"stats":3396,"BlobStoreRepository":3397,"{{":3398,"Ġconnection":3399,"iff":3400,"HintProviderImpl":3401,"CodeHintProviderImpl":3402,"ased":3403,"ierarch":3404,"ta":3405,"Ġcalled":3406,"'ve":3407,"ĠERROR":3408,"fetch":3409,"iver":3410,"pleted":3411,"131":3412,"JavaCommonTestUtil":3413,"Values":3414,"docs":3415,"JavaCommonTestUtilProvider":3416,"Date":3417,"olv":3418,"Ġplace":3419,"Restore":3420,"711":3421,"786":3422,"utils":3423,"QueryPhase":3424,"allocation":3425,"Ġour":3426,"Deploy":3427,"Ġaggregation":3428,"Dat":3429,"[[":3430,"Ġ64":3431,"Beam":3432,"ĠConnection":3433,"LETE":3434,"Ġcurl":3435,"[]":3436,"alized":3437,"144":3438,"404":3439,"UN":3440,"rot":3441,"StateMachine":3442,"Locations":3443,"></":3444,"cus":3445,"next":3446,"Ġjar":3447,"Ġ/_":3448,"emo":3449,"compile":3450,"StreamThread":3451,"Ġstatus":3452,"Ġchanges":3453,"Ġob":3454,"acking":3455,"CON":3456,"aggs":3457,"metadata":3458,"off":3459,"ĠHowever":3460,"ÂłĠÂł":3461,"istogram":3462,"ivile":3463,"positories":3464,"FS":3465,"Ġ19":3466,"Ġcontains":3467,"SQL":3468,"Ġend":3469,"uted":3470,"EventDispatch":3471,"EventDispatchThread":3472,"Socket":3473,"ok":3474,"vious":3475,"Ġ100":3476,"boss":3477,"DELETE":3478,"Ġmultiple":3479,"Serializer":3480,"Ġappear":3481,"Helper":3482,"Ġframe":3483,"Prot":3484,"Searcher":3485,"Once":3486,"83":3487,"tree":3488,"Ġprovide":3489,"imilar":3490,"aging":3491,"Ġoffset":3492,"Rule":3493,"Ðµ":3494,"analysis":3495,"Ġclean":3496,"Reflection":3497,"8091":3498,"nodes":3499,"TO":3500,"thrift":3501,"Ġwere":3502,"Ġprivate":3503,"Dispatcher":3504,"CompilationJob":3505,"ableTask":3506,"ParserResult":3507,"callParserResult":3508,"RuntimeException":3509,"ableTaskWrapper":3510,"callParserResultTask":3511,"AN":3512,"starter":3513,"Ġsingle":3514,"bytes":3515,"ÂłÂłÂłÂłÂłÂłÂłÂłÂłÂłÂłÂłÂłÂłÂłÂł":3516,"OpenProjectList":3517,"CancelableTaskWrapper":3518,"Ġabove":3519,"123":3520,"173":3521,"ingest":3522,"Ġinput":3523,"Chang":3524,"PRO":3525,"ktop":3526,"Ġable":3527,"ank":3528,"Direct":3529,"ERT":3530,"vant":3531,"like":3532,"getValid":3533,"Bytes":3534,"Override":3535,"ffect":3536,"onNext":3537,"itle":3538,"place":3539,"Record":3540,"Transaction":3541,"Ġexecute":3542,"(),":3543,"Suggestions":3544,"alc":3545,"runHint":3546,"createErrors":3547,"WorkerImpl":3548,"computeSuggestions":3549,"fireChannelRead":3550,"runAndAdd":3551,"Ġpoint":3552,"Ġquest":3553,"park":3554,"ump":3555,"Preserv":3556,"Ġ--------[":3557,"ĠTime":3558,"Deeper":3559,"channelRead":3560,"computeWarning":3561,"DoNot":3562,"Combinations":3563,"scanDoNot":3564,"GoDeeper":3565,"populateLocations":3566,"getValidCombinations":3567,"scanDoNotGoDeeper":3568,"Ġdefined":3569,"AuthenticationService":3570,"df":3571,"TransportReplication":3572,"Ġqueries":3573,"TransportReplicationAction":3574,"Ġincorrect":3575,"illegal":3576,"Upd":3577,"zookeeper":3578,"ern":3579,"urrent":3580,"Ġwrite":3581,"ently":3582,"LECT":3583,"location":3584,"Ġ16":3585,"messageReceived":3586,"Url":3587,"reactor":3588,"jboss":3589,"Ġmode":3590,"110":3591,"Boo":3592,"RC":3593,"phase":3594,"Ġsure":3595,"617":3596,"actuator":3597,"Ġlooks":3598,"Ġpipeline":3599,"Ġdependency":3600,"lipboard":3601,"Back":3602,"-->":3603,"Ġfull":3604,"ender":3605,"URLClassLoader":3606,"Emp":3607,"Ġproperly":3608,"Preserving":3609,"long":3610,"kryo":3611,"Ġresource":3612,"Ġboot":3613,"192":3614,"ContextPreserving":3615,"ĠMod":3616,"Empty":3617,"Graph":3618,"Iterator":3619,"Netty":3620,"kely":3621,"AbstractPipeline":3622,"FileSystem":3623,"Ġenabled":3624,"Invocation":3625,"Ġmappings":3626,"SSL":3627,"Windows":3628,"jackson":3629,"Ġstore":3630,"ored":3631,"Ġlevel":3632,"Json":3633,"Mem":3634,"ĠException":3635,"Ġevery":3636,"ability":3637,"Ġref":3638,"Leader":3639,"Ġ00":3640,"deps":3641,"Ġstr":3642,"aste":3643,"Ġbreak":3644,"opType":3645,"Each":3646,"Ġroot":3647,"Ġ`@":3648,"Ġhappens":3649,"oter":3650,"Ġcast":3651,"Updater":3652,"replication":3653,"AAAAAAAAAAAAAAAA":3654,"persistence":3655,"DATE":3656,"ous":3657,"party":3658,"IndexSearcher":3659,"tx":3660,"rough":3661,"Expression":3662,"Ġnum":3663,"Ġtypes":3664,"NotFound":3665,"Ġloaded":3666,"trace":3667,"tests":3668,"Listenable":3669,"//":3670,"965":3671,"Ozone":3672,"bd":3673,"ume":3674,"71":3675,"Ġanother":3676,"params":3677,"Keeper":3678,"desktop":3679,"Ġcurrently":3680,"Ġfine":3681,"ĠStart":3682,"172":3683,"sdks":3684,"ĠNPE":3685,"Registration":3686,"LevelClient":3687,"BigQuery":3688,"IL":3689,"TM":3690,"play":3691,"interval":3692,"Score":3693,"Work":3694,"'re":3695,"ld":3696,"Ġlead":3697,"assigned":3698,"Ġtoken":3699,"Ġprocessing":3700,"pendencies":3701,"ĠĠĠĠĠĠĠĠĠĠĠĠĠĠĠĠĠĠĠĠĠĠĠĠĠĠĠĠĠĠĠ":3702,"Ġrelevant":3703,"Ġsimple":3704,"Ġlikely":3705,"ca":3706,"tdb":3707,"Token":3708,"++++":3709,"olution":3710,"packaged":3711,"ĠHTTP":3712,"third":3713,"Ġ21":3714,"Status":3715,"groupId":3716,"HighLevelClient":3717,"UL":3718,"RepositoryUpdater":3719,"Ġthrown":3720,"ba":3721,"ĠThread":3722,"Ġassert":3723,"Ġqueue":3724,"Ġtasks":3725,"Converter":3726,"EndpointHandlerMapping":3727,"artifactId":3728,"elay":3729,"formation":3730,"Ġtoo":3731,"ClientCall":3732,"thirdparty":3733,"WS":3734,"Off":3735,"sider":3736,"repositories":3737,"ĠCreate":3738,"547":3739,"]\",":3740,"Operator":3741,"cent":3742,"anaged":3743,"println":3744,"eed":3745,"counter":3746,"ana":3747,"Observable":3748,"move":3749,"Binding":3750,"Ġ<!--":3751,"ServletWrapper":3752,"Ġu":3753,"ĠÐ":3754,"/*":3755,"TI":3756,"iate":3757,"declarations":3758,"Input":3759,"Insert":3760,"Lock":3761,"Ġclose":3762,"Top":3763,"dic":3764,"........":3765,"ounds":3766,"quib":3767,"Ġprovid":3768,"quibase":3769,"info":3770,"conn":3771,"zip":3772,"Ġass":3773,"protocol":3774,"Ġhad":3775,"ught":3776,"uch":3777,"stack":3778,"press":3779,"Fix":3780,"management":3781,"curator":3782,"Ġhigh":3783,"Ġinclude":3784,"IV":3785,"ma":3786,"configuration":3787,"software":3788,"Ġapi":3789,"ationException":3790,"KeyValue":3791,"ProxyClassLoader":3792,"\\;":3793,"range":3794,"title":3795,"commit":3796,"plicas":3797,"498":3798,"ources":3799,"FrameworkMethod":3800,"Ġwrit":3801,"istrib":3802,"Bin":3803,"Kryo":3804,"Ġmessages":3805,"Reflective":3806,"DataSource":3807,"Compiler":3808,"Before":3809,"Composition":3810,"Ġremoved":3811,"ĠModule":3812,"ĠRE":3813,"Ġscheduler":3814,"Forward":3815,"KafkaController":3816,"wrap":3817,"Ġ2019":3818,"Ġremote":3819,"Ġcommand":3820,"191":3821,"Line":3822,"ĠV":3823,"Ġlo":3824,"alizing":3825,"Shutdown":3826,"Generator":3827,"ClusterState":3828,"itized":3829,"Ġwait":3830,"Inbound":3831,"ListenableFuture":3832,"Hash":3833,"Is":3834,"Word":3835,"ise":3836,"clus":3837,"prefix":3838,"recover":3839,"RestHighLevelClient":3840,"cheduled":3841,"pose":3842,"Prioritized":3843,"Dependency":3844,"Ġexisting":3845,"Ġtopic":3846,"Spout":3847,"Ġlong":3848,"StreamingContainer":3849,"Strategy":3850,"CP":3851,"Pack":3852,"Ġfac":3853,"Ġactually":3854,"EsThreadPoolExecutor":3855,"ik":3856,"copy":3857,"ither":3858,"token":3859,"1142":3860,"wkafka":3861,"uple":3862,"Ġweb":3863,"]];":3864,"ĠThere":3865,"IR":3866,"New":3867,"Ġthrough":3868,"supervisor":3869,"NodeAction":3870,"Integration":3871,"\".":3872,"Ġstorm":3873,"Ġtake":3874,"snapshots":3875,"Ġattempt":3876,"But":3877,"ierarchy":3878,"ertion":3879,"Ġworker":3880,"Number":3881,"\\\":":3882,"ĠAn":3883,"Ġoption":3884,"inesis":3885,"clusive":3886,"atic":3887,"include":3888,"Ġwell":3889,"Ġrespon":3890,"Ġ>>":3891,"Bit":3892,"exp":3893,"Ġtho":3894,"Ġdeleted":3895,"Ġmodule":3896,"Ġupgrade":3897,"Host":3898,"command":3899,"Ġ-->":3900,"That":3901,"141":3902,"fail":3903,"Callback":3904,"ordinator":3905,"Ġfactory":3906,"insert":3907,"reactiv":3908,"Ġ[[":3909,"Ġcommon":3910,"Ġintr":3911,"ween":3912,"reactivex":3913,"side":3914,"esoter":3915,"quote":3916,"Ġrepository":3917,"ĠSee":3918,"ATION":3919,"esoteric":3920,"107":3921,"andomized":3922,"uff":3923,"ings":3924,"esotericsoftware":3925,"Ign":3926,"url":3927,"Inject":3928,"---":3929,"Ġbytes":3930,"Ġcount":3931,"Ġleader":3932,"Ġ200":3933,"shaded":3934,"iginal":3935,"olt":3936,"FailedException":3937,"iler":3938,"Ġbucket":3939,"ĠSe":3940,"Topology":3941,"delete":3942,"cause":3943,"Ð¾":3944,"ical":3945,"Ġtext":3946,"00000":3947,"Metadata":3948,"Privile":3949,"ended":3950,"repackaged":3951,"ples":3952,"Ġapp":3953,"ĠUP":3954,"aa":3955,"Ġissues":3956,"Ġclasspath":3957,"dds":3958,"NotFoundException":3959,"Tomcat":3960,"Ġclasses":3961,"result":3962,"Ġclojure":3963,"Combine":3964,"TaskExecutor":3965,"Ġtimeout":3966,"sistent":3967,"CompositionUnit":3968,"Ġsend":3969,"TestMethods":3970,"CreateTestMethods":3971,"CreateTestMethodsHint":3972,"javac":3973,"ateway":3974,"aches":3975,"Produc":3976,"181":3977,"bb":3978,"ero":3979,"lier":3980,"aching":3981,"self":3982,"Ġrefused":3983,"full":3984,"ssl":3985,"Append":3986,"Ġmetadata":3987,"iter":3988,"Ġ{\\":3989,"ÂłÂłÂłĠ":3990,"rb":3991,"rel":3992,"atMap":3993,"egative":3994,"--------------------------------":3995,"ĠWeb":3996,"Ġlast":3997,"ĉĉĉ":3998,"Ġrestore":3999,"Ġthreads":4000,"Static":4001,"Change":4002,"Cre":4003,"clipboard":4004,"vT":4005,"Ġdebug":4006,"Ġisn":4007,"Ġhost":4008,"Ġpull":4009,"APP":4010,"peri":4011,"Ġreplica":4012,"Ġstartup":4013,"Ġagainst":4014,"Ġvery":4015,"]}":4016,"tw":4017,"Ġel":4018,"Ġconfigured":4019,"proxy":4020,"Ġmemory":4021,"custom":4022,"Ġdes":4023,"ĠĠĠĠĠĠĠĠĠĠĠĠĠĠĠĠĠĠĠĠ":4024,"Enc":4025,"0500":4026,"Health":4027,"lear":4028,"Statement":4029,"ĠMapped":4030,"suggest":4031,"105":4032,"Ġenvironment":4033,"OutOf":4034,"DOW":4035,"Root":4036,"Scheduler":4037,"Ġdataset":4038,"Ġignore":4039,"ReflectiveCall":4040,"jected":4041,"seri":4042,"executor":4043,"auto":4044,"Ġexecution":4045,"ĠModuleCL":4046,"found":4047,"expected":4048,"generated":4049,"Ext":4050,"Ġbased":4051,"9219":4052,"Break":4053,"debug":4054,"Ġask":4055,"357":4056,"Ġchanged":4057,"ERE":4058,"river":4059,"statements":4060,"Ġpool":4061,"PartitionStateMachine":4062,"Ġbetween":4063,"ackingM":4064,"Down":4065,"Ġ2016":4066,"ExecutionException":4067,"wait":4068,"tract":4069,"target":4070,"alid":4071,"complete":4072,"Ġauth":4073,"Ġretr":4074,"colator":4075,"Ġwant":4076,"Ġcontent":4077,"Ġalias":4078,"Memory":4079,"WE":4080,"must":4081,"mutable":4082,"Ġcases":4083,"Ġexpect":4084,"know":4085,"TransportException":4086,"ĠClo":4087,"RecoverySource":4088,"visit":4089,"Vis":4090,"oding":4091,"Ġconsumer":4092,"health":4093,"ĠBug":4094,"Please":4095,"ring":4096,"Report":4097,"Collector":4098,"ci":4099,"author":4100,"Subscriber":4101,"Ġregister":4102,"Schema":4103,"alias":4104,"lot":4105,"Ġwhy":4106,"Ġprimary":4107,"opt":4108,"Ġjdk":4109,"authz":4110,"xcontent":4111,"some":4112,"ĠOS":4113,"335547":4114,"33554728":4115,"Row":4116,"Ġpresent":4117,"ĠTomcat":4118,"0319":4119,"20190319":4120,"mitted":4121,"Av":4122,"CH":4123,"vm":4124,"oy":4125,"took":4126,"Ġknow":4127,"RequestFilter":4128,"discus":4129,"transaction":4130,"caused":4131,"ĠOn":4132,"ense":4133,"MapTaskExecutor":4134,"266":4135,"So":4136,"Configu":4137,"ĠVM":4138,"ACTIV":4139,"AD":4140,"oin":4141,"shell":4142,"BlockJUnit":4143,"abase":4144,"ĠIP":4145,"untu":4146,"Ġfil":4147,"inject":4148,"Ġdone":4149,"Nested":4150,"inner":4151,"outing":4152,"Components":4153,"ReferencePipeline":4154,"Sasl":4155,"parser":4156,"0001":4157,"Ġ`_":4158,"Ġhandle":4159,"MBeanExporter":4160,"template":4161,"ists":4162,"ATED":4163,"arness":4164,"LA":4165,"121":4166,"340":4167,"Ġreports":4168,"uter":4169,"Ġ&":4170,"uname":4171,"atcher":4172,"Ġfixed":4173,"RT":4174,"bug":4175,"ym":4176,"ably":4177,"andid":4178,"Children":4179,"Nodes":4180,"multi":4181,"Ð»":4182,"bean":4183,"Ġrequired":4184,"Ġ24":4185,"106":4186,"ĠUnix":4187,"945":4188,"bl":4189,"Inclusive":4190,"Ġprevent":4191,"prepare":4192,"Ġspecified":4193,"ĠSearch":4194,"hal":4195,"iour":4196,"should":4197,"streaming":4198,"Conditional":4199,"Ġgeneral":4200,"ĠObject":4201,"Ġindexing":4202,"Ġnotice":4203,"PerRequestFilter":4204,"entials":4205,"OncePerRequestFilter":4206,"just":4207,"Ġmark":4208,"Ġlibs":4209,"Ġinformation":4210,"Intr":4211,"omain":4212,"Ġtrace":4213,"Ġrelated":4214,"Close":4215,"Find":4216,"space":4217,"BuilderImpl":4218,"AuthorizationService":4219,"ĠSQL":4220,"Policy":4221,"Ġmetrics":4222,"emplates":4223,"Ġactive":4224,"ĠElastic":4225,"convert":4226,"ross":4227,"))))))))))))))))))":4228,"platform":4229,"Ġblob":4230,"aders":4231,"compiler":4232,"Providers":4233,"Ġ__":4234,"ÂłĠÂłĠÂłĠÂł":4235,"SELECT":4236,"iven":4237,"color":4238,"Coder":4239,"requ":4240,"posed":4241,"Directory":4242,"ObjectParser":4243,"Tab":4244,"atches":4245,"Ġlibsvn":4246,"214":4247,"icMapTaskExecutor":4248,"171":4249,"Ġrecover":4250,"ĠStream":4251,"insicMapTaskExecutor":4252,"IntrinsicMapTaskExecutor":4253,"IntrinsicMapTaskExecutorFactory":4254,"IP":4255,"async":4256,"Ġtheir":4257,"transl":4258,"\":[":4259,"Fields":4260,"Ġdocs":4261,"Aware":4262,"bal":4263,"abbit":4264,"Ġconf":4265,"Ġthough":4266,"2010":4267,"ĠWrite":4268,"Autowired":4269,"624":4270,"='":4271,"Dtests":4272,"Fir":4273,"completion":4274,"IOException":4275,"Ġgets":4276,"handleRequest":4277,"Ġext":4278,"itive":4279,"ibana":4280,"ather":4281,"Analyzer":4282,"ConnectionFactory":4283,"Ġprevious":4284,"olved":4285,"<!--":4286,"itter":4287,"206":4288,"ĠST":4289,"TestRunner":4290,"132":4291,"ĠNullPointerException":4292,"Ġreproduc":4293,"Super":4294,"Ġpackage":4295,"ockit":4296,"aming":4297,"uble":4298,"Ġ==":4299,"ĠBut":4300,"anks":4301,"ockito":4302,"!!":4303,"Codec":4304,"md":4305,"ĠEngine":4306,"Ġlogic":4307,")**:":4308,"My":4309,"ĠX":4310,"ĠIndex":4311,"Ġallocation":4312,"Generic":4313,"Google":4314,"You":4315,"aving":4316,"Ġ[\"":4317,"ĠTo":4318,"Ġlon":4319,"ĠAs":4320,"Grid":4321,"hdfs":4322,"Ġ```":4323,"Ġleast":4324,"Ġconsider":4325,"dependency":4326,"Valve":4327,"ongo":4328,"Ġbroker":4329,"108":4330,"INS":4331,"117":4332,"Authenticator":4333,"Ġthose":4334,"console":4335,"tity":4336,"Entity":4337,"BC":4338,"SON":4339,"fc":4340,"Ġmakes":4341,"Tasks":4342,"Ġpass":4343,"Ġexists":4344,"discuss":4345,"izing":4346,"network":4347,"ptim":4348,"Ġautow":4349,"witch":4350,"Primary":4351,"TransportMaster":4352,"348":4353,"Ġtried":4354,"ByteToMessageDecoder":4355,"LazyCollection":4356,"TransportMasterNodeAction":4357,"362":4358,"Ġbehaviour":4359,"Aggregation":4360,"._":4361,"FA":4362,"Ġwrap":4363,"ĠWh":4364,"Invoke":4365,"Ġexceptions":4366,"ConditionalOn":4367,"function":4368,"ultic":4369,"fecycle":4370,"uplic":4371,"8080":4372,"WebContainer":4373,"ackingModes":4374,"Ġ%":4375,"Ġexplicit":4376,"Storm":4377,"analyzed":4378,"VAL":4379,"rink":4380,"formed":4381,"Then":4382,"using":4383,"mediate":4384,"quals":4385,"Ġlogging":4386,"azon":4387,"5730":4388,"Ġpost":4389,"EST":4390,"ĠEnvironment":4391,"trackingModes":4392,"Ġbuffer":4393,"Provide":4394,"timed":4395,"toInclusive":4396,"builder":4397,"factoring":4398,"link":4399,"itHub":4400,"undertow":4401,"Scheduled":4402,"Ġannotation":4403,"149219":4404,"178":4405,"ligible":4406,"Ġscala":4407,"Ġappears":4408,"Package":4409,"INSERT":4410,"Zookeeper":4411,"big":4412,"Ġ\"[":4413,"Ġeither":4414,"Ġ500":4415,"SpringJUnit":4416,"authentic":4417,"OME":4418,"However":4419,"Ġappli":4420,"unk":4421,"plan":4422,"152":4423,"validate":4424,"Ġneeds":4425,"5730173":4426,"1492195730173":4427,"9201":4428,"env":4429,"uts":4430,"216":4431,"628":4432,"Groovy":4433,"inet":4434,"Ġoperation":4435,"ixed":4436,"ĠWindow":4437,"Ġgot":4438,"ĠJVM":4439,"Ġ300":4440,"Ġlonger":4441,"JDK":4442,"task":4443,"Ġrange":4444,"Concurrent":4445,"Expected":4446,"124":4447,"services":4448,"FlatMap":4449,"Ġinvalid":4450,")`":4451,"Bounds":4452,"Nb":4453,"SL":4454,"termin":4455,"ables":4456,"Ġsimilar":4457,"Ġcol":4458,"1522804":4459,"Ġsupported":4460,"urrently":4461,"MM":4462,"description":4463,"lin":4464,"Ġ<<":4465,"Ġtemplate":4466,"Ġservice":4467,"beat":4468,"Init":4469,"136":4470,"ectors":4471,"authc":4472,"Selector":4473,"tributes":4474,"oduced":4475,"ControllerEvent":4476,"Visitor":4477,"ĠQuery":4478,"och":4479,"Ġsyn":4480,"Ġprocessed":4481,"Linux":4482,"UP":4483,"clean":4484,"eer":4485,"Ġimport":4486,"amples":4487,"SearchTransportService":4488,"atermark":4489,"Ġcalls":4490,"Gr":4491,"Handle":4492,"ear":4493,"jdbc":4494,"last":4495,"Ġow":4496,"Ġmer":4497,"mission":4498,"manager":4499,"sec":4500,"stop":4501,"ively":4502,"Ġonto":4503,"ĠManagement":4504,"DataObject":4505,"SearchServiceTransportAction":4506,"Ġwithin":4507,"Ġfailing":4508,"Plain":4509,"::":4510,"Here":4511,"Ġz":4512,"guide":4513,"ision":4514,"Instanti":4515,"241":4516,"commons":4517,"ĠNet":4518,"Settings":4519,"ĠLog":4520,"around":4521,"ignore":4522,"Ġhel":4523,"118":4524,"ibern":4525,"161":4526,"ByKey":4527,"resolve":4528,"ibernate":4529,"sample":4530,"temp":4531,"Ġvariable":4532,"ade":4533,"Ġseri":4534,"101":4535,"GQ":4536,"WIN":4537,"yY":4538,"Throw":4539,"}},":4540,"Versioning":4541,"Ġdisabled":4542,"HA":4543,"ĠComponents":4544,"edis":4545,"150":4546,"AdminClient":4547,"ACTIVATED":4548,"WINDOW":4549,"QQ":4550,"Ġsort":4551,"ĠTCP":4552,"Ġperform":4553,"Ġcompleted":4554,"AccessController":4555,"Delete":4556,"Ġaddress":4557,"devtools":4558,"Sum":4559,"bf":4560,"sort":4561,"Ġ!":4562,"aces":4563,"Ġbroken":4564,"HOME":4565,"uid":4566,"round":4567,"umn":4568,"ĠSE":4569,"ĠSet":4570,"Ġgeo":4571,"Offset":4572,"Segment":4573,"Stage":4574,"155":4575,"Ġeligible":4576,"1149":4577,"fully":4578,"stash":4579,"condition":4580,"partition":4581,"anch":4582,"flush":4583,"Ġfailures":4584,"Temp":4585,"histogram":4586,"Ġsecurity":4587,"lowable":4588,"Ġaddition":4589,"Missing":4590,"UD":4591,"ename":4592,"ĠĠĊ":4593,"00000000":4594,"Ġcoll":4595,"Ġjson":4596,"AnnotationProvider":4597,"Ġshows":4598,"Peer":4599,"Timer":4600,"socket":4601,"Ġextends":4602,"Ġsample":4603,"extensions":4604,"Streams":4605,"Storage":4606,"processors":4607,"rupted":4608,"VersioningAnnotationProvider":4609,"Solr":4610,"caches":4611,"egin":4612,"roker":4613,"001":4614,"199":4615,"Localizer":4616,"Compile":4617,"NetworkClient":4618,"Producer":4619,">>":4620,"âĢ":4621,"Ġinner":4622,"Ġbest":4623,"ĠPR":4624,"offset":4625,"615":4626,"ĠAd":4627,"ared":4628,"staging":4629,"Retry":4630,"Ġcb":4631,"Ġeas":4632,"ĠCaused":4633,"Ġtrigger":4634,"collect":4635,"Ġhandling":4636,"Ġquestion":4637,"104":4638,"aking":4639,"ĠSh":4640,"TransportSearch":4641,"Ġ5945":4642,"direct":4643,"nb":4644,"ture":4645,"Ġsuggest":4646,"Des":4647,"FI":4648,"Hand":4649,"bers":4650,"calc":4651,"Ġtarget":4652,"Coordinator":4653,"JUnitTestClass":4654,"Using":4655,"`:":4656,"sor":4657,"which":4658,"WEB":4659,"andidate":4660,"gcp":4661,"kag":4662,"forEach":4663,"remote":4664,"Ġfetch":4665,"created":4666,"ReflectionDispatch":4667,"CompositionUnitMgrImpl":4668,"sf":4669,"ĠĠčĊ":4670,"aced":4671,"Ġpattern":4672,"Ġbacktype":4673,"jum":4674,"pull":4675,"Ġlock":4676,"Refresh":4677,"4319":4678,"Partitions":4679,"Ġem":4680,"ĠUp":4681,"Ġgroovy":4682,"scroll":4683,"ROM":4684,"Selected":4685,".*":4686,"Ġignored":4687,"AV":4688,"Descri":4689,"uq":4690,"Ġnet":4691,"Ġnext":4692,"roid":4693,"Exp":4694,"pto":4695,"ServerTransport":4696,"Hierarchy":4697,"brow":4698,"ĠRuntime":4699,")))))))))))))))))))":4700,"Ġretry":4701,"Queued":4702,"operators":4703,"pump":4704,"simple":4705,"Ġsocket":4706,"Ġclear":4707,"timeout":4708,"Ġapply":4709,"Plan":4710,"dispatchEvent":4711,"misc":4712,"eive":4713,"prot":4714,"116":4715,"LookupProviders":4716,"LazyLookupProviders":4717,"Ġframes":4718,"jmx":4719,"perform":4720,"before":4721,"ĠĠĠĠĠĠĠĠĠĠĠĠĠĠĠĠĠĠĠĠĠĠĠĠĠ":4722,")/":4723,"SO":4724,"cb":4725,"Exten":4726,"Ġupd":4727,"Ġkaf":4728,"OutOfBounds":4729,"Note":4730,"Ġra":4731,"anon":4732,"Ġsolution":4733,"getBean":4734,"udit":4735,"FromRepository":4736,"Ġ144319":4737,"kagod":4738,"Ġkafkagod":4739,"Ġdec":4740,"Ġstor":4741,"Ġrunner":4742,"req":4743,"ismatch":4744,"Ġaround":4745,"stroy":4746,"semb":4747,"346":4748,"pending":4749,"Ġstarting":4750,"Extension":4751,"ually":4752,"ĠInteger":4753,"classpath":4754,"Ġdeprec":4755,"Ġdependencies":4756,"Ġloop":4757,"regex":4758,"Declar":4759,"Ġ[?:?]":4760,"CS":4761,"system":4762,"come":4763,"private":4764,"Ġreference":4765,"Ġprocessor":4766,"Scope":4767,"password":4768,"ĠRequest":4769,"mode":4770,"binding":4771,"sume":4772,"AbstractNio":4773,"Try":4774,"Ġequal":4775,"WebServer":4776,"Subscribe":4777,"AED":4778,"ield":4779,"ceed":4780,"ApplicationListener":4781,"ĠHi":4782,"Ġhealth":4783,"initialize":4784,"balance":4785,"BE":4786,"poll":4787,"Inner":4788,"CO":4789,"Rae":4790,"ef":4791,"zIt":4792,"zbr":4793,"acs":4794,"etails":4795,"Ġrefresh":4796,"ParDo":4797,"toString":4798,"InternalEngine":4799,"Ġdirect":4800,"SelectWord":4801,"tmacs":4802,"going":4803,"jumpto":4804,"AEDzbr":4805,"zItA":4806,"SelectWordAction":4807,"AEDzbrRae":4808,"Cast":4809,"Fin":4810,"di":4811,"atest":4812,"Ġrefer":4813,"Ġman":4814,"Ġprint":4815,"Ġput":4816,"Assertion":4817,"><":4818,"bing":4819,"aml":4820,"Ġdescri":4821,"Ġ}\\":4822,"BeanRegistry":4823,"artifacts":4824,"Ġnor":4825,"preduce":4826,"ruptor":4827,"OutOfBoundsException":4828,"cf":4829,"god":4830,"xmy":4831,"6666":4832,"Ġshutdown":4833,"Authentication":4834,"234":4835,"Watcher":4836,"dt":4837,"window":4838,"Fetcher":4839,"yyyy":4840,"uffle":4841,"YE":4842,"memory":4843,"accept":4844,"adcast":4845,"Ġselect":4846,"TestContext":4847,"Commit":4848,"175":4849,"Parameter":4850,"1522805":4851,"cmuq":4852,"Ġstats":4853,"RequestHandlerRegistry":4854,"yYxmy":4855,"sfvT":4856,"cmuqQQ":4857,"yYxmyRT":4858,">)":4859,"Pers":4860,"ranch":4861,"119":4862,"endor":4863,"output":4864,"ency":4865,"CommandLine":4866,"var":4867,"COS":4868,"pipeline":4869,"lifecycle":4870,"replicas":4871,"TaskList":4872,"FileIndexer":4873,"ĠĠĠĠĠĠĠĠĠĠĠĠĠĠĠĠĠĠĠĠĠĠĠĠĠĠĠĠĠĠĠĠĠĠĠ":4874,"topic":4875,"CopyResources":4876,"Synchronizing":4877,"COSSynchronizing":4878,"TaskListIndexer":4879,"CopyResourcesIndexer":4880,"COSSynchronizingIndexer":4881,"Spec":4882,"UE":4883,"hdds":4884,"Ġlar":4885,"ĠBean":4886,"avg":4887,"Unix":4888,"QueryParser":4889,"Ġencounter":4890,"CreationException":4891,"AC":4892,"MP":4893,"inc":4894,"tial":4895,"surefire":4896,"Ġproducer":4897,"Ġdoing":4898,"UTF":4899,"register":4900,"ĠAr":4901,"DefaultSingleton":4902,"Ġobserv":4903,"Forwarding":4904,"serializer":4905,"DefaultSingletonBeanRegistry":4906,"\"]":4907,"Caching":4908,"TR":4909,"Ġ)":4910,"Stack":4911,"Ġold":4912,"Ġfew":4913,"Ġcap":4914,"ClientRequest":4915,"PrioritizedEsThreadPoolExecutor":4916,"Ġmost":4917,"Ġ23":4918,"Setting":4919,"Privileged":4920,"213":4921,"ĠRun":4922,"ĠVersion":4923,"Ġomitted":4924,"Translog":4925,"WriteFiles":4926,"Ġposition":4927,"Ġsuccess":4928,"Ġinstall":4929,"Core":4930,"pn":4931,"Ġhandler":4932,"326":4933,"Ġtimes":4934,"ĠDo":4935,"Ġspecific":4936,"ConstructorResolver":4937,"collection":4938,"rott":4939,"foundation":4940,"Ġnoticed":4941,"struts":4942,"Ġonce":4943,"logstash":4944,"HashMap":4945,"Ġcharacter":4946,"Ġterm":4947,"igin":4948,"Example":4949,"103":4950,"ContextLoader":4951,"Ġseem":4952,"ÐµÑ":4953,"Ġphase":4954,"IndexOutOfBoundsException":4955,"Ġtimestamp":4956,"AnnotationBeanPostProcessor":4957,"Ġtransaction":4958,"Binary":4959,"!/":4960,"Fork":4961,"ji":4962,"ĠClass":4963,"AbstractGoogle":4964,"contain":4965,"tribute":4966,"Non":4967,"xn":4968,"ments":4969,"obably":4970,"lover":4971,"Ġ[{":4972,"Ġmixed":4973,"195":4974,"ancer":4975,"Rx":4976,"dx":4977,"ApplicationEvent":4978,"Ġlocation":4979,"Ġchild":4980,"ĠAfter":4981,"Ġmethods":4982,"Ġversions":4983,"LoggingHandler":4984,"WebMvcEndpointHandlerMapping":4985,"Ġoccurs":4986,"Hit":4987,"yml":4988,"UTC":4989,"Ġmeans":4990,"Ġadding":4991,"Counts":4992,"Stats":4993,"Ġlistener":4994,"Active":4995,"bigquery":4996,"dv":4997,"eOn":4998,"Ġes":4999,"ĠUR":5000,"ret":5001,"assed":5002,"ilt":5003,"Executer":5004,"TestExecution":5005,"posite":5006,"ĠBY":5007,"Ġyet":5008,"ĠIPv":5009,"Persist":5010,"Tcp":5011,"gl":5012,"uilt":5013,"Ġtotal":5014,"Ġcr":5015,"Ġcaused":5016,"Ġcome":5017,"filtered":5018,"Ġuntil":5019,"ĠOUT":5020,"MasterService":5021,"Ġguid":5022,"pattern":5023,"randomized":5024,"Ð°":5025,"Ġcatch":5026,"Ġdisk":5027,"istory":5028,"ApplicationMgrImpl":5029,"loading":5030,"Timeout":5031,"Ġgenerated":5032,"dicator":5033,"ClusterStateService":5034,"randomizedtesting":5035,"DF":5036,"dhal":5037,"safe":5038,"Monitoring":5039,"DOOP":5040,"Ġapplied":5041,"dhalperi":5042,"fun":5043,"Ġke":5044,"etc":5045,"Ġdescription":5046,"Thanks":5047,"Def":5048,"Ġlimit":5049,"Also":5050,"ĠWriteCounts":5051,"TcpTransport":5052,"212":5053,"XML":5054,"case":5055,"ek":5056,"Ġdetails":5057,"Ġautowire":5058,"ont":5059,"Ġsegment":5060,"ĠSo":5061,"138":5062,"Ġreported":5063,"SqlSession":5064,"PROC":5065,"stall":5066,"Ġ\"{":5067,"SingleThread":5068,"ENT":5069,"151":5070,"EventExecutor":5071,"Ġlength":5072,"ĠAl":5073,"Ġtries":5074,"Ġprovided":5075,"Injector":5076,"Evalu":5077,"IM":5078,"Ġunit":5079,"input":5080,"Ġdynamic":5081,"Ġ'{\"":5082,"lower":5083,"ĠFROM":5084,"Synchronizer":5085,"istributed":5086,"Case":5087,"TAB":5088,"Ġsay":5089,"finish":5090,"Ġattached":5091,"mapreduce":5092,"AY":5093,"Ñĭ":5094,"Ġitself":5095,"162":5096,"668":5097,"Ġcausing":5098,"================":5099,"Ġfact":5100,"HADOOP":5101,"ea":5102,"apis":5103,"Ġmany":5104,"aws":5105,"ĠGra":5106,"Publish":5107,"oded":5108,"Ġoperations":5109,"BeanCreationException":5110,"GroupByKey":5111,"ReflectiveCallable":5112,"\").":5113,":$":5114,"dertow":5115,"listener":5116,"299":5117,"ManagerImpl":5118,"JarFile":5119,"Bucket":5120,"document":5121,"tual":5122,"ention":5123,"elines":5124,"Ġanalyzer":5125,"Ġfilters":5126,"Ġguidelines":5127,"Js":5128,"stand":5129,"268":5130,"Assemb":5131,"Ġargs":5132,"OzoneManager":5133,")]":5134,"300":5135,"Mo":5136,"Slot":5137,"gist":5138,"Running":5139,"Ġ73":5140,"COM":5141,"Ġsign":5142,"Ġhowever":5143,"WebAppFilterChain":5144,"transforms":5145,"apex":5146,"IndicesClusterStateService":5147,"ContextPreservingAbstractRunnable":5148,"230":5149,"Fs":5150,"IZ":5151,"demo":5152,"ĠCon":5153,"Ġparsing":5154,"Indicator":5155,"Ġmade":5156,"Ġupdated":5157,"show":5158,"AX":5159,"onym":5160,"Ġwire":5161,"Ġfoo":5162,"Completion":5163,"single":5164,"ibility":5165,"ĠGitHub":5166,"Ġintroduced":5167,"207":5168,"Ġreally":5169,"cluding":5170,"submit":5171,"Ġspecify":5172,"RemoteTestRunner":5173,"PRE":5174,"Ġcl":5175,"Ġbeans":5176,"Requ":5177,"Initialization":5178,"OperationAction":5179,"Ġwaiting":5180,"Domain":5181,"Mismatch":5182,"buffer":5183,"ton":5184,"ĠÂłÂłÂłÂłÂłÂłÂł":5185,"202":5186,"Ġexp":5187,"256":5188,"processSelected":5189,"watcher":5190,"Ġdefinition":5191,"Merge":5192,"ĠArray":5193,"Ops":5194,"Ġnamed":5195,"Char":5196,"Ġsepar":5197,"Ġmetric":5198,"Boolean":5199,"length":5200,"Ġrather":5201,"ĠServ":5202,"137":5203,"ChannelImpl":5204,"Flink":5205,"First":5206,"anonfun":5207,"Cred":5208,"Ġaction":5209,"Ġlib":5210,"Ġ...\\":5211,"/:?]":5212,"337":5213,"Mock":5214,"Port":5215,"hash":5216,"tt":5217,"Ġsmal":5218,"erved":5219,"146":5220,"Ġpassed":5221,"Ġusers":5222,"OF":5223,"mt":5224,"MethodName":5225,"Events":5226,"Ġoriginal":5227,"Ġdocumentation":5228,"DataflowWorker":5229,"Ġrelease":5230,"MonitoringUtil":5231,"KA":5232,"MX":5233,"RP":5234,"gers":5235,"high":5236,"stead":5237,"Ġbulk":5238,"184":5239,"phu":5240,"RestController":5241,"Ġrecord":5242,"Ġimmediate":5243,"Scoped":5244,"plugins":5245,"brand":5246,"Li":5247,"diff":5248,"vendor":5249,"ys":5250,"yote":5251,"only":5252,"anode":5253,"roadcast":5254,"IndexService":5255,"263":5256,"Grpc":5257,"hl":5258,"answ":5259,"profiles":5260,"Ġhaving":5261,"133":5262,"197":5263,"ĠUnable":5264,"Ġsubscri":5265,"dvphu":5266,"Persistence":5267,"processSelectedKey":5268,"dvphuFi":5269,"Cmd":5270,"ĠDe":5271,"cor":5272,"acle":5273,"acknow":5274,"ĠID":5275,"Enh":5276,"ObjectMapper":5277,"Ġrecords":5278,"merge":5279,"Ġoffsets":5280,"InsertBreak":5281,"acknowled":5282,"InsertBreakAction":5283,"Lib":5284,"Ġ$":5285,"Ġ34":5286,"Shards":5287,"ĠCurrently":5288,"response":5289,"FetchPhase":5290,"Ġelse":5291,"364":5292,"=>":5293,"ecker":5294,"module":5295,"ActionFilter":5296,"165":5297,"QueryParse":5298,"1522810":5299,"Ġimplementation":5300,"HealthIndicator":5301,"Ġexplicitly":5302,"Enhancer":5303,"325":5304,"Page":5305,"second":5306,"tab":5307,"Ġinside":5308,"125":5309,"Import":5310,"outgoing":5311,"scm":5312,"gress":5313,"validation":5314,"ategory":5315,"115":5316,"CATION":5317,"Rol":5318,"Ġbatch":5319,"ires":5320,"Ġusage":5321,"365":5322,"MessageToMessageDecoder":5323,"SecurityActionFilter":5324,"Assembly":5325,"Multic":5326,"yarn":5327,"Trace":5328,"doGet":5329,"349":5330,"Terms":5331,"types":5332,"orm":5333,"oring":5334,"ives":5335,"203":5336,"Replica":5337,"Ġ08":5338,"ĠMy":5339,"363":5340,"Ġvalidation":5341,"ND":5342,"icro":5343,"There":5344,"final":5345,"Ġpage":5346,"Ord":5347,"ENTER":5348,"Ġown":5349,"Null":5350,"QU":5351,"timer":5352,"Meter":5353,"Ġunexpected":5354,"startRecovery":5355,"Ġ+-":5356,"VersionCommand":5357,"Iterable":5358,"235":5359,"afix":5360,"aemon":5361,"mm":5362,"Ġnames":5363,"Ġtimer":5364,"ality":5365,"getafix":5366,"Complete":5367,"305":5368,"9092":5369,"warm":5370,"Managed":5371,"paste":5372,"poch":5373,"ĠAnd":5374,"Ġloader":5375,"pound":5376,"runChild":5377,"ĠIO":5378,"Ġprot":5379,"artbeat":5380,"colate":5381,"\\\",":5382,"dynamic":5383,"faster":5384,"Ġpar":5385,"sums":5386,"Ġwarning":5387,"Ġ[],":5388,"Ġcomplete":5389,"fasterxml":5390,"den":5391,"Into":5392,"rix":5393,"Ġcalling":5394,"but":5395,"ian":5396,"ral":5397,"Ġbind":5398,"Ġalloc":5399,"RemoteTransportException":5400,"Protection":5401,"CastException":5402,"Ġ30":5403,"Comple":5404,"ĠNot":5405,"Ġjobs":5406,"WebMvcAutoConfiguration":5407,"Ð»Ñ":5408,"/'":5409,"Sample":5410,"cd":5411,"options":5412,"Ġsup":5413,"301":5414,"Collections":5415,"buckets":5416,"CG":5417,"Clean":5418,"Sec":5419,"Ġhits":5420,"doPrivileged":5421,"Ġcopy":5422,"Upstream":5423,"Appender":5424,"Required":5425,"Multicaster":5426,"Wire":5427,"day":5428,"omatic":5429,"113":5430,"Ġallowed":5431,":**":5432,"Ġvari":5433,"Ġterms":5434,"lie":5435,"connection":5436,"Ġmuch":5437,"shutdown":5438,"shape":5439,"174":5440,"Resh":5441,"versioning":5442,"ParDoFn":5443,"Ġeffect":5444,"Ġreturning":5445,"Address":5446,"ObserveOn":5447,"Changed":5448,"ĠWindows":5449,"233":5450,"NAM":5451,"oad":5452,"Ġday":5453,"Ġprobably":5454,"doExecute":5455,"Ġreserved":5456,"Ġgiven":5457,"Arch":5458,"oblems":5459,"Results":5460,"slf":5461,"TY":5462,"itu":5463,"Spliter":5464,"ĠStarting":5465,"ClientCallListener":5466,"Download":5467,"ForwardingClientCallListener":5468,".$":5469,"Ġ,":5470,"Stop":5471,"veloper":5472,"Ġdeploy":5473,"Assign":5474,"Ġcompile":5475,"]}\"":5476,"Ġ[.":5477,"Ġ}'":5478,"Sequ":5479,"OnAssembly":5480,"NodeClient":5481,"Ġexecuted":5482,"twitter":5483,"JUnitTestClassExecutor":5484,"Ġkeep":5485,"SingleThreadEventExecutor":5486,"={":5487,"buntu":5488,"ially":5489,"ki":5490,"Ġbinding":5491,"erse":5492,"parql":5493,"locks":5494,"Ġrepl":5495,"Ġ`/":5496,"Ġ07":5497,"TransportShard":5498,"webapp":5499,"Connector":5500,"ĠOK":5501,"ĠREST":5502,"Discovery":5503,"SP":5504,"cum":5505,"ular":5506,"Ð½":5507,"typeMismatch":5508,"hether":5509,"Ġruns":5510,"MessageHub":5511,"overflow":5512,"Controlled":5513,"CompilerOptions":5514,"Completable":5515,"lat":5516,"launcher":5517,"mq":5518,"Ġenc":5519,"Ġ2017":5520,"306":5521,"OnBean":5522,"ĠOpen":5523,"Ġneeded":5524,"Ġtransform":5525,"Ġencountered":5526,"NU":5527,"TA":5528,"mo":5529,"Ġcomment":5530,"HttpInbound":5531,"ĠJDK":5532,"Ġ400":5533,"erialize":5534,"datas":5535,"LIB":5536,"++++++++":5537,"pressed":5538,"HttpInboundLink":5539,"ĠY":5540,"onnect":5541,"eta":5542,"aps":5543,"888":5544,"Ġspace":5545,"ĠassertThat":5546,"PB":5547,"eric":5548,"standard":5549,"Ġconfigure":5550,"irtual":5551,"126":5552,"PluginsService":5553,"IGH":5554,"CONF":5555,"AAAAAAAAAAAAAAAAAAAAAAAAAAAAAAAA":5556,"mc":5557,"140":5558,"ĠFail":5559,"Ġworkaround":5560,"Ġfinish":5561,"\":{\"_":5562,"Ġcreates":5563,"Weight":5564,"\":[{\"":5565,"Ġsuccessfully":5566,"Ġ\"{[/":5567,"ersey":5568,"ControlledShutdown":5569,"Reduce":5570,"Ġred":5571,"Ġleak":5572,"Ġbit":5573,"ainless":5574,"RecoveryTarget":5575,"Ġreceived":5576,"producer":5577,"Bundles":5578,"Op":5579,"discovery":5580,"consistent":5581,"Ġproblems":5582,"logs":5583,"Ġgre":5584,"Ġstarts":5585,"ĠUsing":5586,"Ġopening":5587,"Ġcolumn":5588,"Fuse":5589,"sparql":5590,"fielddata":5591,"aries":5592,"avas":5593,"pointer":5594,"134":5595,"ĠFA":5596,"271":5597,"carrot":5598,"Docs":5599,"\"));":5600,"764":5601,"Ġscore":5602,"ĠObservable":5603,"ecess":5604,"oday":5605,"address":5606,"Spot":5607,"TransformHierarchy":5608,"png":5609,"avascript":5610,"405":5611,"js":5612,"tbd":5613,"Ġgradle":5614,"ict":5615,"plement":5616,"FactoryBean":5617,"KeyOutputStream":5618,"WARNING":5619,"beforeLookup":5620,"CompilerOptionsQuery":5621,"`)":5622,"oauth":5623,"perKey":5624,"ClassDef":5625,"ÂłÂłĠÂłÂłÂłĠ":5626,"OnClass":5627,"InvokeMethod":5628,"carrotsearch":5629,"238":5630,"Ġetc":5631,"angu":5632,"shrink":5633,"ÂłĠÂłĠÂłĠÂłĠ":5634,"Ġunderstand":5635,"Bolt":5636,"Cur":5637,"ced":5638,"Ġbelie":5639,"ĠFlink":5640,"Ġresolve":5641,"OnClassCondition":5642,"Mongo":5643,"Ġnegative":5644,"Ġrow":5645,"Ġoperator":5646,"Ġside":5647,"Ġmwkafka":5648,"139":5649,"177":5650,"Partial":5651,"ĠWith":5652,"ipc":5653,"ĠHot":5654,"****************":5655,"HttpServletRequest":5656,"Throwable":5657,"Sink":5658,"[\\":5659,"tra":5660,"ĠBeam":5661,"Ġconn":5662,"Ġwhether":5663,"Ġsession":5664,"ĠĠĠĠĠĠĠĠĠĠĠĠĠĠĠĠĠĠĠĠĠĠĠĠĠĠ":5665,"AssertionError":5666,"CGLIB":5667,"Reshuffle":5668,"Dynamic":5669,"fb":5670,"rabbit":5671,"obuf":5672,"policy":5673,"Ġcert":5674,"ums":5675,"FilterManager":5676,"358":5677,"StreamTask":5678,"Ġchecks":5679,"backup":5680,"translation":5681,"519":5682,"Length":5683,"Zone":5684,"Ġassigned":5685,"odet":5686,"Ġ{}}":5687,"Ġinterface":5688,"php":5689,"ParserManager":5690,"iority":5691,"ĠLucene":5692,"Ġaccept":5693,"requests":5694,"Ġpartitions":5695,"DispatcherServlet":5696,"doGetBean":5697,"OnBeanCondition":5698,"ClassDefFound":5699,"KE":5700,"Ġrol":5701,"ĠIs":5702,"where":5703,"Ġdepend":5704,"Ġ50":5705,"WebAppFilterManager":5706,"txt":5707,"/*:$":5708,"ParDoFnFactory":5709,"ClassDefFoundError":5710,"ately":5711,"imps":5712,"box":5713,"Trident":5714,"storage":5715,"135":5716,"Ġ28":5717,"Validation":5718,"jdt":5719,"more":5720,"Ġcreation":5721,"instanti":5722,"Ġinternal":5723,"questions":5724,"Ġpick":5725,"Entry":5726,"Ġear":5727,"topology":5728,"1522808":5729,"CopyAction":5730,"................":5731,"Ġhelp":5732,"ĠHotSpot":5733,".\"":5734,"hold":5735,"Implement":5736,"ĠCan":5737,"jobs":5738,"Ġbreaks":5739,"Ġnumbers":5740,"HERE":5741,"mwkafka":5742,"remove":5743,"Ġbad":5744,"ounding":5745,"errors":5746,"ĠJMX":5747,"ĠGroovy":5748,"PipelineTranslator":5749,"KafkaConsumer":5750,"Ġresponses":5751,"')":5752,"ĠApplication":5753,"ĠList":5754,"essed":5755,"exists":5756,"ries":5757,"388":5758,"ParseException":5759,"Avail":5760,"Ġlarge":5761,"ocating":5762,"strach":5763,"struction":5764,"after":5765,"154":5766,"Deployment":5767,"Topic":5768,"RPC":5769,"instantiate":5770,"strachan":5771,"Ġgraph":5772,"Ġssl":5773,"docker":5774,"FilterChainProxy":5775,"Header":5776,"Ġseconds":5777,"Flowable":5778,"jstrachan":5779,"},\"":5780,"ĠUTC":5781,"methods":5782,"270":5783,"ĠBuild":5784,"newInstance":5785,"Configurer":5786,"jvm":5787,"Ġsuper":5788,"alm":5789,"rag":5790,"uccess":5791,"foreach":5792,"Merger":5793,"########":5794,"ĠCloud":5795,"DS":5796,"IC":5797,"tax":5798,"Ġinvo":5799,"primary":5800,"plex":5801,"Ġmanagement":5802,"156":5803,"382":5804,"Opened":5805,"Heap":5806,"Ġsteps":5807,"EmbeddedServletContainerFactory":5808,"ULT":5809,")}}":5810,"ount":5811,"Ġsec":5812,"Ġmis":5813,"***":5814,"145":5815,"196":5816,"Enable":5817,"------------":5818,"FieldMapper":5819,"MBeanServer":5820,"Ġbetter":5821,"Ġdidn":5822,"Ġimmediately":5823,"Candidate":5824,"Random":5825,"ah":5826,"writ":5827,"acy":5828,"Ġindexed":5829,"ssue":5830,"Ġkeys":5831,"deploy":5832,"353":5833,"Ġgs":5834,"ConfigEndpoint":5835,"jira":5836,"Fuseable":5837,"dentials":5838,"ground":5839,"acema":5840,"annotate":5841,"Ġoptions":5842,"153":5843,"ĠJSON":5844,"Ġreading":5845,"Ġwritten":5846,"acknowledged":5847,"acemaker":5848,"898":5849,"HTTP":5850,"kinesis":5851,"mk":5852,"mockito":5853,"explain":5854,"Ġwon":5855,"Ġspout":5856,"Invalid":5857,"TestCase":5858,"Ġpassword":5859,"times":5860,"Ġshut":5861,"Ġclosing":5862,"Suite":5863,"Networks":5864,"FsBlobStore":5865,"XT":5866,"Ġobjects":5867,"Ġmaven":5868,"alizable":5869,"245":5870,"RequestMapping":5871,"351":5872,"FieldData":5873,"Ġverify":5874,"Ġheader":5875,"Descriptor":5876,"Ġbelieve":5877,"\";":5878,"<?":5879,"Am":5880,"CK":5881,"Sort":5882,"aper":5883,"though":5884,"izable":5885,"rase":5886,"rou":5887,"Ġtemp":5888,"Excluding":5889,"createBean":5890,"662":5891,"Linked":5892,"Ġstopped":5893,"KeeperException":5894,"ĠNetBeans":5895,"ExcludingLookup":5896,"GE":5897,"Ġboolean":5898,"filer":5899,"Ġincre":5900,"ily":5901,"205":5902,"Ġfree":5903,"AbstractQueued":5904,"225":5905,"Ġpublish":5906,"googleapis":5907,"checksums":5908,"uplicate":5909,"Ġadditional":5910,"ĠAdding":5911,"TestExecutionListener":5912,"AbstractQueuedSynchronizer":5913,"334":5914,"302":5915,"CM":5916,"Long":5917,"uz":5918,"Ġfolder":5919,"ĠStor":5920,"Ġhit":5921,"AbstractClient":5922,"RED":5923,"160":5924,"OpenJDK":5925,"Ġprefix":5926,"Ġservlet":5927,"BulkAction":5928,"browse":5929,"Millis":5930,"ences":5931,"alle":5932,"Checker":5933,"194":5934,"486":5935,"axed":5936,"Ġsets":5937,"290":5938,"1148":5939,"Ġcheckpoint":5940,"Ġaccount":5941,"Ġheap":5942,"Ġdetect":5943,"blue":5944,"Ġ!=":5945,"Mode":5946,"PL":5947,"Paste":5948,"dr":5949,"Ġexpression":5950,"142":5951,"ClassNotFoundException":5952,"Parsing":5953,"spect":5954,"Analyz":5955,"NoClassDefFoundError":5956,"Ġloading":5957,"Scorer":5958,"Authorization":5959,"ikari":5960,"ruptedException":5961,"Ġdirectly":5962,"ApplicationEventMulticaster":5963,"PasteAction":5964,"403":5965,"win":5966,"Ġingest":5967,"enari":5968,"quire":5969,"tractor":5970,"ĠIllegal":5971,"ResultHandler":5972,"bad":5973,"ient":5974,"ox":5975,"Ġnimbus":5976,"leep":5977,"Apache":5978,"190":5979,"Ġepoch":5980,"Ġcorr":5981,"286":5982,"Ġunable":5983,"projectapi":5984,"Ġaggregations":5985,"ClusterService":5986,"Ġsubmit":5987,"ViewResolver":5988,"Ġinvok":5989,"Ph":5990,"RestTemplate":5991,"Ġactuator":5992,"postProcess":5993,"BeanPostProcessors":5994,"Ġintegration":5995,"Ġwho":5996,"Ref":5997,"INF":5998,"342":5999,"Ġreset":6000,"One":6001,"stackoverflow":6002,"KeyValueStore":6003,"RecoverySourceService":6004,"PeerRecoverySourceService":6005,"serializers":6006,"310":6007,"defin":6008,"ĠHIGH":6009,"ĠLinux":6010,"Ġautomatic":6011,"xd":6012,"iles":6013,"AbstractChannel":6014,"internalDo":6015,"compat":6016,"weight":6017,"doFilterInternal":6018,"Ġparsed":6019,"DoFnRunner":6020,"Ġquestions":6021,"Ġlost":6022,"Ġdeprecated":6023,"QueryParseContext":6024,"internalDoFilter":6025,"onFailure":6026,"iffer":6027,"ĠTR":6028,"Ġpolicy":6029,"ĠState":6030,"ROUP":6031,"analyze":6032,")*":6033,"Delay":6034,"Gu":6035,"Sources":6036,"ination":6037,"ores":6038,"change":6039,"Ġ192":6040,"Services":6041,"HandlerMethod":6042,"Filters":6043,"ĠMaven":6044,"Ġtesting":6045,"Ġentry":6046,"ReflectionUtils":6047,"Backed":6048,"Forked":6049,"Ġparams":6050,"reactive":6051,"ota":6052,"Configure":6053,"Reaper":6054,"See":6055,"catMap":6056,"Ġtested":6057,"product":6058,"Subject":6059,"recoverFromRepository":6060,"AFn":6061,"HP":6062,"jshell":6063,"sitive":6064,"Ġ[-":6065,"Executable":6066,"ContextImpl":6067,"Ġchecking":6068,"PropertySource":6069,"What":6070,":*":6071,"Join":6072,"Sender":6073,"here":6074,"aliases":6075,"Ġbyte":6076,"ĠBy":6077,"matrix":6078,"Ġtranslog":6079,"Ġendpoints":6080,"Ġevents":6081,"DFS":6082,"gen":6083,"sn":6084,"schedule":6085,"Ġ32":6086,"grade":6087,"ĠĠĠĠĠĠĠĠĠĠĠĠĠĠĠĠĠĠĠĠĠĠĠĠĠĠĠĠĠ":6088,"Ġexact":6089,"control":6090,"monitoring":6091,"Ġproxy":6092,"Ġlatest":6093,"AccessorImpl":6094,"QueryAction":6095,"368":6096,"HttpRequestHandler":6097,"MonoFlatMap":6098,"Ġupgrading":6099,"Ġflush":6100,"Deployed":6101,"Booter":6102,"Ġattempts":6103,"AbstractGoogleClientRequest":6104,"Mojo":6105,"=/":6106,"Ali":6107,"Min":6108,"Redis":6109,"Virtual":6110,"Zoo":6111,"ĠAdd":6112,"lyway":6113,"179":6114,"665":6115,"Ġcontrol":6116,"eek":6117,"Such":6118,"BeanDefinitionReader":6119,"ACE":6120,"Harness":6121,"])":6122,"gb":6123,"plier":6124,"uator":6125,"Ġembedded":6126,"idx":6127,"Ġsimpl":6128,"204":6129,"shake":6130,"Ġitems":6131,"logback":6132,"TransportRequestHandler":6133,"666":6134,"341":6135,"bounds":6136,"MvcEndpoint":6137,"DataflowPipelineTranslator":6138,"Dataset":6139,"Encoder":6140,"rouped":6141,"ForkedBooter":6142,"ZooKeeper":6143,"Bug":6144,"Maven":6145,"pted":6146,"tag":6147,"uuid":6148,"ĠIndexShard":6149,"lix":6150,"acity":6151,"consume":6152,"ites":6153,"Ġhang":6154,"250":6155,"258":6156,"maining":6157,"Leaf":6158,"Ġscroll":6159,"'\"":6160,"Cannot":6161,"cz":6162,"rules":6163,"Ġwildcard":6164,"AbstractHttp":6165,"istics":6166,"supported":6167,"186":6168,"DEFA":6169,"ĠGET":6170,"Ġbecome":6171,"Validator":6172,"DEFAULT":6173,":[":6174,"JC":6175,"VER":6176,"missing":6177,"entity":6178,"anel":6179,"Ġconver":6180,"Ġmov":6181,"244":6182,"167":6183,"667":6184,"ĠCON":6185,"ĠNOT":6186,"308":6187,"ResponseHandler":6188,"ServletInitializer":6189,"ĠDat":6190,"Blobs":6191,"provider":6192,"ĠForward":6193,"ProtectionDomain":6194,"Available":6195,"(_":6196,"Equals":6197,"spout":6198,"creen":6199,"uration":6200,"Ġwatermark":6201,"SearchHit":6202,"Ġitem":6203,"228":6204,"257":6205,"Ġchannel":6206,"Ġ404":6207,"Order":6208,"mapped":6209,"Processing":6210,"hasNext":6211,"ConnectException":6212,"RuleExecutor":6213,"Ignite":6214,"Ġupdates":6215,"pli":6216,"ression":6217,"Ġdeclar":6218,"ĠPUT":6219,"Ġ2014":6220,"ager":6221,"129":6222,"159":6223,"Ġsetup":6224,"Setup":6225,"XContentBuilder":6226,"Matcher":6227,"join":6228,"Jmx":6229,"Krb":6230,"Tim":6231,"Team":6232,"Words":6233,"gdx":6234,"Ġ----":6235,"Ġlet":6236,"INT":6237,"252":6238,"Ġsever":6239,"NodeTable":6240,"Ġreconnect":6241,"999":6242,"SingleObserver":6243,"Ġleads":6244,"ĠGradle":6245,"220":6246,"Folder":6247,"Javac":6248,"Success":6249,"]\",\"":6250,"yes":6251,"Ġexit":6252,"setup":6253,"229":6254,"373":6255,"ĠNimbus":6256,"262":6257,"ORM":6258,"clojure":6259,"Restart":6260,"ĠDate":6261,"BaseFuture":6262,"Without":6263,"erializer":6264,"ConstructorAccessorImpl":6265,"Ġnetwork":6266,"ffi":6267,"che":6268,"Ġswitch":6269,"Constant":6270,"Api":6271,"ĠFix":6272,"ĠOr":6273,"Annotator":6274,"connector":6275,"UnixException":6276,"jp":6277,"eled":6278,"Reactive":6279,"Records":6280,"###":6281,"Items":6282,"Ġmatching":6283,"Startup":6284,"CONFIG":6285,"((":6286,"Send":6287,"cceed":6288,"allow":6289,"problem":6290,"repo":6291,"Ġbranch":6292,"Ġma":6293,"143":6294,"Operations":6295,"670":6296,"972":6297,"Ġacross":6298,"Cloud":6299,"Priority":6300,"()).":6301,"InvocationHandler":6302,"caught":6303,"ecessary":6304,"217":6305,"Tra":6306,"fd":6307,"kia":6308,"Ġrandom":6309,"Ġtra":6310,"163":6311,"ĠFoo":6312,"Ġseen":6313,"handleResponse":6314,"ĠclientId":6315,"AnnotationConfig":6316,"Ġscenari":6317,"TIM":6318,"239":6319,"316":6320,"956":6321,"Mut":6322,"Put":6323,"beta":6324,"pool":6325,"}],":6326,"ĠClient":6327,"Ġinfo":6328,"header":6329,"157":6330,"Composite":6331,"Ġlink":6332,"350":6333,"ĠAt":6334,"Item":6335,"SqlQueryAction":6336,"CompilationUnit":6337,"ConfigurationClassPostProcessor":6338,"SpringBootServletInitializer":6339,"Ġretrie":6340,"Ġsmall":6341,"Launch":6342,"US":6343,"acker":6344,"tili":6345,"Compound":6346,"ElasticsearchException":6347,"Ġtwice":6348,"Ġcredentials":6349,"Ġproduces":6350,"424":6351,"700":6352,"tool":6353,"refactoring":6354,"Ġsent":6355,"458":6356,"beros":6357,"Ġimplements":6358,"Ġauthentic":6359,"authorize":6360,"AIT":6361,"XDELETE":6362,"gate":6363,"coyote":6364,"Ġrouting":6365,"hese":6366,"lokia":6367,"Ġavoid":6368,"lick":6369,"Ġms":6370,"Ġinterval":6371,"Ġseparate":6372,"Optim":6373,"qa":6374,"fili":6375,")));":6376,"ello":6377,"Ġrepe":6378,"Ġmon":6379,"ĠSystemOut":6380,"cloudd":6381,"1522811":6382,"Ġlooking":6383,"SimpleApplicationEventMulticaster":6384,"Snapshots":6385,"Ġgoing":6386,"Actuator":6387,"RestoreFailedException":6388,"TabAction":6389,"pumpEvents":6390,"CompletableFuture":6391,"tilities":6392,"JShell":6393,"\\\\":6394,"launch":6395,"raries":6396,"atter":6397,"exclude":6398,"ulner":6399,"logger":6400,"LED":6401,"IndexAction":6402,"188":6403,"DefaultBuild":6404,"URI":6405,"Ġfixes":6406,"Database":6407,"uzz":6408,"Jackson":6409,"ved":6410,"orb":6411,"elog":6412,"icate":6413,"struct":6414,"Ġ127":6415,"affili":6416,"Ġcombin":6417,"288":6418,"Failures":6419,"Overflow":6420,"Encoding":6421,"CompileStatic":6422,"-*":6423,"Maybe":6424,"[-":6425,"tun":6426,"Ġsupervisor":6427,"anis":6428,"raw":6429,"Ġtable":6430,"147":6431,"ĠFound":6432,"307":6433,"Ġshouldn":6434,"Ġflag":6435,"Term":6436,"SaslTransport":6437,"ĠWhile":6438,"AVA":6439,"Broadcast":6440,"Option":6441,"Utilities":6442,"gular":6443,"acing":6444,"ically":6445,"urger":6446,"TransportFuture":6447,"Ġresolved":6448,"ConfigurationClassParser":6449,"ConfigurationPropertiesBinding":6450,"Supervisor":6451,".)":6452,"Rpc":6453,"air":6454,"hibernate":6455,"~~":6456,"ivers":6457,"006":6458,"ĠSome":6459,"169":6460,"ElasticsearchIO":6461,"RecoveryAction":6462,"MessageReceived":6463,"Ġenough":6464,"xxxx":6465,"ClientCallImpl":6466,"central":6467,"Ġhighlight":6468,"PlainTransportFuture":6469,"ConfigurationPropertiesBindingPostProcessor":6470,"Max":6471,"Safe":6472,"TH":6473,"gt":6474,"idden":6475,"Ġbound":6476,"176":6477,"243":6478,"allItems":6479,"Ġless":6480,"Ġreceive":6481,"ĠStack":6482,"SqlScript":6483,"Scores":6484,"iscover":6485,"Ġgood":6486,"WSWebContainer":6487,"SumTeam":6488,"SumTeamScores":6489,"Use":6490,"ured":6491,"pecting":6492,"Ġcomponent":6493,"logic":6494,"344":6495,"ĉĊ":6496,"ĠEn":6497,"retry":6498,"Export":6499,"ibly":6500,"395":6501,"Ġensure":6502,"respon":6503,"Annotated":6504,"Ġinitialized":6505,"TempFile":6506,"TS":6507,"kibana":6508,"attributes":6509,"Ġindic":6510,"property":6511,"getProperty":6512,"240":6513,"274":6514,"Point":6515,"Ġsucceed":6516,"events":6517,"Ġplugins":6518,"Ġrequires":6519,"commands":6520,"Ġregistered":6521,"ĠStreams":6522,"Evaluator":6523,"cording":6524,"Driver":6525,"Management":6526,"PU":6527,"none":6528,"Ġcodes":6529,"ĠStop":6530,"253":6531,"182":6532,"Ġview":6533,"Agent":6534,"DateTime":6535,"ruptorQueue":6536,"cs":6537,"vorb":6538,"zen":6539,"ĠConfig":6540,"ĠTry":6541,"environment":6542,"coun":6543,"Ġconsist":6544,"ClassCastException":6545,"Ġanalysis":6546,"254":6547,"AsyncLocalizer":6548,"SpringCGLIB":6549,"Ġappend":6550,"BySpringCGLIB":6551,"ffff":6552,"Ġresulting":6553,"Ġqueued":6554,"processSelectedKeys":6555,"\"},":6556,"RB":6557,"Range":6558,"ConcatMap":6559,"RunAfter":6560,"RequestInterceptor":6561,"DEACTIVATED":6562,"Ġjoin":6563,"Ġinstanti":6564,"Blocking":6565,"Ġattemp":6566,"rupt":6567,"Ġallows":6568,"Ġeverything":6569,"warmup":6570,"Implementation":6571,"vorburger":6572,"336":6573,"MB":6574,"ds":6575,"rule":6576,"oceed":6577,"upper":6578,"HandlerAdapter":6579,"Compar":6580,"473":6581,"(\"/":6582,"Planner":6583,"usercontent":6584,"weet":6585,"Ġinitialization":6586,"sendResponse":6587,"Archive":6588,"aught":6589,"broker":6590,"Ġsasl":6591,"Ġfuture":6592,"661":6593,"DisruptorQueue":6594,"PostProcessorRegistration":6595,"ocks":6596,"findClass":6597,"Ġcommitted":6598,"ULL":6599,"datasource":6600,"affiliations":6601,"PostProcessorRegistrationDelegate":6602,"cel":6603,"dll":6604,"locate":6605,"209":6606,"running":6607,"ĠIDE":6608,"226":6609,"threads":6610,"ServletHandler":6611,"562":6612,"1522806":6613,"Mark":6614,"DBC":6615,"Ġentries":6616,"godot":6617,"312":6618,"HI":6619,"aker":6620,"Ġchar":6621,"Ġurl":6622,"Ġreview":6623,"ĠSMP":6624,"Unsafe":6625,"374":6626,"ĠBig":6627,"Names":6628,"ITH":6629,"FrameworkServlet":6630,"Liquibase":6631,"422":6632,"401":6633,"AF":6634,"Geo":6635,"Latch":6636,"Sn":6637,"VERT":6638,"ges":6639,"binder":6640,"append":6641,"Return":6642,"labeled":6643,"ending":6644,"Ġcontroller":6645,"reshold":6646,"General":6647,"ONE":6648,"wards":6649,"Relaxed":6650,"Ġfill":6651,"Ġconsidered":6652,"({":6653,"219":6654,">()":6655,"Hook":6656,"NPE":6657,"TOperator":6658,"Tuple":6659,"iCL":6660,"blocking":6661,"Ġoptim":6662,"Ġsense":6663,"plum":6664,"Ġreplace":6665,"()}}":6666,"Resizable":6667,"297":6668,"HttpClient":6669,"Ġnothing":6670,"Ġenable":6671,"Commandline":6672,"ilities":6673,"ModelMBean":6674,"EsExecutors":6675,"InsertTabAction":6676,"ScheduledThreadPoolExecutor":6677,"ControllerEventManager":6678,"Ġcorrup":6679,"clouddfe":6680,"iCLS":6681,"plumbing":6682,"ResizableArray":6683,"DIR":6684,"vance":6685,"conf":6686,"rop":6687,"Ġthings":6688,"Ġmig":6689,"redis":6690,"8081":6691,"AsyncSingle":6692,"Ġmean":6693,"iaType":6694,"desc":6695,"Ġopened":6696,"IntegrationTest":6697,"AutowiredAnnotationBeanPostProcessor":6698,"AsyncSingleAction":6699,"303":6700,"339":6701,"505":6702,"Cli":6703,"MT":6704,"enka":6705,"see":6706,"164":6707,"Ġdev":6708,"ĠCannot":6709,"ĠNode":6710,"360":6711,"671":6712,"Ġoverride":6713,"RegistrationBean":6714,"uchbase":6715,"Ġcertain":6716,"285":6717,"Distributed":6718,"atal":6719,"amazon":6720,"prove":6721,"ĠSingle":6722,"ĠSSL":6723,"doCreate":6724,"JavaBin":6725,"Ġlater":6726,"287":6727,"While":6728,"Changes":6729,"Ġwriting":6730,"VALUE":6731,"Analyze":6732,"){":6733,"VERE":6734,"oute":6735,"localizer":6736,"Ġextract":6737,"ATH":6738,"UserParDoFnFactory":6739,"Ġexecuting":6740,"Serializable":6741,"Ġbuilder":6742,"RequiredModelMBean":6743,"311":6744,"313":6745,"spark":6746,"yme":6747,"Ġip":6748,"uck":6749,"Ġdi":6750,"Ġprec":6751,"Ġlot":6752,"Ġadds":6753,"Ġoverrid":6754,"Ġiter":6755,"265":6756,"892":6757,"UC":6758,"rand":6759,"âĶ":6760,"Ġident":6761,"Ġ39":6762,"Ġlibrary":6763,"export":6764,"vol":6765,"Ġtakes":6766,"olver":6767,"Apply":6768,"Ġweek":6769,"based":6770,"URCE":6771,"Ġappro":6772,"ĠDAY":6773,"builds":6774,"CountWords":6775,"Ġcontaining":6776,"FetchSearchPhase":6777,"NetBeans":6778,"goenka":6779,"Ġstacktrace":6780,"Ġeasier":6781,"ParsingException":6782,"\"))":6783,"914":6784,">();":6785,"GENT":6786,"ILED":6787,"Jdbc":6788,"Routing":6789,"leaf":6790,"configured":6791,"uri":6792,"acted":6793,"Ġhard":6794,"ServiceImpl":6795,"webmvc":6796,"ĠLe":6797,"Ġanything":6798,"groups":6799,"327":6800,"Ġ04":6801,"Ġlow":6802,"queries":6803,"Ġtag":6804,"useki":6805,"Ġskip":6806,"Exists":6807,"license":6808,"ĠSince":6809,"224":6810,"170":6811,"Ġpic":6812,"277":6813,"Ġtransport":6814,"githubusercontent":6815,"ĠGNU":6816,"processTestClass":6817,"]]]":6818,"NoSuch":6819,"masterOperation":6820,"Headers":6821,"Ġoccurred":6822,"Termin":6823,"SOURCE":6824,"ĠServlet":6825,"cumul":6826,"ĠFailure":6827,"Switch":6828,"YW":6829,"lon":6830,"{}":6831,"otlin":6832,"Ġtell":6833,"ship":6834,"ĠTO":6835,"executeQueryPhase":6836,"Ġdocker":6837,"Struc":6838,"Ġconnector":6839,"ymeleaf":6840,":-":6841,"Head":6842,"div":6843,"wise":6844,"Ġ201":6845,"ĠLocal":6846,"ĠBeanPostProcessors":6847,"Extractor":6848,"Factor":6849,"TransportSqlQueryAction":6850,"InternalSqlScript":6851,"MapperService":6852,"Ġcompat":6853,"Sync":6854,"proxying":6855,"Ġmarked":6856,"Ġreproduces":6857,"Ġcollection":6858,"ScopedHandler":6859,"/>":6860,"315":6861,"304":6862,"Password":6863,"tv":6864,"acquire":6865,"FactoryMethod":6866,"Undertow":6867,"309":6868,"ORD":6869,"Based":6870,"Ġrelocation":6871,"solrj":6872,"\"},\"":6873,"Proto":6874,"ĠURGENT":6875,"Ġautomatically":6876,"doCreateBean":6877,"=<":6878,"Can":6879,"CUrl":6880,"javascript":6881,"mbean":6882,"section":6883,"tweet":6884,"wj":6885,"xer":6886,"Ġargument":6887,"ationDelegate":6888,"thon":6889,"Ġ\"/":6890,"Ġsources":6891,"estination":6892,"Ġfar":6893,"201326":6894,"AbstractWebMvcEndpointHandlerMapping":6895,"149":6896,"Ġproduce":6897,"Ġpot":6898,"372":6899,"ObjectConnection":6900,"WorkerHarness":6901,"ĠtrationDelegate":6902,"ConnectionLink":6903,"LocationProvider":6904,"DataflowBatch":6905,"BeanPostProcessorChecker":6906,"ShellSession":6907,"Ġhandled":6908,"SSLConnectionLink":6909,"WSCUrl":6910,"failures":6911,"iterator":6912,"PackageUtil":6913,"NbEditor":6914,"PersistenceLocationProvider":6915,"MessageHubBacked":6916,"201326888":6917,"DataflowBatchWorkerHarness":6918,"WSCUrlFilter":6919,"MessageHubBackedObjectConnection":6920,"EM":6921,"cg":6922,"lt":6923,"ization":6924,"chanis":6925,"Ġsen":6926,"Ġmaking":6927,"Analysis":6928,"OnError":6929,"Ġsometimes":6930,"PRESS":6931,"_|":6932,"gateway":6933,"Ġide":6934,"oda":6935,"ĠSp":6936,"ContextCustomizer":6937,"272":6938,"Named":6939,"ConfigProperties":6940,"Ġplatform":6941,"auses":6942,"GetChildren":6943,"Ġsnapshots":6944,"TEXT":6945,"Ġtopics":6946,"Ġassume":6947,"GetChildrenBuilderImpl":6948,")[\\":6949,"Cached":6950,"Full":6951,"Hits":6952,"Num":6953,"SV":6954,"URE":6955,"descri":6956,"details":6957,"jre":6958,"Ġstatement":6959,"Ġ\"@":6960,"Ġsitu":6961,"filestore":6962,"369":6963,"Shared":6964,"769":6965,"answer":6966,"Ġseveral":6967,"Emit":6968,"Ġest":6969,"entially":6970,"fores":6971,"replica":6972,"oti":6973,"adjust":6974,"Ġsolve":6975,"Befores":6976,"RunBefores":6977,"Ġcomput":6978,"pay":6979,"9273":6980,"Ġdef":6981,"298":6982,"BeanFactoryPostProcessor":6983,"Ġshort":6984,"Scan":6985,"SimpleChannel":6986,"Ġrequire":6987,"dispatchEventImpl":6988,"Ġallocated":6989,"Follow":6990,"Now":6991,"harness":6992,"ique":6993,"ÑĤ":6994,"chang":6995,"unmapped":6996,"))))))))))))))))))))":6997,"Ġbund":6998,"acked":6999,"ĠShard":7000,"Profile":7001,"ubuntu":7002,"Ġcompletion":7003,"posable":7004,"Ġruntime":7005,"ipelin":7006,"ServerCall":7007,"Ġgoes":7008,"ElasticSearch":7009,"planation":7010,"ipelining":7011,"318":7012,"Side":7013,"Var":7014,"begin":7015,"eaced":7016,"git":7017,"sol":7018,"uLA":7019,"ĠRecovery":7020,"pared":7021,"Ġrace":7022,"percolator":7023,"Ġinconsistent":7024,"ĠIm":7025,"Ġcomple":7026,"ureka":7027,"03519":7028,"ĠCor":7029,"Ġsem":7030,"notify":7031,"1522807":7032,"ResultSet":7033,"Ġquick":7034,"Ġconnections":7035,"34603519":7036,"JsY":7037,"GeneralAction":7038,"InternalSqlScriptUtils":7039,"927334603519":7040,"eacedb":7041,"uLAJsY":7042,"\"],":7043,"./":7044,"836":7045,"Tie":7046,"fy":7047,"sively":7048,"seed":7049,"Ġelements":7050,"Ġreplicas":7051,"Ġmanaged":7052,"Chunk":7053,"Ġprotocol":7054,"Completed":7055,"669":7056,"URLConnection":7057,"Ġfiltering":7058,"Ġnormal":7059,"Credentials":7060,"NAME":7061,"438":7062,">]":7063,"mock":7064,"ns":7065,"ĠDataflow":7066,"that":7067,"abind":7068,"ref":7069,"rejected":7070,"Ġok":7071,"Ġsim":7072,"readObject":7073,"Ġmaybe":7074,"ĠSub":7075,"247":7076,"ĠPM":7077,"closed":7078,"ĠGROUP":7079,"started":7080,"1145":7081,"download":7082,"Windowed":7083,"Ġbuckets":7084,"rottled":7085,"can":7086,"jms":7087,"metric":7088,"Ġ1000":7089,"Ġexclu":7090,"185":7091,"331":7092,"ForPartitions":7093,"9999":7094,"Ġdeleting":7095,"databind":7096,"Ġblocks":7097,"Multipart":7098,"FormatException":7099,"ABLE":7100,"Ġcrash":7101,"Randomized":7102,"hot":7103,"Ġactions":7104,"imcz":7105,"roken":7106,"INIT":7107,"ASS":7108,"Channels":7109,"IndexQueryParser":7110,"487":7111,"ServletWebServer":7112,"ĠPOST":7113,"231":7114,"FieldSerializer":7115,"JUnitCore":7116,"fromXContent":7117,"ByteChannel":7118,"=[],":7119,"Ġflink":7120,"ÂłÂłÂłÂłÂłÂłÂłÂłÂłÂłÂłÂłÂłÂłÂłÂłÂłÂłÂłÂłÂłÂłÂłÂłÂłÂłÂłÂłÂłÂłÂłÂł":7121,"FileSystemProvider":7122,"Ġmerge":7123,"Ġemit":7124,"Ġauthentication":7125,"RandomizedRunner":7126,"imczi":7127,"IndexQueryParserService":7128,"\">":7129,"ĠZ":7130,"ĠUI":7131,"ĠApache":7132,"onClose":7133,"report":7134,"ashes":7135,"pers":7136,"uples":7137,"ĠSecurity":7138,"481":7139,"Ġlogger":7140,"267":7141,"tomic":7142,"CacheAware":7143,"UserTask":7144,"Ġ\\\"_":7145,"Breaking":7146,"debugger":7147,"Ġretries":7148,"Handling":7149,"ĠUploading":7150,"Ġstored":7151,"IST":7152,"RI":7153,"Tool":7154,"freq":7155,"arer":7156,"urse":7157,"````":7158,"Reify":7159,"ActionExecuter":7160,"JavaSecurity":7161,"QueryBuilder":7162,"293":7163,"TypeAction":7164,"intercept":7165,"Ġanymore":7166,"Subscription":7167,"Allocation":7168,"geoip":7169,"LoadClass":7170,"Tabbed":7171,"ACEngine":7172,"ÂłÂłĠÂłÂłÂłĠÂłÂłÂłĠ":7173,"RBACEngine":7174,"JavaSecurityAccess":7175,"236":7176,"445":7177,"Cn":7178,"Ġinsert":7179,"Ġ[/":7180,"Immutable":7181,"login":7182,"Ġlookup":7183,"ĠNO":7184,"650":7185,"Ġtri":7186,"azure":7187,"OSE":7188,"Ġpartic":7189,"Ġdownload":7190,"Formatter":7191,"CONDS":7192,"PrioritizedRunnable":7193,"onymous":7194,"EnhancerBySpringCGLIB":7195,"Ġsimply":7196,"TieBreaking":7197,"TieBreakingPrioritizedRunnable":7198,"TDB":7199,"UM":7200,"priority":7201,"ante":7202,"Ġcontrib":7203,"urther":7204,"irc":7205,"Ġforward":7206,"Ġstage":7207,"ĠWHERE":7208,"lism":7209,"ĠCET":7210,"Ġlogged":7211,"Login":7212,"InterruptedException":7213,"WordCount":7214,"Ð°Ð":7215,"Amazon":7216,"Rename":7217,"ablish":7218,"image":7219,"Ġbase":7220,"Ġreal":7221,"ĠThat":7222,"expand":7223,"Ġfiling":7224,"Hdfs":7225,"det":7226,"done":7227,"iod":7228,"meta":7229,"iction":7230,"Ġsil":7231,"807":7232,"Ġpressed":7233,"setLookups":7234,"242":7235,"ayer":7236,"482":7237,"Ġrecre":7238,"Ġ40":7239,"LocalTransport":7240,"Resolve":7241,"MvcAutoConfiguration":7242,"Closed":7243,"authenticate":7244,"calcite":7245,"ĠDoFn":7246,"anguage":7247,"\"`":7248,"('":7249,"503":7250,"GL":7251,"Look":7252,"Peek":7253,"gss":7254,"Ġassignment":7255,"ĠProperty":7256,"Ġalthough":7257,"Ġtemplates":7258,"Precon":7259,"Starter":7260,"222":7261,"248":7262,"ExecutorService":7263,"Until":7264,"Ġdisplay":7265,"positions":7266,"Loading":7267,"BeforeInitialization":7268,"Extensions":7269,"Handshake":7270,"rabbitmq":7271,"637":7272,"Icon":7273,"Man":7274,"history":7275,"ny":7276,"Ġnone":7277,"fortun":7278,"acro":7279,"ditions":7280,"verify":7281,"Ġ::":7282,"ASL":7283,"anagers":7284,"ĠOver":7285,"979":7286,"ĠtryStage":7287,"CreateTestClass":7288,"TreePath":7289,"ĠÐ²":7290,"protobuf":7291,"Ġcapacity":7292,"ContextLoaderDelegate":7293,"ĠStorm":7294,"ĠtryStagePackage":7295,"CreateTestClassHint":7296,"'ll":7297,"314":7298,"Daemon":7299,"Foo":7300,"hter":7301,"kins":7302,"xe":7303,"rew":7304,"Actions":7305,"158":7306,"BeanBinder":7307,"Ġdestroy":7308,"Ġjimczi":7309,"ategor":7310,"Actual":7311,"eroute":7312,"Ġdebugging":7313,"Ġextra":7314,"![":7315,"'.":7316,"232":7317,"Last":7318,"MQ":7319,"MET":7320,"Rounding":7321,"krb":7322,"sleep":7323,"Ġfal":7324,"iness":7325,"inbound":7326,"couchbase":7327,"abel":7328,"ising":7329,"Ġtim":7330,"estig":7331,"Ġml":7332,"Ġmo":7333,"Ġpatch":7334,"ogn":7335,"Env":7336,"ĠNetty":7337,"ToTable":7338,"interceptor":7339,"masterfs":7340,"ALIZ":7341,"JarClassLoader":7342,"Readers":7343,"afeed":7344,"GradleProject":7345,"PROPER":7346,"NumberFormatException":7347,"TransportSearchTypeAction":7348,"AbstractNioByteChannel":7349,"contains":7350,"KEY":7351,"allelism":7352,")],":7353,"Bar":7354,"KS":7355,"ised":7356,"jersey":7357,"negative":7358,"ope":7359,"sam":7360,"schema":7361,"Ġparser":7362,"Ġtermin":7363,"enkins":7364,"intel":7365,"Ġword":7366,"005":7367,"isting":7368,"359":7369,"phrase":7370,"inals":7371,"HttpRequest":7372,"RestResponse":7373,"Outcome":7374,"Elements":7375,"TERVAL":7376,"Ġzero":7377,"Declared":7378,"Ġscenario":7379,"332":7380,"Gateway":7381,"OAuth":7382,"VO":7383,"aop":7384,"micro":7385,"ĠConnect":7386,"arante":7387,"meter":7388,"ature":7389,"iggers":7390,"Ġret":7391,"Conversion":7392,"Ġ=>":7393,"alling":7394,"TransportGet":7395,"def":7396,"183":7397,"JavaBeanBinder":7398,"397":7399,"FileChannelImpl":7400,"Ġworked":7401,"InternalFactory":7402,"ifying":7403,"Allow":7404,"ConfigurationClassBeanDefinitionReader":7405,"Ġintroduc":7406,"RecoverySourceHandler":7407,"highlight":7408,"Ssl":7409,"audit":7410,"jpa":7411,"erServlet":7412,"observer":7413,"construction":7414,"ediaType":7415,"book":7416,"Ġ[_":7417,"runReflectiveCall":7418,"ubsub":7419,"251":7420,"monitor":7421,"646":7422,"DataBinder":7423,"ĠDis":7424,"AppData":7425,"Ġsplit":7426,"ĠTimeUnit":7427,"tokenizer":7428,"Ignore":7429,"require":7430,"ĠShut":7431,"Finish":7432,"Ġprintln":7433,"=>\"":7434,"330":7435,"Brand":7436,"Lambda":7437,"Save":7438,"segment":7439,"ecause":7440,"exclu":7441,"extract":7442,"Ġ\"\\":7443,"iring":7444,"Ġhon":7445,"249":7446,"ĠFusing":7447,"doWork":7448,"double":7449,"PerElement":7450,"NextAction":7451,"ĠEs":7452,"Ġdatabase":7453,"BigQueryToTable":7454,"ILURE":7455,"FindNextAction":7456,"translate":7457,"Ġ<<<":7458,"COMPL":7459,"Ð»ÑĮ":7460,"Ġfinished":7461,"iversal":7462,"BIG":7463,"NT":7464,"tags":7465,"std":7466,"orary":7467,"Ġtre":7468,"getSingleton":7469,"246":7470,"Ġstand":7471,"471":7472,"WebApplication":7473,"ListenerImpl":7474,"Ġ./":7475,"ĠLong":7476,"Ġimage":7477,"Supplier":7478,"ĉĉĉĉĉ":7479,"Bootstrapper":7480,"Ġsending":7481,"Ġdeserialize":7482,"UsingFactoryMethod":7483,"instantiateUsingFactoryMethod":7484,"ĠBigQuery":7485,"Preconditions":7486,"\"_":7487,"415":7488,"Kinesis":7489,"gre":7490,"Ġprogram":7491,"att":7492,"issue":7493,"Ġ[~":7494,"Ġmove":7495,"Ġexclude":7496,"227":7497,"Ġgr":7498,"Ġuseful":7499,"processMessageReceived":7500,"Permission":7501,"SpringApplicationBuilder":7502,"translog":7503,"UpdateTask":7504,"Ġincludes":7505,"ĠRemote":7506,"Closure":7507,"Ġguess":7508,"Reflector":7509,"Ġstrategy":7510,"Ġcharacters":7511,"ÐµÑģ":7512,"Ġcomes":7513,"---------------":7514,"ĠCONVERT":7515,"jpda":7516,"366":7517,"423":7518,"Ubuntu":7519,"follow":7520,"abilities":7521,"replace":7522,"configure":7523,"person":7524,"tries":7525,"profiler":7526,"Ġreli":7527,"istinc":7528,"355":7529,"356":7530,"Ġcor":7531,"Ġtriggers":7532,"Ġvar":7533,"Ġvis":7534,"termine":7535,"XContentParser":7536,"Ġregression":7537,"LifecycleBase":7538,"Transactional":7539,"Ġprevents":7540,"ĠequalTo":7541,"512":7542,"delay":7543,"flix":7544,"qe":7545,"Ġ(\"":7546,"atten":7547,"percolate":7548,"ooled":7549,"Remove":7550,"executeRecovery":7551,"ĠMBean":7552,"Ġfollows":7553,"URATION":7554,"startStop":7555,"OperationHandler":7556,"AnnotationMBeanExporter":7557,"TomcatEmbeddedServletContainer":7558,"RowSet":7559,"Spliterator":7560,"Sequence":7561,"RecoveryTargetService":7562,"written":7563,"CONFIGURATION":7564,"CacheAwareContextLoaderDelegate":7565,".[":7566,"@@":7567,"ĠCluster":7568,"exmark":7569,"Ġtook":7570,"Ġ{'":7571,"ContextIndexSearcher":7572,"ificant":7573,"dependencies":7574,"189":7575,"does":7576,"Ġrespect":7577,"LocalFsBlobStore":7578,"Ġready":7579,"ĠKibana":7580,"operator":7581,"Issues":7582,"optim":7583,"badlogic":7584,"020":7585,"<>();":7586,"JEditorPane":7587,"JSON":7588,"Layout":7589,"painless":7590,"Ġ([":7591,"mental":7592,"abre":7593,"ĠSabre":7594,"RunListener":7595,"TestRule":7596,"223":7597,"276":7598,"ĠCode":7599,"ĠNote":7600,"476":7601,"261":7602,"ĠHash":7603,"389":7604,"disable":7605,"Ġmechanis":7606,"Ġunless":7607,"Ġabstract":7608,"WriteUn":7609,"StreamingDataflowWorker":7610,"containers":7611,"cheme":7612,"ategories":7613,"425":7614,"Freq":7615,"MAX":7616,"gte":7617,"ocli":7618,"netflix":7619,"Ġsn":7620,"bok":7621,"mongod":7622,"644":7623,"345":7624,"KeyStore":7625,"ĠReg":7626,"PropertyResolver":7627,"delegate":7628,"Ġreferences":7629,"Ġmanually":7630,"Ġpicocli":7631,"';":7632,"'d":7633,"414":7634,"511":7635,"apr":7636,"Ġmodules":7637,"ĠEvent":7638,"fish":7639,"arwin":7640,"incre":7641,"typed":7642,"restart":7643,"unes":7644,"Ġdelay":7645,"Ġbig":7646,"getObject":7647,"RequestDispatcher":7648,"velop":7649,"Filtered":7650,"LookupImpl":7651,"ObjectFile":7652,"ĠNumber":7653,"ectories":7654,"DelegatingLookupImpl":7655,"myindex":7656,"reset":7657,"DocumentMapper":7658,"Ġcompil":7659,"Transformation":7660,"ReplicationOperation":7661,"Ġkind":7662,"AggregatorFactory":7663,"imilarity":7664,"LAIN":7665,"Ġdescribed":7666,"ĠAlso":7667,"639":7668,"Zip":7669,"effect":7670,"pure":7671,"leader":7672,"Ġconfigu":7673,"Ġconverter":7674,"generate":7675,"ifest":7676,"iration":7677,"Ġregular":7678,"Ġcached":7679,"Ġ`\"":7680,"AbstractCoordinator":7681,"370":7682,"260":7683,"ĠHttp":7684,"ResponseChannel":7685,"Operators":7686,"Ġoutside":7687,"Ġshown":7688,"Ġclients":7689,"DirectResponseChannel":7690,"cleaner":7691,"mongodb":7692,",\\":7693,"443":7694,"Panel":7695,"yaml":7696,"Ġed":7697,"ĠUser":7698,"javahl":7699,"aggreg":7700,"Ġmime":7701,"FactoryImpl":7702,"ĠTDB":7703,"Ġcounter":7704,"ĠMon":7705,"ĠMapping":7706,"ForEach":7707,"formatter":7708,"Scroll":7709,"Timestamp":7710,"checkpoint":7711,"Ġdiscus":7712,"Ġseeing":7713,"Ġsubsequ":7714,"IfEmpty":7715,"Prefix":7716,"Ġinitial":7717,"orization":7718,"TIES":7719,"EntityManager":7720,"ConditionalOnClass":7721,"Ġearlier":7722,"PROPERTIES":7723,"237":7724,"Current":7725,"Via":7726,"eClass":7727,"jue":7728,"make":7729,"Ġturn":7730,"install":7731,"asc":7732,"asm":7733,"Ġthus":7734,"amd":7735,"riot":7736,"AccessControl":7737,"459":7738,"653":7739,"Parsers":7740,"Ġliquibase":7741,"ĠJetty":7742,"ĠGet":7743,"]]];":7744,"ALL":7745,"eatures":7746,"chedulers":7747,"Ġregard":7748,"Ġbreaking":7749,"calcs":7750,"Finalize":7751,"Ġprotected":7752,"ConstantScore":7753,"Ġparticular":7754,"fortunately":7755,")}":7756,"834":7757,"SR":7758,"Skip":7759,"hb":7760,"ĠResponse":7761,"proceed":7762,"atory":7763,"forward":7764,"forums":7765,"egoti":7766,"annotated":7767,"agg":7768,"Ġform":7769,"SearchNbEditor":7770,"doInter":7771,"347":7772,"Ġglobal":7773,"}}}":7774,"ĠPipeline":7775,"moving":7776,"ĠEITH":7777,"clear":7778,"dirs":7779,"EmptyBorder":7780,"Instantiation":7781,"ĠSetting":7782,"Ġsubscription":7783,"Ġdepends":7784,"defineClass":7785,"amazonaws":7786,"ĠEsThreadPoolExecutor":7787,"SearchNbEditorKit":7788,"ĠEITHER":7789,".,":7790,"507":7791,"Details":7792,"OO":7793,"Opt":7794,"ĠPr":7795,"ensus":7796,"step":7797,"examples":7798,"Ġtuples":7799,"Ġwor":7800,"Ġaffect":7801,"lying":7802,"SearchRequest":7803,"shield":7804,"Ġstandard":7805,"Ġlazy":7806,"}}.":7807,"499":7808,"dispose":7809,"784":7810,"Pret":7811,"748364":7812,"Ġlibapr":7813,"Ġbecomes":7814,".\",":7815,"Bus":7816,"Ġconsistent":7817,"Remaining":7818,"Ġmatches":7819,"team":7820,"TransportSingle":7821,"QueryPlan":7822,"ĠMulti":7823,"483":7824,"281":7825,"disruptor":7826,"333":7827,"KafkaSpout":7828,"myg":7829,"Ġperiod":7830,"CreateBuilderImpl":7831,"ConsumerNetworkClient":7832,"Ġguarante":7833,"Backend":7834,"Privilege":7835,"Configur":7836,"SolrClient":7837,"Ġcrashes":7838,"ĠFAILED":7839,"AnnotatedConnectException":7840,"sammyg":7841,"Det":7842,"VQ":7843,"cr":7844,"mcat":7845,"ĠCheck":7846,"Ġpending":7847,"obar":7848,"assfish":7849,"urg":7850,"Ġschema":7851,"Ġtomcat":7852,"Ġduplicate":7853,"aky":7854,"Ġhold":7855,"SearchResponse":7856,"illa":7857,"RestClient":7858,"processed":7859,"InternalClusterService":7860,"Ġfunctionality":7861,"Ġconflic":7862,"Ġsays":7863,"ĠIOException":7864,"Ġreplaced":7865,"Ġcharset":7866,"istinct":7867,"Pretty":7868,"411":7869,"Diff":7870,"equals":7871,"pact":7872,"Ġinteger":7873,"mention":7874,"elcome":7875,"Ġconsole":7876,"Ġthing":7877,"Refactoring":7878,"Accept":7879,"Ġexplain":7880,"INVO":7881,"TransportHandler":7882,"275":7883,"IndexResolver":7884,"ĠCPU":7885,"361":7886,"Provided":7887,"Percolator":7888,"NioEndpoint":7889,"Ġ8241":7890,"ierarchical":7891,"ContextPreservingRunnable":7892,"istribution":7893,"performRequest":7894,"ReadersPool":7895,"'}":7896,"/?":7897,"465":7898,"638":7899,"HH":7900,"NOT":7901,"batch":7902,"fx":7903,"mvn":7904,"uit":7905,"ĠContent":7906,"tri":7907,"structure":7908,"runChildren":7909,"ContextClassLoader":7910,"Apis":7911,"createAnd":7912,"Types":7913,"KafkaApis":7914,"Ġinstances":7915,"Ġintended":7916,"Ġquite":7917,"Ġdefine":7918,"Ġincorrectly":7919,"Ġestablish":7920,"Ġbundle":7921,"Cor":7922,"Oz":7923,"Some":7924,"ctrl":7925,"gaming":7926,"samples":7927,"¿Ð¾":7928,"Ġclause":7929,"ĠDefault":7930,"ury":7931,"Ġdiscovery":7932,"Ġbuilt":7933,"Ġrebalance":7934,"Ġ'/":7935,"IndexMetaData":7936,"await":7937,"ServletContext":7938,"ĠPl":7939,"Ġunknown":7940,"Aggregations":7941,"Timed":7942,"15228100":7943,"SECONDS":7944,"LoggingSystem":7945,"Attribute":7946,"TransactionManager":7947,"relocating":7948,"Ġ&&":7949,"submitTopology":7950,"Factories":7951,"435":7952,"526":7953,"Pacemaker":7954,"hub":7955,"man":7956,"templates":7957,"Ġval":7958,"ecom":7959,"abling":7960,"Ġconditions":7961,"Ġthrew":7962,"Ġbegin":7963,"reduce":7964,"Objects":7965,"ĠAll":7966,"289":7967,"Ġene":7968,"Ġ60":7969,"460":7970,"dispatchRequest":7971,"SnapshotShards":7972,"Ġwindows":7973,"BigQueryServices":7974,"ĠSTORM":7975,"TestContextBootstrapper":7976,"mcV":7977,"country":7978,"SwitchIfEmpty":7979,"INITI":7980,"SnapshotShardsService":7981,"BigQueryServicesImpl":7982,"(?":7983,"320":7984,"392":7985,"Pol":7986,"WAIT":7987,"gor":7988,"ole":7989,"}`":7990,"ĠResource":7991,"Ġconvert":7992,"Ġslow":7993,"Ġbl":7994,"Realm":7995,"users":7996,"curr":7997,"ClassGenerator":7998,"Ġ29":7999,"649":8000,"Author":8001,"matches":8002,"Ġchecked":8003,"checked":8004,"Ġblocking":8005,"ByteBuffer":8006,"Ġignores":8007,"Ġvalidate":8008,"ordinates":8009,"ĠĠĠĠĠĠĠĠĠĠĠĠĠĠĠĠĠĠĠĠĠĠĠĠĠĠĠĠĠĠĠĠĠĠĠĠĠĠĠĠĠĠĠĠĠĠĠĠĠĠĠĠĠĠĠĠĠĠĠĠĠĠĠĠĠĠĠĠĠĠĠĠĠĠĠĠĠĠĠĠĠĠĠĠĠĠĠĠĠĠĠĠĠĠĠĠ":8010,"ĠElasticSearch":8011,"Ġpreviously":8012,"Ġdeclared":8013,"sectionPrivilege":8014,"doIntersectionPrivilege":8015,"gorith":8016,"(...":8017,",__":8018,"210":8019,"319":8020,"Histogram":8021,"]][":8022,"lder":8023,"mber":8024,"pag":8025,"ids":8026,"onError":8027,"pet":8028,"anning":8029,")))))))))))))))))))))":8030,"Ġolder":8031,"aken":8032,"Ġpoll":8033,"Arrays":8034,"Ġrelative":8035,"retention":8036,"PageFilter":8037,"Ġsilently":8038,"533":8039,"OD":8040,"wik":8041,"eness":8042,"ides":8043,"aver":8044,"ets":8045,"archive":8046,"Ġwar":8047,"ThreadScheduler":8048,"Indexing":8049,"OnSubscribe":8050,"CLOSE":8051,"Spi":8052,"atisfi":8053,"Ġminutes":8054,"MissingException":8055,"Ġdays":8056,"606":8057,"749":8058,"804":8059,"Ser":8060,"]],":8061,"free":8062,"rate":8063,"ĠâĢ":8064,"itely":8065,"etic":8066,"booter":8067,"Ġ104":8068,"Ġreplay":8069,"Ġmatter":8070,"Destroy":8071,"Ġcontin":8072,"MessageConverter":8073,"SubPhase":8074,"shadow":8075,"Ġunderlying":8076,"Ġscripts":8077,"DeployInfo":8078,"Declarative":8079,"ĠIndexShardRestoreFailedException":8080,"Ġattempting":8081,"Ġsituation":8082,"Jms":8083,"LR":8084,"LISHED":8085,"PR":8086,")),":8087,"pret":8088,"edBundles":8089,"Ġmanager":8090,"2013":8091,"Ġdead":8092,"456":8093,"ĠMongo":8094,"Ġyear":8095,"shardedBundles":8096,"AsyncFuture":8097,"scal":8098,"ĠĠĠĠĠĠĠĠĠĠĠĠĠĠĠĠĠĠĠĠĠĠĠĠĠĠĠĠĠĠĠĠĠĠĠĠĠĠĠ":8099,"KafkaFuture":8100,"myBefore":8101,"AutoConfigure":8102,",\"_":8103,"ĠLib":8104,"Ġexecutor":8105,"Ġpercolator":8106,"ÂłÂłÂłÂłÂłÂłÂłÂłÂłÂłÂł":8107,"Original":8108,"Ġdisable":8109,"ByteArray":8110,"WebAppRequestDispatcher":8111,"ABLISHED":8112,"Datanode":8113,"Ġcleanup":8114,"Ġfully":8115,"ContextPreservingActionListener":8116,"LeaderLatch":8117,"NewThreadScheduler":8118,"Ġrespons":8119,"WebContainerImpl":8120,"ESTABLISHED":8121,"RxNewThreadScheduler":8122,"ÑĭÐµ":8123,"ObserveOnSingleObserver":8124,"Ð½ÑĭÐµ":8125,"Ð°Ð¿Ð¾":8126,"ĠÐ²ÐµÑģ":8127,"Brands":8128,"BigQueryToTableIT":8129,"Ð»ÑĮÐ½ÑĭÐµ":8130,"Ġmechanism":8131,"WriteUnshardedBundles":8132,"myBeforeLookup":8133,"Ð°Ð¿Ð¾Ð»ÑĮÐ½ÑĭÐµ":8134,"ĠÐ²ÐµÑģÑĭ":8135,"908":8136,"CATE":8137,"Idle":8138,"Kill":8139,"sal":8140,"Ġannotated":8141,"ocable":8142,"Ġindexes":8143,"Ġbasic":8144,"040":8145,"Trigger":8146,"AST":8147,"TransportChannel":8148,"company":8149,"Ġgateway":8150,"Ġupload":8151,"Platform":8152,"MessageChannelHandler":8153,"ialog":8154,"Ġtransition":8155,"Ġworkers":8156,"!!!!":8157,"Deserializer":8158,"Ġobservable":8159,"AbstractHttpServerTransport":8160,"ALIZING":8161,"hn":8162,"scheduler":8163,"tain":8164,"tely":8165,"Ġ2015":8166,"Ġends":8167,"Ġecho":8168,"observ":8169,"Ġreduce":8170,"rev":8171,"icket":8172,"float":8173,"Ġdriver":8174,"openjdk":8175,"Param":8176,"Ġdouble":8177,"323":8178,"ErrorMvcAutoConfiguration":8179,"ĠINTERVAL":8180,"ĠJDBC":8181,"StandardContext":8182,"Ġentire":8183,"Ġinvestig":8184,"Invocable":8185,"UNCATE":8186,"Ġperformance":8187,"Ġupdating":8188,"8983":8189,"InvocableHandlerMethod":8190,"744":8191,"Us":8192,"fold":8193,"las":8194,"xid":8195,"limit":8196,"oders":8197,"ocus":8198,"reaker":8199,"trident":8200,"Ġ\"*":8201,"heap":8202,"Ġbrow":8203,"ĠĠĠĠĠĠĠĠĠĠĠĠĠĠĠĠĠĠĠĠĠĠ":8204,"Trust":8205,"Unable":8206,"sourceType":8207,"Only":8208,"ĠPath":8209,"Ġunassigned":8210,"Username":8211,"grid":8212,"PropertySources":8213,"Ġtransl":8214,"econds":8215,"ValuesSource":8216,"LeaderForPartitions":8217,"Ġspecifying":8218,"DocsQuery":8219,"1000":8220,"1128":8221,"600":8222,"Sign":8223,"jgss":8224,"ĠAbstract":8225,"Ġrx":8226,"updated":8227,"Explo":8228,"Reporter":8229,"Ġcaught":8230,"invokeExplo":8231,"645":8232,"rollover":8233,"QueryFolder":8234,"Ġgive":8235,"Possible":8236,"flows":8237,"Ġhash":8238,"EndpointMvc":8239,"761":8240,"pologies":8241,"Ġaccumul":8242,"configproblem":8243,"ProcessFunction":8244,"Ġgenerate":8245,"Ġgenerates":8246,"IGN":8247,"Ġinvolved":8248,"Ġjars":8249,"Callbacks":8250,"FIX":8251,"CompilerOptionsQueryImpl":8252,"travel":8253,"RunAfters":8254,"TimedRunnable":8255,"invokeExplosively":8256,"\"),":8257,")\",":8258,"/[":8259,"429":8260,"SC":8261,"gon":8262,"decode":8263,"lara":8264,"quist":8265,"turnquist":8266,"percent":8267,"readClass":8268,"Ġremain":8269,"Ġcalc":8270,"Image":8271,"TestUtils":8272,"Ġstuck":8273,"Ġchain":8274,"filters":8275,"minimum":8276,"ĠHe":8277,"HttpChannel":8278,"ffected":8279,"ĠUndertow":8280,"Ġspecial":8281,"Ġheaders":8282,"ridge":8283,"Ġinitialize":8284,"Ġconfusing":8285,"Ġpasses":8286,"Curator":8287,"ragment":8288,"TIME":8289,"Cnxn":8290,"BIGINT":8291,"EndpointMvcAdapter":8292,"%{":8293,"413":8294,"886":8295,"OG":8296,"global":8297,"Ġsco":8298,"Ġsequence":8299,")).":8300,"elta":8301,"reindex":8302,"ĠĠĠĠčĊ":8303,"kerberos":8304,"unknown":8305,"trigger":8306,"Instead":8307,"2096":8308,"Ġfeed":8309,"Ġrejected":8310,"Ġones":8311,"getResult":8312,"Ġnote":8313,"198":8314,"BeanName":8315,"Ġ26":8316,"FilterParser":8317,"ĠFlowable":8318,"00007":8319,"compaction":8320,"ĠBind":8321,"Ġgaming":8322,"DefaultMBeanServer":8323,"384":8324,"ĠDoc":8325,"RecoveryFailedException":8326,"Ġreceiv":8327,"ĠaddStep":8328,"PropertiesConfiguration":8329,"ĠInvalid":8330,"Ġagg":8331,"Ġpermis":8332,"IndicesService":8333,"XXX":8334,"Button":8335,"Solara":8336,"streamingtv":8337,"Ġwrapped":8338,"FetcherThread":8339,"SetupAction":8340,"ulnerability":8341,"Comparator":8342,"effective":8343,"DefaultMBeanServerInterceptor":8344,"530":8345,"545":8346,"Fast":8347,"Jpa":8348,"Sty":8349,"aW":8350,"jax":8351,"jury":8352,"random":8353,"Rebinder":8354,"Ġ02":8355,"Ġpur":8356,"Ġpast":8357,"{\"_":8358,"toXContent":8359,"Ġrequested":8360,"handleException":8361,"Ġeventually":8362,"Injection":8363,"uplicates":8364,"StormTimer":8365,"SumInteger":8366,"payload":8367,"Ġmoment":8368,"traveljury":8369,"434":8370,"510":8371,"703":8372,"EL":8373,"gturnquist":8374,"nodet":8375,"Ġop":8376,"Ġattribute":8377,"Ġnotes":8378,"rief":8379,"ApplicationImpl":8380,"ShardReadersPool":8381,"376":8382,"ContainerRunnable":8383,"scLinked":8384,"Wrapped":8385,"975":8386,"ArrayQueue":8387,"Ġdifference":8388,"Ġhappening":8389,"BatchDataflowWorker":8390,"ServletContainerInitializer":8391,"Ġformats":8392,"IRI":8393,"Ġoptional":8394,"AggregationBuilder":8395,"PeerRecoveryTargetService":8396,"forEachRemaining":8397,"Ġsegments":8398,"Ġtemporary":8399,"DeployedApplicationImpl":8400,"LaunchContainerRunnable":8401,"Ġ3972":8402,"Structure":8403,"Ġcompletely":8404,"ĠShutting":8405,"urgatory":8406,"KafkaFutureImpl":8407,"scLinkedArrayQueue":8408,"611":8409,"Db":8410,"ai":8411,"vg":8412,"Ġelastic":8413,"Ġstreams":8414,"liver":8415,"force":8416,"reed":8417,"Reformatter":8418,"workspace":8419,"1234":8420,"496":8421,"Ġorigin":8422,"655":8423,"ĠPre":8424,"ServerProperties":8425,"NoDocsQuery":8426,"Ġprojects":8427,"Ġinstanceof":8428,"MetricsFilter":8429,"LICATION":8430,"APPLICATION":8431,"Ġraise":8432,"DeclaredMethods":8433,"408":8434,"515":8435,"635":8436,"PCollection":8437,"WC":8438,"ves":8439,"Ġbinary":8440,"Ġartifact":8441,"Ġ(!":8442,"onSuccess":8443,"lij":8444,"pred":8445,"Ġtoday":8446,"Ġaway":8447,"Ġitunes":8448,"660":8449,"Args":8450,"ConfigFile":8451,"ĠStat":8452,"Ġfiltered":8453,"Ġpaths":8454,"Ġupgraded":8455,"restoreFromRepository":8456,"----------------------------------------------------------------":8457,"AAAAAAAAAAAAAAAAAAAAAAAAAAAAAAAAAAAAAAAAAAAAAAAAAAAAAAAAAAAAAAAA":8458,"AuthorizationUtils":8459,"ĠTRACE":8460,"Guard":8461,"JCQueue":8462,"uzzy":8463,"gorithm":8464,"atisfied":8465,"462":8466,"Branch":8467,"Since":8468,"TOP":8469,"Xml":8470,"Xmx":8471,"kar":8472,"Ġgeneric":8473,"ĠIniti":8474,"Ġ);":8475,"Ġconstant":8476,"cepted":8477,"ditional":8478,"Ġinfin":8479,"SearchAction":8480,"Ġasync":8481,"ĠAND":8482,"ORT":8483,"996":8484,"skipped":8485,"PostCommit":8486,"Ġtherefore":8487,"children":8488,"SocketChannelImpl":8489,"FileSystemWatcher":8490,"BigQueryIO":8491,"two":8492,"ĠWhat":8493,"Ġobserved":8494,"Library":8495,"(<":8496,"211":8497,"Issue":8498,"JAVA":8499,"Ms":8500,"Vol":8501,"´Ð»Ñ":8502,"icast":8503,"profile":8504,"ĠSte":8505,"shared":8506,"ĠWord":8507,"Ġevalu":8508,"ToXContent":8509,"284":8510,"399":8511,"parseInt":8512,"KafkaAdminClient":8513,"AppClassLoader":8514,"Origin":8515,"LoggerContext":8516,"sendUpstream":8517,"Reload":8518,"Ġmapper":8519,"TranslatorPB":8520,"compileJava":8521,"ĠÐ´Ð»Ñ":8522,"ĠAny":8523,"authentication":8524,"BEAM":8525,"66666666":8526,"OzoneManagerProtocol":8527,"TempFileBundles":8528,"JavaBinCodec":8529,"configuredLevel":8530,"TreePathScanner":8531,"Ġfall":8532,"ĠHashMap":8533,"FinalizeTempFileBundles":8534,"nodetable":8535,"ĠÐ´Ð»Ñı":8536,"ITest":8537,"LM":8538,"Same":8539,"YY":8540,"her":8541,"ĠData":8542,"ĠContainer":8543,"apsed":8544,"039":8545,"Ġ27":8546,"Ġprofile":8547,"453":8548,"444":8549,"Ġbehind":8550,"BlobContainer":8551,"CreateIndexService":8552,"Ġchanging":8553,"Ġsearching":8554,"Ġfunctions":8555,"MetaDataCreateIndexService":8556,"initializing":8557,"ĠOne":8558,"Expired":8559,"Ġraising":8560,"ActiveMQ":8561,"SaslTransportPlugin":8562,"PacemakerClient":8563,"INITIALIZING":8564,"FF":8565,"JCT":8566,"KQ":8567,"PF":8568,"Src":8569,"pu":8570,"met":8571,"abc":8572,"ableThread":8573,"Ġ\"$":8574,"Ġmillis":8575,"Ġhistory":8576,"ExceptionHandler":8577,"suppressed":8578,"ĠCre":8579,"Ġtimed":8580,"MessageToMessage":8581,"Ġposs":8582,"production":8583,"cheduling":8584,"FluxOnAssembly":8585,"StatementAdapter":8586,"ĠSTART":8587,"Ġexpand":8588,"Character":8589,"TYPE":8590,"Spliterators":8591,"EncodingFilter":8592,"wjgl":8593,"xerces":8594,"wiki":8595,"effectiveLevel":8596,"JCTree":8597,"607":8598,"CC":8599,"More":8600,"MediaType":8601,"NULL":8602,"mary":8603,"}\"":8604,"Ġpe":8605,"Ġ47":8606,"Ġboost":8607,"Ġbool":8608,"onStartup":8609,"oto":8610,"ived":8611,"0047":8612,"Ġfe":8613,"AbstractProtocol":8614,"arequote":8615,"Ġlines":8616,"4746":8617,"ĠMar":8618,"Keyboard":8619,"Ġupon":8620,"NativeConstructorAccessorImpl":8621,"hadow":8622,"Ġincluded":8623,"Subset":8624,"7610":8625,"595":8626,"Ġelapsed":8627,"Ġencoding":8628,"tooling":8629,"Optimizer":8630,"438979":8631,"ProvidedExtensions":8632,"4746365":8633,"Rabbit":8634,"UG":8635,"bContainer":8636,"ffix":8637,"piv":8638,"ya":8639,"Ġ45":8640,"Ġelect":8641,"aller":8642,"present":8643,"election":8644,"ceiver":8645,"verse":8646,"Ġbash":8647,"ActionServlet":8648,"Ġexceed":8649,"ContextManagerImpl":8650,"Ġcop":8651,"Positive":8652,"393":8653,"ĠHH":8654,"ĠHigh":8655,"294":8656,"FileChanged":8657,"ĠPTOperator":8658,"HttpMessageConverter":8659,"ByWindow":8660,"Callable":8661,"CollectionSerializer":8662,"MBeanExport":8663,"SpscLinkedArrayQueue":8664,"WebAppImpl":8665,"TestClassCallbacks":8666,"DelegateAction":8667,"viewer":8668,"AdminServiceImpl":8669,"UNN":8670,"ServletWrapperImpl":8671,"Ġassum":8672,"SaslClient":8673,"InitDestroy":8674,"Imports":8675,"++++++++++++++++":8676,"ReduceOps":8677,"................................":8678,"plied":8679,"Ġrepeated":8680,"Numeric":8681,"INVOCATION":8682,"InitDestroyAnnotationBeanPostProcessor":8683,"HL":8684,"OB":8685,"Sl":8686,"feature":8687,"gc":8688,"how":8689,"site":8690,"}]":8691,"Ġconstruc":8692,"Ġbrief":8693,"ĠĠĠĠĠĠĠĠĠĠĠĠĠĠĠĠĠĠ":8694,"259":8695,"TransportBulkAction":8696,"ToTemp":8697,"ĠHere":8698,"NodeId":8699,"ĠJAR":8700,"parsed":8701,"441":8702,"Ġpom":8703,"Ġdefaults":8704,"Ġotherwise":8705,"AnnotationProcessor":8706,"Ġaccording":8707,"english":8708,"xxx":8709,"SpringBootApplication":8710,"Ġpoints":8711,"Ġstrange":8712,"Avro":8713,"Ġencoded":8714,"SinkTask":8715,"Ġwhole":8716,"ircuit":8717,"Ġestablished":8718,"ĠWordCount":8719,"218":8720,"EK":8721,"MS":8722,"Pipelining":8723,"Vari":8724,"Ġnecessary":8725,"egacy":8726,"Ġ\"-":8727,"Ġsync":8728,"Ġdrop":8729,"Ġ})":8730,"runPriority":8731,"ĠIssue":8732,"ĠSDK":8733,"ExecutorImpl":8734,"ExecutorPolicy":8735,"flu":8736,"ĠNow":8737,"HttpPipelining":8738,"RestFn":8739,"ĠGener":8740,"ĠInstead":8741,"BlobDownload":8742,"Ġdeleg":8743,"ProjectCustomizer":8744,"Ġthrowing":8745,"ĠUbuntu":8746,"Weak":8747,"StreamingApp":8748,"precision":8749,"***********":8750,"FSStorage":8751,"answers":8752,"CmdMain":8753,"***************************":8754,"postProcessBeforeInitialization":8755,"beginBlobDownload":8756,"priorityIO":8757,"META":8758,"runPriorityIO":8759,"HttpPipeliningHandler":8760,"FSStorageAgent":8761,"566":8762,"Focus":8763,"]/[":8764,"domain":8765,"flight":8766,"ĠEx":8767,"liquibase":8768,"then":8769,"malformed":8770,"Ġ\".":8771,"Ġscreen":8772,"Ġreplic":8773,"Bearer":8774,"AbstractTest":8775,"TaskManager":8776,"ServiceLoader":8777,"TransportBroadcast":8778,"Dev":8779,"STOP":8780,"474":8781,"ĠMac":8782,"Ġgives":8783,"ĠGot":8784,"Ġ3000":8785,"Place":8786,"Ġmodel":8787,"Ġaliases":8788,"olving":8789,"DirectRunner":8790,"Publishing":8791,"TransportShardBulkAction":8792,"TridentSpout":8793,"SnapshotsService":8794,"KeyboardFocus":8795,"KeyboardFocusManager":8796,"$(":8797,"418":8798,"Book":8799,"JB":8800,"Jena":8801,"Legacy":8802,"au":8803,"mbok":8804,"take":8805,"Ġ36":8806,"ĠKeyValue":8807,"seq":8808,"icker":8809,"Ġ{\\\"":8810,"Ġreplication":8811,"],\"":8812,"RequestFuture":8813,"specific":8814,"ĠFrom":8815,"Any":8816,"354":8817,"shardOperation":8818,"291":8819,"Ġaggs":8820,"Submit":8821,"PathRegistry":8822,"Ġmatched":8823,"Ġdetected":8824,"Merged":8825,"Attributes":8826,"SpringBootCondition":8827,"Ġtokens":8828,"Finder":8829,"Expand":8830,"nyc":8831,"BUT":8832,"RD":8833,"Ug":8834,"Yaml":8835,"]|":8836,"lc":8837,"lte":8838,"sk":8839,"ĠActuator":8840,"iddle":8841,"ationContext":8842,"esting":8843,"wildcards":8844,"progress":8845,"Ġfurther":8846,"Ġ10000":8847,"runTask":8848,"ĠThese":8849,"ĠFalling":8850,"Ġpropag":8851,"ipal":8852,"ĠMB":8853,"processElement":8854,"processResources":8855,"Ġpointer":8856,"BindException":8857,"Ġcallback":8858,"15228110":8859,"lighter":8860,"JarURLConnection":8861,"Ġsyntax":8862,"DataObjectEnv":8863,"incipal":8864,"plexus":8865,"Ġinvoked":8866,"Ġconverting":8867,"ĠDataset":8868,"ceiverClient":8869,"FileChangedManager":8870,"DataObjectEnvFactory":8871,"([":8872,"/]":8873,"280":8874,"9301":8875,"PA":8876,"PLAIN":8877,"TBase":8878,"hsql":8879,"mfe":8880,"ne":8881,"sasl":8882,"similarity":8883,"ension":8884,"ifies":8885,"ones":8886,"eless":8887,"ellow":8888,"Ġrender":8889,"edException":8890,"crete":8891,"0027":8892,"Ġdemo":8893,"asets":8894,"usic":8895,"ĠILM":8896,"Ġexcept":8897,"True":8898,"receive":8899,"QueryThen":8900,"Ġsetter":8901,"ErrorPageFilter":8902,"Ġcancel":8903,"ĠPer":8904,"Ġvs":8905,"Ġprocesses":8906,"Ġsubmission":8907,"Validate":8908,"Ġdefining":8909,"FetchAction":8910,"LoggingApplicationListener":8911,"Ġassertion":8912,"Ġregistering":8913,"TestContextManager":8914,"Cursor":8915,"TBaseProcessor":8916,"hsqldb":8917,"410":8918,"430":8919,"432":8920,"409":8921,"502":8922,"`).":8923,"category":8924,"iated":8925,"jta":8926,"ĠPro":8927,"ĠDataSource":8928,"Ġmention":8929,"unavailable":8930,"))))))))))))))))))))))":8931,"planner":8932,"Console":8933,"Ġbolt":8934,"Ġhierarchy":8935,"Ġforce":8936,"Ġexternal":8937,"ContextConfiguration":8938,"uststore":8939,"ClientCnxn":8940,"352":8941,"381":8942,"387":8943,"431":8944,"468":8945,"Ġdirectories":8946,"poration":8947,"ĉĉĉĉĉĉĉĉ":8948,"Batcher":8949,"CESS":8950,"FetcherManager":8951,"ĠArrayList":8952,"RandomKey":8953,"iscovered":8954,"Terminal":8955,"ĠCorporation":8956,"Ġrecreation":8957,"\"</":8958,"/{":8959,"722":8960,"835":8961,"Acl":8962,"Eat":8963,"Sw":8964,"TION":8965,"War":8966,"bund":8967,"farequote":8968,"squ":8969,"Ðº":8970,"Ġ;":8971,"enied":8972,"guava":8973,"oracle":8974,"coming":8975,"voter":8976,"Ġ[`":8977,"Ġfo":8978,"Ġfmfe":8979,"12006":8980,"ĠSL":8981,"Ġexpecting":8982,"assertThat":8983,"377":8984,"ĠBroker":8985,"3961":8986,"MapSerializer":8987,"DefaultCacheAwareContextLoaderDelegate":8988,"]]',":8989,"678":8990,"FnApi":8991,"ProjectOpened":8992,"Ġbackground":8993,"BlobStoreUtils":8994,"BlobStoreIndexShard":8995,"mavenproject":8996,"ĠThrow":8997,"SimpleInstantiation":8998,"Closes":8999,"ModuleClassPath":9000,"BeanDefinitionException":9001,"Ġ253961":9002,"Ġcleaned":9003,"ControllerEventThread":9004,"COL":9005,"ĠArrayIndexOutOfBoundsException":9006,"################":9007,"compatible":9008,"itesp":9009,"TabbedPane":9010,"observers":9011,"ObjectFileWrapper":9012,"WriteUnshardedBundlesToTemp":9013,"CuratorFramework":9014,"karaf":9015,"QueryThenFetchAction":9016,"ProjectOpenedHook":9017,"SimpleInstantiationStrategy":9018,"ModuleClassPaths":9019,"WriteUnshardedBundlesToTempFiles":9020,"580":9021,"960":9022,"Atomic":9023,"Hdds":9024,"NB":9025,"PG":9026,"PHP":9027,"RING":9028,"olokia":9029,"sch":9030,"save":9031,"Ġ86":9032,"Ġ43":9033,"Ġartifacts":9034,"istic":9035,"uge":9036,"RECO":9037,"Ġdevelop":9038,"Ġresolution":9039,"ĠCLI":9040,"269":9041,"Art":9042,"parseSource":9043,"578":9044,"ĠLi":9045,"Oracle":9046,"Ġservers":9047,"media":9048,"Multiple":9049,"Documents":9050,"SnapshotAction":9051,"reroute":9052,"BeanDefinitions":9053,"Ordinals":9054,"intellij":9055,"PropertiesConfigurationFactory":9056,"?)":9057,"Clipboard":9058,"Census":9059,"TBinary":9060,"]`":9061,"holder":9062,"haps":9063,"sim":9064,"Ð¸":9065,"ony":9066,"Ġconsume":9067,"agno":9068,"olding":9069,"ThreadFactoryImpl":9070,"ContextHandler":9071,"927":9072,"currentThread":9073,"IOUtils":9074,"ARQ":9075,"497":9076,"9302":9077,"___":9078,"ModuleManager":9079,"ĠÐ½":9080,"copyInto":9081,"YouKill":9082,"ĠNetbeans":9083,"ĠAndroid":9084,"WhatYouKill":9085,"Mutex":9086,"ĠTrying":9087,"godotengine":9088,"StreamingAppMasterService":9089,"EatWhatYouKill":9090,"ClipboardHandler":9091,"TBinaryProtocol":9092,"609":9093,"693":9094,"759":9095,"=(":9096,"Should":9097,"]}}":9098,"gg":9099,"icon":9100,"sive":9101,"yle":9102,"args":9103,"guard":9104,"Ġdaemon":9105,"Ġfast":9106,"testReport":9107,"Ġpres":9108,"IndexTemplate":9109,"862":9110,"HttpMethod":9111,"ĠJan":9112,"Wrapping":9113,"CLI":9114,"Ġdatasets":9115,"Ġconfigs":9116,"Singletons":9117,"LockSupport":9118,"windows":9119,"CuratorFrameworkImpl":9120,">/":9121,"Done":9122,"EX":9123,"Hy":9124,"Te":9125,"VG":9126,"Zk":9127,"categories":9128,"jn":9129,"Ġcore":9130,"Ġlicense":9131,"fic":9132,"onComplete":9133,"ocom":9134,"Ġround":9135,"Ġmvc":9136,"ThreadSetupAction":9137,"without":9138,"ShardAction":9139,"ShardFollow":9140,"664":9141,"343":9142,"3503":9143,"Ġcouple":9144,"websocket":9145,"495":9146,"produce":9147,"MainMethod":9148,"Ġ||":9149,"wsE":9150,"subject":9151,"Ġ>=":9152,"Ġdocumented":9153,"ĠUse":9154,"Ġrelocating":9155,"evaluateSequ":9156,"ĠKAF":9157,"Ġstrings":9158,"Ġimplemented":9159,"AggregatorFactories":9160,"tdbloader":9161,"Rollover":9162,"MeterRegistry":9163,"ffici":9164,"Ġcorrupted":9165,"ORDER":9166,"Ġidea":9167,"JavaSecurityAccessImpl":9168,"TransportSingleShardAction":9169,"evaluateSequential":9170,"ĠKAFKA":9171,")|":9172,"543":9173,"821":9174,"844":9175,"Could":9176,"Grouped":9177,"HDFS":9178,"PATH":9179,"jenkins":9180,"option":9181,"pb":9182,"yer":9183,"Ġut":9184,"ĠUpdate":9185,"repos":9186,"reify":9187,"Ġwelcome":9188,"Ġreject":9189,"Ġcoder":9190,"Ġforums":9191,"Ġanalyz":9192,"Ġprogress":9193,"ERY":9194,"loadContext":9195,"WorkerTask":9196,"Elect":9197,"674":9198,"Modification":9199,"AppMain":9200,"byte":9201,"TimeZone":9202,"Ġcontainers":9203,"Ġregistr":9204,"viously":9205,"ernel":9206,"Fixed":9207,"ulticast":9208,"Ġserialization":9209,"Publisher":9210,"Ġsupposed":9211,"Delayed":9212,"Ġinstantiate":9213,"Ġpotentially":9214,"ognized":9215,"&#":9216,"322":9217,"509":9218,":<":9219,"Audit":9220,"ECT":9221,"Hikari":9222,"IA":9223,"Lift":9224,"NO":9225,"Templates":9226,"XceiverClient":9227,"Zen":9228,"cape":9229,"nel":9230,"oz":9231,"ilm":9232,"Ġthree":9233,"Ġtdb":9234,"1267":9235,"emit":9236,"ĠSeri":9237,"redicate":9238,"Pos":9239,"WorkerThread":9240,"ErrorCode":9241,"Ġsuccessful":9242,"display":9243,"SourceBuilder":9244,"RecoveryException":9245,"995":9246,"Annotations":9247,"ĠStandard":9248,"Ġimpact":9249,"Ġ\\-":9250,"AggregatorParsers":9251,"BytesRestResponse":9252,"StreamingContainerManager":9253,"Ġannotations":9254,"InjectorBuilder":9255,"\\\",\\":9256,"SideTranslatorPB":9257,"ViaRandomKey":9258,"AccessControlContext":9259,"7483647":9260,"MainMethodRunner":9261,"/**":9262,";}":9263,"RDF":9264,"}\",":9265,"ĠRead":9266,"orer":9267,"ansions":9268,"ulate":9269,"avro":9270,"classgen":9271,"Ġaffected":9272,"working":9273,"email":9274,"ĠIgn":9275,"share":9276,"Exceptions":9277,"Tri":9278,"rolling":9279,"ĠBulk":9280,"Ġrecent":9281,"deserialize":9282,"marks":9283,"Ġimplementations":9284,"Relates":9285,"ĠgroupId":9286,"SocketServer":9287,"AND":9288,"failure":9289,"Cleaner":9290,"Optional":9291,"BeanFactoryPostProcessors":9292,"705":9293,"Ide":9294,"Lacro":9295,"Na":9296,"Negoti":9297,"SD":9298,"VCS":9299,"qp":9300,"rant":9301,"tcp":9302,"zk":9303,"ĠExample":9304,"Ġlower":9305,"coord":9306,"ison":9307,"issu":9308,"rain":9309,"Ġtuple":9310,"002":9311,"InZookeeper":9312,"verage":9313,"ĠIA":9314,"createState":9315,"Anonymous":9316,"levels":9317,"ouch":9318,"ĠMock":9319,"8576":9320,"StateManager":9321,"AsyncPrimary":9322,"HttpServer":9323,"Register":9324,"Ġ60000":9325,"Decision":9326,"ConditionEvaluator":9327,"dispatcherServlet":9328,"IfN":9329,"ĠKernel":9330,"feed":9331,"FluxMap":9332,"wrapAnd":9333,"ShutdownableThread":9334,"NbGradleProject":9335,"}},{\"":9336,"ManagedExecutorImpl":9337,"Ġvariables":9338,"Ġretrieve":9339,"pumpEventsFor":9340,"SerializableUtils":9341,"âĶĢ":9342,"Ġsensor":9343,"Lacroix":9344,"createStateInZookeeper":9345,"AsyncPrimaryAction":9346,"DecisionTree":9347,"619":9348,"Clear":9349,"Just":9350,"Mockito":9351,"SCM":9352,"ZK":9353,"city":9354,"istance":9355,"wo":9356,"zure":9357,"ĉĠĠĠ":9358,"thetic":9359,"strict":9360,"rewrite":9361,"Ġozone":9362,"adapter":9363,"Ġmist":9364,"1056":9365,"TransportNodes":9366,"ÂłÂłĠÂłčĊ":9367,"invokeBeanFactoryPostProcessors":9368,"457":9369,"NodeEnvironment":9370,"Decor":9371,"ClusterInfo":9372,"ConsumerCoordinator":9373,"Checking":9374,"\"}}}}":9375,"precation":9376,"TERM":9377,"Extended":9378,"Ġsorting":9379,"ĠURI":9380,"QUERY":9381,"NamesFor":9382,"ConversionService":9383,"Currently":9384,"IS":9385,"Used":9386,"kib":9387,"non":9388,"oas":9389,"sent":9390,"satisfied":9391,"Ġpack":9392,"ateoas":9393,"isPositive":9394,"Ġtree":9395,"Ġsection":9396,"Ġtopologies":9397,"tib":9398,"Ġexpo":9399,"Developer":9400,"FilterRegistrationBean":9401,"EventPublishing":9402,"640":9403,"378":9404,"484":9405,"390":9406,"ĠHello":9407,"statistics":9408,"Ġmeta":9409,"ĠGlobal":9410,"ĠRC":9411,"ĠRAM":9412,"topics":9413,"words":9414,"ArrayBuffer":9415,"Ġparts":9416,"SecurityServerTransport":9417,"789":9418,"Ġupgrades":9419,"\"}},\"":9420,"Activ":9421,"ClassPathImplementation":9422,"expansions":9423,"ĠIllegalArgumentException":9424,"VirtualHost":9425,"OverflowError":9426,"typedApply":9427,"ecomment":9428,"jaxb":9429,"Position":9430,"issuecomment":9431,"EventPublishingRunListener":9432,"SecurityServerTransportInterceptor":9433,"605":9434,"=-":9435,"AUT":9436,"Bound":9437,"Spark":9438,"YS":9439,"page":9440,"wt":9441,"Ġapache":9442,"Ġzookeeper":9443,"crest":9444,"amcrest":9445,"Ġtoge":9446,"head":9447,"Ġcpu":9448,"Ġprivile":9449,"Ġcompar":9450,"messaging":9451,"ĠToday":9452,"Enabled":9453,"stormjar":9454,"filing":9455,"doHandle":9456,"478":9457,"450":9458,"455":9459,"084":9460,"ipes":9461,"ĠPCollection":9462,"epoch":9463,"URLClassPath":9464,"Plus":9465,"MappingService":9466,"Prepare":9467,"2007":9468,"MetaDataMappingService":9469,"cleanup":9470,"TABLE":9471,"Ġgreat":9472,"Phone":9473,"volume":9474,"Ġtogether":9475,"525":9476,"536":9477,"=;":9478,"Category":9479,"DD":9480,"EC":9481,"Scheme":9482,"Shadow":9483,"hello":9484,"slow":9485,"sources":9486,"Ġfi":9487,"encode":9488,"ensure":9489,"Ġnamespace":9490,"Ġleave":9491,"asing":9492,"oom":9493,"Ġhaven":9494,"Ġstates":9495,"IndexWriter":9496,"flowable":9497,"283":9498,"Builders":9499,"exceptions":9500,"ĠJar":9501,"buildSrc":9502,"Scanning":9503,"ActionListenerResponseHandler":9504,"Ġremoves":9505,"SimpleDoFnRunner":9506,"Ġcompiled":9507,"\"}],\"":9508,"emoApplication":9509,"txGet":9510,"InboundHandler":9511,"results":9512,"Ġmarkup":9513,"Ġsynchron":9514,"FILE":9515,"ttl":9516,"WebMvcAutoConfigurationAdapter":9517,"NAMED":9518,"Ġhangs":9519,"Ġmonitoring":9520,"Ġcorrespon":9521,"/`":9522,"2181":9523,"528":9524,"797":9525,"Bg":9526,"Bad":9527,"GSS":9528,"Wait":9529,"dl":9530,"font":9531,"gres":9532,"lash":9533,"uS":9534,"Ġfr":9535,"ĠProject":9536,"atype":9537,"inst":9538,"allocate":9539,"ableEventQueue":9540,"Ġconcurrent":9541,"ica":9542,"ours":9543,"Ġ{[":9544,"Ġdestination":9545,"1110":9546,"actionGet":9547,"Indexed":9548,"371":9549,"ResponseException":9550,"ĠJena":9551,"554":9552,"Ġdeletes":9553,"Ġperformed":9554,"LOW":9555,"ĠKinesis":9556,"PatternLayout":9557,"Ġamount":9558,"Ġlocally":9559,"Ġassoc":9560,"ChangeListener":9561,"patterns":9562,"moval":9563,"Ġrolling":9564,"ICAL":9565,"RequestMappingHandlerAdapter":9566,"TimableEventQueue":9567,"ocksDB":9568,"Manual":9569,"ĠBinding":9570,"Ġfeel":9571,"%]":9572,"633":9573,"Fu":9574,"PORT":9575,"mp":9576,"oss":9577,"Ġ9200":9578,"aret":9579,"amel":9580,"ĠĠĠĠĊ":9581,"avig":9582,"Ġintern":9583,"Ġtaken":9584,"Ingest":9585,"irth":9586,"runLeaf":9587,"Ġmachine":9588,"20180":9589,"ĠinitMethodName":9590,"angling":9591,"getValue":9592,"Ġprim":9593,"][[":9594,"Union":9595,"Ġ214":9596,"recipes":9597,"641":9598,"375":9599,"Ġlaunch":9600,"859":9601,"StateFormat":9602,"contexts":9603,"FileManager":9604,"Ġengine":9605,"SecurityContext":9606,"porters":9607,"MatchQuery":9608,"ĠdependencyCheck":9609,"KeeperErrorCode":9610,"protocolPB":9611,"ĠfactoryMethodName":9612,"ĠfactoryBeanName":9613,"IPT":9614,"distance":9615,"CachingKeyValueStore":9616,"ĠautowireCandidate":9617,"ĠautowireMode":9618,"changes":9619,"ĠdestroyMethodName":9620,"ĠlazyInit":9621,"Ġpermissions":9622,"ToXContentListener":9623,"Ġexceeded":9624,"406":9625,"504":9626,"634":9627,"900":9628,"Equal":9629,"GF":9630,"GER":9631,"GitHub":9632,"HE":9633,"KTable":9634,"MON":9635,"UST":9636,"bq":9637,"cing":9638,"px":9639,"Ġq":9640,"Ġassign":9641,"Ġ000":9642,"idth":9643,"stam":9644,"ale":9645,"itel":9646,"ited":9647,"izers":9648,"annotations":9649,"mart":9650,"Ġwords":9651,"InContext":9652,"InMemory":9653,"Ġfatal":9654,"Resume":9655,"developer":9656,"ClientAvailable":9657,"NodeTask":9658,"RestHandler":9659,"15228077":9660,"ĠInter":9661,"ĠAPIs":9662,"LOC":9663,"ConsumerGroup":9664,"SEVERE":9665,"AMP":9666,"StandardEngine":9667,"UNNAMED":9668,"Ġnumeric":9669,"multipart":9670,"Ġsuggestions":9671,"QueuedThreadPool":9672,"PREFIX":9673,"ConfigurerAdapter":9674,"HeapByteBuffer":9675,"Returns":9676,"ServletWebServerApplicationContext":9677,"Ġcompilation":9678,"Ġsubsequent":9679,"DeclarativeHints":9680,"MBeanExportConfiguration":9681,"Artifact":9682,"467":9683,"Red":9684,"Tgs":9685,"ctx":9686,"features":9687,"nd":9688,"forName":9689,"imports":9690,"comments":9691,"trie":9692,"amily":9693,"Rep":9694,"Ġcandidate":9695,"Ġhistogram":9696,"keystore":9697,"indexed":9698,"809":9699,"Ġpretty":9700,"artz":9701,"TestDescriptor":9702,"singleton":9703,"ĠType":9704,"ĠFetch":9705,"Quota":9706,"454":9707,"328":9708,"addWebApplication":9709,"ToString":9710,"computeDelegate":9711,"Flush":9712,"ComponentScan":9713,"CodeVisitor":9714,"WriteAction":9715,"MonoLift":9716,"Checkpoint":9717,"ĠAMD":9718,"BigInteger":9719,"jolokia":9720,"MetaDataStateFormat":9721,"JsonClientRequest":9722,"Ġauthorization":9723,"required":9724,"secure":9725,"AbstractGoogleJsonClientRequest":9726,"ĠByte":9727,"Ġmoved":9728,"KrbTgs":9729,"ConcatMapMaybe":9730,"cglib":9731,"JUnitCoreWrapper":9732,"Ġcontributing":9733,"ĠRemoteTransportException":9734,"fficient":9735,"isPositiveNumber":9736,"CodeVisitorSupport":9737,"016":9738,"485":9739,"Cut":9740,"DC":9741,"Feature":9742,"Tar":9743,"TThreadPool":9744,"Ws":9745,"Watch":9746,"bon":9747,"tar":9748,"viction":9749,"yah":9750,"ze":9751,"Ġliteral":9752,"ĠDE":9753,"aray":9754,"Ġran":9755,"oting":9756,"returns":9757,"Ġ\"\"":9758,"possible":9759,"Ġtaking":9760,"Ġticket":9761,"Ġdemon":9762,"irect":9763,"Reactor":9764,"Ġ`.":9765,"TaskImpl":9766,"HandlerWrapper":9767,"Comment":9768,"ĠTue":9769,"Ġproposed":9770,"doStart":9771,"ĠCL":9772,"ĠAuth":9773,"ĠGC":9774,"Ġapplications":9775,"Leak":9776,"Ġreads":9777,"Ġcontexts":9778,"Heartbeat":9779,"Ġheartbeat":9780,"Ġprefer":9781,"Ġpreference":9782,"Ġimpossible":9783,"BeamFn":9784,"BytesStore":9785,"selfLoadClass":9786,"RequestMappingHandlerMapping":9787,"iddenHttpMethod":9788,"Ġmigration":9789,"Ġdiagno":9790,"solute":9791,"Ġmentioned":9792,"itelabel":9793,"TThreadPoolServer":9794,"arayana":9795,"iddenHttpMethodFilter":9796,"447":9797,"DAL":9798,"Fuser":9799,"Greed":9800,"LS":9801,"grouped":9802,"hel":9803,"iation":9804,"ja":9805,"mak":9806,"spe":9807,"uous":9808,"ðŁ":9809,"ĠExecute":9810,"Ġfactor":9811,"arches":9812,"izes":9813,"comms":9814,"Ġinde":9815,"apse":9816,"Ġwent":9817,"Ġsvn":9818,"Ġ[{\"":9819,"Ġrepo":9820,"Ġclick":9821,"Stan":9822,"ContextRunnable":9823,"Classpath":9824,"Reset":9825,"Unsupported":9826,"ĠBlob":9827,"Ġsoon":9828,"SpringServletContainerInitializer":9829,"RestActionListener":9830,"DelegatingVCS":9831,"UnitTests":9832,"589":9833,"Notify":9834,"Applier":9835,"ĠSpringBoot":9836,"aunched":9837,"Aggregate":9838,"ĠJavaHL":9839,"Ġreleased":9840,"Definitions":9841,"XXXX":9842,"Ġbootstrap":9843,"\".\"":9844,"Ġauthor":9845,"functions":9846,"Ġtriggered":9847,"Ġparallelism":9848,"DeploymentManagerImpl":9849,"Ġexactly":9850,"DatasetGraph":9851,"JavacParser":9852,"CompoundProcessor":9853,"CommandlineClient":9854,"EMC":9855,"Ġassumes":9856,"Emitter":9857,"83627":9858,"Ġ1048576":9859,"shadowJar":9860,"MessageToMessageCodec":9861,"RDH":9862,"Greedy":9863,"makits":9864,"Ġsvnjavahl":9865,"ApplierService":9866,"+---------------":9867,"913":9868,"GB":9869,"Holder":9870,"Predicate":9871,"Rele":9872,"SER":9873,"hav":9874,"iOzone":9875,"qos":9876,"Ġty":9877,"ĠContext":9878,"ĠProcessor":9879,"Ġknown":9880,"ĠDependency":9881,"Ġsur":9882,"extended":9883,"Ġrepro":9884,"umb":9885,"ĠSolr":9886,"Ġandroid":9887,"Ġcomplex":9888,"RequestMatcher":9889,"ASK":9890,"ĠField":9891,"Ġdetermine":9892,"367":9893,"Ġtrack":9894,"NodeInfo":9895,"Keys":9896,"Ġlitt":9897,"ĠOAuth":9898,"AndObject":9899,"ellable":9900,"unct":9901,"UpdateProcessor":9902,"Ġbugs":9903,"555":9904,"Ġplaces":9905,"OperationExecutor":9906,"Ġgeneration":9907,"ruptib":9908,"SessionHandler":9909,"BulkProcessor":9910,"persistenceapi":9911,"recoverFrom":9912,"authorized":9913,"ĠTopology":9914,"GridAbstractTest":9915,"ScheduledFutureTask":9916,"Ġaddresses":9917,"ĠShutdown":9918,"Creds":9919,"Secure":9920,"ĠFAILURE":9921,"anguages":9922,"ExecutableStage":9923,"DefaultBuildOperationExecutor":9924,"Ġemitted":9925,"ConfigFileApplicationListener":9926,"Ġdemonstr":9927,"Ġlittle":9928,"These":9929,"Uri":9930,"ZX":9931,"cident":9932,"Ġinvoke":9933,"ĠProtocol":9934,"Ġactiv":9935,"modified":9936,"ĠĠĠĠĉ":9937,"completed":9938,"trunk":9939,"oose":9940,"Ġsends":9941,"003":9942,"Ġfrequ":9943,"springmodule":9944,"ĠSCM":9945,"Ġ`-":9946,"379":9947,"WebSecurity":9948,"DefaultKeyboardFocusManager":9949,"FileStatus":9950,"383":9951,"ĠOut":9952,"ĠRel":9953,"ACTED":9954,"Ġshrink":9955,"Ġdeletion":9956,"Ġ*/":9957,"Ġpercent":9958,"StepListener":9959,"firstName":9960,"modelmbean":9961,"Translation":9962,"BeanDefinitionRegistry":9963,"TokenProvider":9964,"Ð¾Ð":9965,"UpstreamHandler":9966,"JShellLauncher":9967,"RelaxedDataBinder":9968,"SimpleChannelUpstreamHandler":9969,"rokenConfigProperties":9970,"ForEachOps":9971,"CharacterEncodingFilter":9972,"ShardFollowNodeTask":9973,"Ġassociated":9974,"DeclarativeHintsParser":9975,"UnitTestsCompilerOptionsQueryImpl":9976,"FileStatusProvider":9977,"*\",":9978,"Bert":9979,"LTA":9980,"Norm":9981,"PAssert":9982,"ault":9983,"bat":9984,"hw":9985,"ked":9986,"wc":9987,"Ġ49":9988,"entrant":9989,"priate":9990,"rethrow":9991,"rebalance":9992,"unting":9993,"amqp":9994,"Existing":9995,"SearchSourceBuilder":9996,"Ġexpose":9997,"ContextRestore":9998,"MethodUtil":9999,"white":10000,"REATE":10001,"Ġlate":10002,"ĠBase":10003,"Ġfollower":10004,"NameViewResolver":10005,"Ġautodet":10006,"Ġhappened":10007,"Ġmapped":10008,"Att":10009,"MetadataReader":10010,"Ġposting":10011,"ConcurrentModification":10012,"Ġlibraries":10013,"seconds":10014,"ĠTRUNCATE":10015,"CloudObject":10016,"onyms":10017,"GroupedValues":10018,"ContextRestoreResponseHandler":10019,"524":10020,"Public":10021,"TUnion":10022,"ZZ":10023,"aft":10024,"blog":10025,"hateoas":10026,"nor":10027,"pting":10028,"ython":10029,"ygrid":10030,"Ġfigure":10031,"ĠValue":10032,"Ġrate":10033,"acer":10034,"assets":10035,"Ġ\"\",":10036,"Ġtick":10037,"Ġ156":10038,"Ġrepresent":10039,"Ġmut":10040,"TaskThread":10041,"redacted":10042,"TestWorker":10043,"TestInstance":10044,"Ġph":10045,"ĠWAR":10046,"394":10047,"ĠHal":10048,"ProxyDispatch":10049,"RestUtils":10050,"ĠDRPC":10051,"BaseRestHandler":10052,"ĠOzone":10053,"moved":10054,"ArrayIndexOutOfBoundsException":10055,"Ġmodify":10056,"TestClassProcessor":10057,"mbers":10058,"Ġproduct":10059,"MetricWriter":10060,"QueryPhaseExecutionException":10061,"Ġwrapper":10062,"JUnitTestClassProcessor":10063,"================================":10064,"ScopedSettings":10065,"Metered":10066,"SuiteTestClassProcessor":10067,"Mutation":10068,"Ġoptimization":10069,"HeadContext":10070,"AmazonHttpClient":10071,"green":10072,"ContextClassLoaderDispatch":10073,"readClassAndObject":10074,"pivotal":10075,"EqualTo":10076,"ProxyDispatchAdapter":10077,"417":10078,"586":10079,"Cent":10080,"DA":10081,"Jta":10082,"Ow":10083,"TON":10084,"ct":10085,"caps":10086,"coders":10087,"nt":10088,"wal":10089,"Ġeg":10090,"Ġuri":10091,"ifiable":10092,"throttled":10093,"lists":10094,"Ġreroute":10095,"izard":10096,"ils":10097,"such":10098,"Ġ}}":10099,"ities":10100,"runAs":10101,"ĠSpark":10102,"Ġ'_":10103,"ĠTotal":10104,"Ġequ":10105,"poses":10106,"StateChanges":10107,"567":10108,"encoder":10109,"LocalManual":10110,"Counter":10111,"ĠSpringApplication":10112,"PropertyValues":10113,"Ġabort":10114,"Interval":10115,"applyTo":10116,"FetchSubPhase":10117,"Ġdownstream":10118,"Serializing":10119,"postgres":10120,"CopyInto":10121,"BeamSql":10122,"SocketProcessor":10123,"GridCache":10124,"Ġeasily":10125,"protected":10126,"WebServerFactory":10127,"EvaluationContext":10128,"deployment":10129,"Ġ2011":10130,"Ġcompatible":10131,"ĠOverflow":10132,"Ġregardless":10133,"currency":10134,"BUTTON":10135,"wrapAndCopyInto":10136,"Ġexposure":10137,"yahoo":10138,"LocalManualCache":10139,"SerializingExecutor":10140,"565":10141,":#":10142,"BPlus":10143,"Ip":10144,"JFunction":10145,"TTransport":10146,"Very":10147,"Wed":10148,"zo":10149,"Ñı":10150,"ĠApplicationContext":10151,"erder":10152,"Ġnice":10153,"ableControllerEvent":10154,"Ġrename":10155,"edState":10156,"avy":10157,"Exchange":10158,"Ġ}{":10159,"Ġcaching":10160,"ĠSimple":10161,"ĠScript":10162,"testcontainers":10163,"AbstractJUnitTestClassProcessor":10164,"AbstractScopedSettings":10165,"Prov":10166,"1113":10167,"Testing":10168,"UILookup":10169,"ParMulti":10170,"TransportWriteAction":10171,"createContext":10172,"IndexFieldData":10173,"Ġprofiles":10174,"IOUtil":10175,"BuildActionExecuter":10176,"295":10177,"Ġwasn":10178,"DelegatingConstructorAccessorImpl":10179,"KafkaTimer":10180,"AndRecord":10181,"15228095":10182,"startApplication":10183,"ĠInstall":10184,"DispatchWrapper":10185,"handleProcess":10186,"0000003":10187,"CommandExecution":10188,"Ġautocon":10189,"ClusterApplierService":10190,"Ġchangelog":10191,"740000003":10192,"BlockInputStream":10193,"DataflowRunner":10194,"Preempt":10195,"Ġkill":10196,"Matchers":10197,"precated":10198,"offsets":10199,"Ġcommands":10200,"Fires":10201,"ĠXML":10202,"ĠSELECT":10203,"collectFires":10204,"proto":10205,"Ġsignificant":10206,"Ġdeployed":10207,"MergerSupport":10208,"Ġmoving":10209,"describe":10210,"notifyListener":10211,"DaemonCommandExecution":10212,"SequenceNumber":10213,"ActiveMQConnectionFactory":10214,"ĠÐ½Ð°Ð¿Ð¾Ð»ÑĮÐ½ÑĭÐµ":10215,"DefinitionsParser":10216,"ConcurrentModificationException":10217,"BPlusTree":10218,"UILookupMergerSupport":10219,"ParMultiDo":10220,"PreemptableControllerEvent":10221,"\"/>":10222,"537":10223,"Light":10224,"Mig":10225,"WV":10226,"ZS":10227,"oader":10228,"sign":10229,"ocity":10230,"exist":10231,"permedia":10232,"Ġos":10233,"structur":10234,"Ġreflect":10235,"1013":10236,"Ġhence":10237,"AbstractFetcherManager":10238,"getDeclaredMethods":10239,"1508":10240,"Ġpriority":10241,"Ġ06":10242,"TestDriver":10243,"RequestContext":10244,"ificate":10245,"Defer":10246,"ippet":10247,"472":10248,"856":10249,"syncing":10250,"Ġjena":10251,"...]":10252,"398":10253,"BeanFactoryInitialization":10254,"gradlew":10255,"Ġsomeone":10256,"Ġ42":10257,"bci":10258,"startup":10259,"Resolv":10260,"ĠUN":10261,"Reloader":10262,"Ġconnected":10263,"eeded":10264,"IntegrationMBeanExporter":10265,"ConditionalOnMissing":10266,"Ġeasy":10267,"Ġdeprecation":10268,"glassfish":10269,"finishBeanFactoryInitialization":10270,"ĠService":10271,"NoSuchBeanDefinitionException":10272,"Ġquickly":10273,"segments":10274,"UsernamePassword":10275,"Ġinfinite":10276,"$_":10277,"751":10278,"822":10279,">,":10280,"DI":10281,"DAT":10282,"Jetty":10283,"JComponent":10284,"LLOW":10285,"SASL":10286,"TD":10287,"fq":10288,"snap":10289,"ĠOR":10290,"ĠYou":10291,"Ġnative":10292,"coordinates":10293,"conflu":10294,"sumed":10295,"versions":10296,"irst":10297,"Behav":10298,"omit":10299,"Ġexplanation":10300,"TestTask":10301,"ĠFirst":10302,"Queri":10303,"ĠBoth":10304,"Ġgh":10305,"3685":10306,"0100":10307,"WorkerSinkTask":10308,"NodeTestTask":10309,"KeySequenceNumber":10310,"Ġcontinue":10311,"ĠDisco":10312,"574":10313,"ĠRDF":10314,"MessageSource":10315,"Ġrestored":10316,"768":10317,"ĠiPhone":10318,"Ġflaky":10319,"LOGICAL":10320,"LifecycleProcessor":10321,"Protobuf":10322,"Ġleading":10323,"ĠassertEquals":10324,"Ġprovider":10325,"Appenders":10326,"ReportValve":10327,"NestedCondition":10328,"Ġmerged":10329,"Instantiator":10330,"Ġwarnings":10331,"VirtualFilterChain":10332,"ĠLevel":10333,"divid":10334,"LegacyThreadSetupAction":10335,"ĠHalting":10336,"Querier":10337,"ĠDiscourse":10338,"LegacyThreadSetupActionWrapper":10339,"437":10340,"737":10341,"741":10342,"Language":10343,"MO":10344,"PAR":10345,"gh":10346,"gz":10347,"look":10348,"rw":10349,"ĠExpected":10350,"Ġ(#":10351,"odot":10352,"thymeleaf":10353,"exer":10354,"aves":10355,"Ġsock":10356,"Ġdates":10357,"ummy":10358,"ĠSup":10359,"Ġhdfs":10360,"Threads":10361,"Facet":10362,"ĠTable":10363,"doElect":10364,"Ġresolver":10365,"Ġgist":10366,"ĠĠĠĠĠĠĠĠĠĠĠĠĠĠĠĠĠĠĠĠĠĠĠĠĠĠĠĠĠĠĠĠĠĠĠĠĠĠĠĠĠĠĠĠĠĠĠĠĠĠĠ":10367,"ĠJob":10368,"Ġuncaught":10369,"ByQuery":10370,"Dispose":10371,"Coyote":10372,"Ġexecutes":10373,"Interruptib":10374,"vision":10375,"checkFor":10376,"StandardService":10377,"initial":10378,"olves":10379,"ĠVAL":10380,"YELLOW":10381,"Ġreplacing":10382,"Ġsucceeds":10383,"Ġcompatibility":10384,"Looking":10385,"aius":10386,"Hypermedia":10387,"Ġcorresponding":10388,"doElectLeaderForPartitions":10389,")\"":10390,"756":10391,"IRM":10392,"MIL":10393,"OLOG":10394,"RuS":10395,"WT":10396,"bCK":10397,"dwsE":10398,"flyway":10399,"jor":10400,"lines":10401,"mut":10402,"mClassGenerator":10403,"rect":10404,"sd":10405,"ĠÂłčĊ":10406,"Ġ((":10407,"atlas":10408,"stion":10409,"obile":10410,"atever":10411,"consist":10412,"images":10413,"Ġthrott":10414,"Conf":10415,"TaskBatcher":10416,"ĠMess":10417,"Ġsugg":10418,"ĠAg":10419,"ToInternalFactory":10420,"Ġgetter":10421,"ProviderToInternalFactory":10422,"bounded":10423,"IdSet":10424,"ĠDarwin":10425,"ServerSideTranslatorPB":10426,"Ġunn":10427,"builders":10428,"python":10429,"ATAL":10430,"NextPhase":10431,"ĠLTS":10432,"filesystem":10433,"ContentNegoti":10434,"NioWorker":10435,"TimeMillis":10436,"Ġlisted":10437,"AsmClassGenerator":10438,"Grouping":10439,"MonoOnAssembly":10440,"TreeScanner":10441,"StandardHost":10442,"Ġminimal":10443,"Ġminimum":10444,"protocols":10445,"Ġwrites":10446,"Ignition":10447,"Ġblobs":10448,"Ġreproduction":10449,"GenericCli":10450,"Ġmanifest":10451,"YEIRM":10452,"UnixFileSystemProvider":10453,"CachingUsernamePassword":10454,"Like":10455,"Ġwildcards":10456,"dsyer":10457,"Ġsemi":10458,"Ġrelies":10459,"Ġaffects":10460,"FnApiDoFnRunner":10461,"ĠThrowable":10462,"itespace":10463,"ConditionalOnMissingBean":10464,"MILLI":10465,"OLOGY":10466,"RuSdwsE":10467,"Ġsuggested":10468,"ProviderToInternalFactoryAdapter":10469,"YEIRMRuSdwsE":10470,"CachingUsernamePasswordRealm":10471,"523":10472,"@%":10473,"AQ":10474,"Buf":10475,"Disk":10476,"TW":10477,"[(":10478,"]-":10479,"dsl":10480,"fab":10481,"gw":10482,"yQ":10483,"})":10484,"Ġpos":10485,"ats":10486,"ulated":10487,"unassigned":10488,"Ġindivid":10489,"upiter":10490,"agent":10491,"headers":10492,"Reentrant":10493,"Ġcomm":10494,"ClassName":10495,"22337":10496,"ĠNB":10497,"hostname":10498,"658":10499,"Form":10500,"HttpHeaders":10501,"Ready":10502,"EndpointMBeanExporter":10503,"ĠOOM":10504,"Messages":10505,"672":10506,"OperationException":10507,"Ġ'{}'":10508,"Space":10509,"Prepared":10510,"transformUp":10511,"\"}},":10512,"Matching":10513,"Ġordering":10514,"MetricRepository":10515,"ĠAnt":10516,"DOWN":10517,"Ġdescribing":10518,"Ġappropriate":10519,"Ġbeginning":10520,"ĠSteps":10521,"Ġdevelopment":10522,")},":10523,"/#":10524,"527":10525,"612":10526,"Duration":10527,"Lucene":10528,"built":10529,"duration":10530,"hamcrest":10531,"qT":10532,"zero":10533,"Ġ``":10534,"ĠFactory":10535,"entry":10536,"declarative":10537,"elf":10538,"Ġrole":10539,"Incorrect":10540,"linePartition":10541,"Ġdialog":10542,"Ġbr":10543,"Ġ});":10544,"licies":10545,"acks":10546,"runTests":10547,"ower":10548,"AbstractTestContextBootstrapper":10549,"ubles":10550,"pects":10551,"indexName":10552,"ContextFactory":10553,"806":10554,"Requests":10555,"REAM":10556,"ServiceClient":10557,"month":10558,"ibbon":10559,"STREAM":10560,"ĠBar":10561,"ErrorReportValve":10562,"FileContext":10563,"states":10564,"Ġrecom":10565,"ETCH":10566,"PipelineOptions":10567,"582":10568,"62342":10569,"Ġreproduced":10570,"AnnotationParser":10571,"20141110":10572,"Ġoverflow":10573,"Ġattach":10574,"Ġdatas":10575,"dirt":10576,"StandardScheme":10577,"SpringBootTest":10578,"pressure":10579,"Ġthought":10580,"Ġleadership":10581,"ĠOnlinePartition":10582,"ZookeeperDiscovery":10583,"Desc":10584,"RefreshAutoConfiguration":10585,"AbstractNioWorker":10586,"RxJava":10587,"InjectorImpl":10588,"ĠGraph":10589,"AnnotationConfigApplicationContext":10590,"Ġdeadlock":10591,"Volume":10592,"optional":10593,"XceiverClientGrpc":10594,"ĠMessage":10595,"'{":10596,"407":10597,"717":10598,"MAP":10599,"['":10600,"`](":10601,"aits":10602,"ks":10603,"king":10604,"xc":10605,"Ġframework":10606,"ĠRec":10607,"enter":10608,"thers":10609,"explanation":10610,"asd":10611,"rok":10612,"RequestBuilder":10613,"ĠTer":10614,"034":10615,"Uncaught":10616,"Unchecked":10617,"Ġdeal":10618,"doInvoke":10619,"achines":10620,"StreamListenerImpl":10621,"Ġ58":10622,"391":10623,"DefaultModel":10624,"571":10625,"ĠRUNN":10626,"Ġpermission":10627,"Ġdisconnect":10628,"779":10629,"refreshContext":10630,"icky":10631,"Ġrequiring":10632,"adminclient":10633,"DependencyInjection":10634,"Ġrecovered":10635,"Expiration":10636,"YEAR":10637,"Ġsupplied":10638,"Ġpublished":10639,"Ġtribe":10640,"micrometer":10641,"ĠRegister":10642,"DependencyInjectionTestExecutionListener":10643,"386":10644,"752":10645,"Amer":10646,"Built":10647,"Font":10648,"KX":10649,"Schedulers":10650,"TSaslTransport":10651,"cut":10652,"du":10653,"fast":10654,"fuseki":10655,"hand":10656,"iro":10657,"ls":10658,"multicast":10659,"rx":10660,"§ÐµÑ":10661,"Ð§ÐµÑ":10662,"Ġĉĉ":10663,"ĠLoc":10664,"ĠParse":10665,"ħÐ¾":10666,"Ġ()":10667,"inary":10668,"Ġconfir":10669,"isEqualTo":10670,"rospec":10671,"ĠĠĠĠĠĠĠĠčĊ":10672,"Ġincompatible":10673,"Ġtid":10674,"Ġ[/*":10675,"ThreadLeak":10676,"span":10677,"keys":10678,"SearchQuery":10679,"()`.":10680,"BeanProperty":10681,"923":10682,"appy":10683,"ifications":10684,"ClientZookeeper":10685,"outer":10686,"ĠMain":10687,"Ġgrow":10688,"858":10689,"msg":10690,"registr":10691,"Ġ5000":10692,"Ġclassloader":10693,"DefaultMaven":10694,"877":10695,"BaseAsyncAction":10696,"Ġunsupported":10697,"ATCH":10698,"ExecutionService":10699,"AutoConfigurationTests":10700,"588":10701,"ĠEX":10702,"Verify":10703,"Ġaccepted":10704,"++)":10705,"MonoPeek":10706,"ReplicationOperationAction":10707,"Ġwrongly":10708,"2001":10709,"ILM":10710,"ScoreFunction":10711,"vTools":10712,"Ġ30012":10713,"ConcurrentMerge":10714,"partitions":10715,"TransportSearchAction":10716,"Ġraised":10717,"Ġstores":10718,"Ġinstallation":10719,"Ġclauses":10720,"TransportShardReplicationOperationAction":10721,"ĠOpenJDK":10722,"consumeBatch":10723,"RpcEngine":10724,"Sniff":10725,"Ġoverrides":10726,"SimpleChannelInboundHandler":10727,"Ġguarantee":10728,"ĠCreating":10729,"PLAINTEXT":10730,"GSSContextImpl":10731,"ProtobufRpcEngine":10732,"Ð§ÐµÑħÐ¾":10733,"ThreadLeakControl":10734,"ConcurrentMergeScheduler":10735,"Ð§ÐµÑħÐ¾Ð»":10736,"421":10737,"Calc":10738,"MA":10739,"Math":10740,"_.":10741,"auge":10742,"cap":10743,"ha":10744,"lack":10745,"most":10746,"nL":10747,"via":10748,"Ñģ":10749,"Ġ80":10750,"stage":10751,"igso":10752,"forPath":10753,"Ġleaves":10754,"Ġinject":10755,"illi":10756,"Ġ\"<":10757,"Ġothers":10758,"Ġdump":10759,"Ġreader":10760,"Ġcross":10761,"Present":10762,"getName":10763,"ProcessorContextImpl":10764,"Ġdetermin":10765,"ĠMatch":10766,"Ġjunit":10767,"Ġyield":10768,"Ġ569":10769,"Ġsuspect":10770,"OnPrimary":10771,"Ġquerying":10772,"ĠJRE":10773,"ĠOther":10774,"Transfer":10775,"Ġven":10776,"675":10777,"Registrar":10778,"763":10779,"Marker":10780,"Ġids":10781,"Ġimprove":10782,"DocumentParser":10783,"Ġaggregate":10784,"Where":10785,"Ġstreaming":10786,"UNT":10787,"Ġobserver":10788,"OperatorDeployInfo":10789,"Ġhigher":10790,"Ġpassing":10791,"authenticator":10792,"Ġlocked":10793,"MPTY":10794,"TRACE":10795,"Ordinary":10796,"Aliases":10797,"AnnotationConfigEmbeddedWebApplicationContext":10798,"Ġapproach":10799,"Opts":10800,"Poll":10801,"preted":10802,"Usage":10803,"Ġcopied":10804,"Ġdelegation":10805,"PHPStan":10806,"Ġ56967":10807,"OrdinaryObject":10808,"522":10809,"549":10810,"725":10811,"FT":10812,"Has":10813,"JP":10814,"Layer":10815,"Txn":10816,"YARN":10817,"fdd":10818,"hierarchical":10819,"mail":10820,"Ġeditor":10821,"Ġstatements":10822,"erberos":10823,"stances":10824,"inline":10825,"coordinator":10826,"declare":10827,"Install":10828,"Ġdig":10829,"Ġfont":10830,"Repackage":10831,"runUser":10832,"TaskExecuter":10833,"what":10834,"currentTimeMillis":10835,"Enum":10836,"Dead":10837,"synonym":10838,"doOn":10839,"Ġlucene":10840,"roles":10841,"Ġcourse":10842,"DefaultLifecycleProcessor":10843,"NodeFunction":10844,"TypeSafe":10845,"parseInner":10846,"998":10847,"FieldType":10848,"Ġchecksum":10849,"Question":10850,"Partitioned":10851,"Ġhead":10852,"END":10853,"deviation":10854,"Ġoutputs":10855,"Ġadjust":10856,"LoggerConfig":10857,"MatchNoDocsQuery":10858,"Expressions":10859,"wrappers":10860,"Product":10861,"XMLSchema":10862,"Assignment":10863,"sniff":10864,"MojoExecutor":10865,"ĠStopping":10866,"Ġtimers":10867,"Ġmistake":10868,"runUserAction":10869,"TypeSafeNodeFunction":10870,"Gd":10871,"HJ":10872,"Herder":10873,"OUT":10874,"Zy":10875,"math":10876,"ĠFilter":10877,"Ġ8080":10878,"lim":10879,"strategy":10880,"Ġscm":10881,"203685":10882,"ebian":10883,"ĠCount":10884,"479":10885,"StateHandler":10886,"1098":10887,"096":10888,"861":10889,"Upgra":10890,"ĠĠĠĠĠĠĠĠĠĠĠĠĠĠĠĠĠĠĠĠĠĠĠĠĠĠĠĠĠĠĠĠĠĠĠĠĠĠĠĠĠĠĠĠĠĠĠĠĠĠĠĠĠĠ":10891,"Locally":10892,"Ġrecently":10893,"SingleOperationAction":10894,"username":10895,"Ġsupports":10896,"ĠRefresh":10897,"ĠKafkaSpout":10898,"Ġinitializing":10899,"operation":10900,"Urls":10901,"InputFormat":10902,"Ġloss":10903,"Ġreproducible":10904,"ESTAMP":10905,"Ġapplying":10906,"Ġstorage":10907,"InnerHits":10908,"ĠConsider":10909,"Ġpicked":10910,"Ġsecure":10911,"processSelectedKeysPlain":10912,"Ġregistration":10913,"slowlog":10914,"22337203685":10915,"ĠĠĠĠĠĠĠĠĠĠĠĠĠĠĠĠĠĠĠĠĠĠĠĠĠĠĠĠĠĠĠĠĠĠĠĠĠĠĠĠĠĠĠĠĠĠĠĠĠĠĠĠĠĠĊ":10916,"2233720368547":10917,".`":10918,"557":10919,"727":10920,"AE":10921,"DemoApplication":10922,"Goto":10923,"Purgatory":10924,"Ratis":10925,"TServiceClient":10926,"bg":10927,"cell":10928,"dac":10929,"iot":10930,"land":10931,"mV":10932,"picker":10933,"}/":10934,"Ġinvocation":10935,"Ġparam":10936,"Ġenum":10937,"arqu":10938,"item":10939,"parently":10940,"clinit":10941,"universal":10942,"Ġinconsist":10943,"Inf":10944,"Ġcir":10945,"ĠIter":10946,"ĠSlot":10947,"spaces":10948,"():":10949,"][\\":10950,"Ġevaluate":10951,"IOReactor":10952,"329":10953,"491":10954,"ErrorHandling":10955,"282":10956,"396":10957,"ĠHibernate":10958,"Ġsearches":10959,"mysql":10960,"15228084":10961,"projectOpened":10962,"679":10963,"Ġfixing":10964,"OperationReaper":10965,"OperationPurgatory":10966,"Ġabsolute":10967,"ĠUniversal":10968,"60199":10969,"checksum":10970,"Ġblocked":10971,"AbstractApplicationContextRunner":10972,"Ġ{\"_":10973,"Checked":10974,"MetaClass":10975,"deleted":10976,"Outputs":10977,"eserve":10978,"ĠĠĠĠĠĠĠĠĠĠĠĠĠĠĠĠĠĠĠĠĠĠĠĠĠĠĠĠĠĠĠĠĠĠĠĠĠĠĠĠĠĠĠĠĠĠĠĠĠĠĠĠĠĠĠĠĠĠĠĠĠĠĠĠĠĠĠĠĠĠĠĠĠĠĠĠĠĠĠĠĠĠĠĠĠĠĠĠĠĠĠĠĠĠĠĠĠĠĠĠĠĠĠĠĠĠĠĠĠĠĠĠĠĠĠĠĠĠĠĠĠĠĠĠĠĠĠĠ":10979,"RestoreContext":10980,"KeyValueBytesStore":10981,"ClusterStateImpl":10982,"MemoryError":10983,"Ġimported":10984,"secret":10985,"IZE":10986,"Roles":10987,"shrinkwrap":10988,"PartialFunction":10989,"Ġsessionid":10990,"createBeanInstance":10991,"compatibility":10992,"JmxMBeanServer":10993,"ffic":10994,"ffffff":10995,"descriptor":10996,"fying":10997,"UserTaskAction":10998,"ĠDoFnInfo":10999,"Ġtiming":11000,"02077":11001,"StandardContextValve":11002,"ITestS":11003,"ExpiredOperationReaper":11004,"DelayedOperationPurgatory":11005,"ĠSerialized":11006,"NamesForType":11007,"stamps":11008,"Ġ15602077":11009,"VeryPretty":11010,"ExpirationReaper":11011,"illian":11012,"arquillian":11013,".\\":11014,"464":11015,"436":11016,"=_":11017,"Mail":11018,"Pooled":11019,"Render":11020,"Sun":11021,"Xp":11022,"YQ":11023,"ZW":11024,"]).":11025,"jupiter":11026,"rf":11027,"since":11028,"ycl":11029,"ĠRest":11030,"ĠCollections":11031,"decider":11032,"Ġlearn":11033,"isEmpty":11034,"truststore":11035,"Ġ<=":11036,"Ġ\"--":11037,"Ġalong":11038,"pom":11039,"adc":11040,"upgrade":11041,"Ġoperators":11042,"heartbeat":11043,"irely":11044,"Ġisol":11045,"Replace":11046,"SearchPhaseExecutionException":11047,"region":11048,"Ġjavascript":11049,"SpringLiquibase":11050,"HttpSolrClient":11051,"ĠDO":11052,"577":11053,"processEvent":11054,"transient":11055,"Mappings":11056,"NioByte":11057,"PluginCommand":11058,"Ġdisclose":11059,"ancel":11060,"activemq":11061,"fromIterable":11062,"ByteSize":11063,"Ġocc":11064,"Ġentirely":11065,"Docker":11066,"Ġproduction":11067,"Ġformatted":11068,"runAndClean":11069,"Member":11070,"Topics":11071,"Instantiate":11072,"Assigned":11073,"Ġrows":11074,"ulnerabilities":11075,"Ġresponsibly":11076,"IGNED":11077,"ĠStatus":11078,"ĠLiquibase":11079,"Bounded":11080,"USTER":11081,"Ġdiagnose":11082,"NioByteUnsafe":11083,"%],":11084,"544":11085,"597":11086,"591":11087,"DAY":11088,"HOST":11089,"SIZE":11090,"Ġzone":11091,"onSubscribe":11092,"account":11093,"poi":11094,"Ġsafe":11095,"Ġ188":11096,"Req":11097,"According":11098,"1244":11099,"ĠSample":11100,"Seed":11101,"ActionFuture":11102,"Ġprior":11103,"926":11104,"929":11105,"Ġstuff":11106,"IndexName":11107,"ĠWorker":11108,"ConfigurationMetadata":11109,"489":11110,"Else":11111,"Ids":11112,"Ġproblematic":11113,"ĠLook":11114,"Ġ1024":11115,"Ġaccident":11116,"EnvironmentAware":11117,"Ġdatafeed":11118,"MetricsAutoConfiguration":11119,"Ġentity":11120,"graphics":11121,"Ġstrict":11122,"Ġhadoop":11123,"Ġwebapp":11124,"ĠStreamThread":11125,"Ġearly":11126,"Alias":11127,"Ġconsistently":11128,"Toolbar":11129,"123456":11130,"Ġscreenshot":11131,"Activity":11132,"Ġinternally":11133,"Ġindividual":11134,"ĠLocated":11135,"Ġ[/*]":11136,"EnvironmentAwareCommand":11137,"Eureka":11138,"GV":11139,"HR":11140,"Ny":11141,"Pop":11142,"UUID":11143,"VI":11144,"Vt":11145,"bash":11146,"birth":11147,"css":11148,"family":11149,"gA":11150,"len":11151,"middle":11152,"ymb":11153,"ĠUtils":11154,"ĠDelete":11155,"iner":11156,"decoder":11157,"orld":11158,"classic":11159,"ĠĠĠĠĠĠĠĠĊ":11160,"Ġsw":11161,"Ġscheduled":11162,"Exclude":11163,"uss":11164,"1048":11165,"1065":11166,"TestReference":11167,"paque":11168,"invokeMethod":11169,"Ġdepending":11170,"ĠCent":11171,"Ġcost":11172,"phere":11173,"855":11174,"086":11175,"FileNotFoundException":11176,"junitcore":11177,"Ġunique":11178,"ĠON":11179,"884":11180,"eiver":11181,"availability":11182,"Ġminute":11183,"Ġusu":11184,"beanNameViewResolver":11185,"15228048":11186,"initializeBean":11187,"CompletionListener":11188,"Ġcomments":11189,"Ġaccepts":11190,"PutContext":11191,"Ġidentical":11192,"ASSIGNED":11193,"aggregation":11194,"createAndPutContext":11195,"223372036854775":11196,"middleware":11197,"ymbol":11198,"$.":11199,"010":11200,"532":11201,"604":11202,"818":11203,"896":11204,"Djava":11205,"Dfs":11206,"Feb":11207,"Ht":11208,"JR":11209,"JTabbedPane":11210,"Rules":11211,"WHERE":11212,"^^":11213,"aTestRunner":11214,"dot":11215,"dates":11216,"hikari":11217,"kexpansions":11218,"loop":11219,"mi":11220,"Â»":11221,"Ġfinally":11222,"enzo":11223,"alse":11224,"objectfile":11225,"price":11226,"icu":11227,"apkexpansions":11228,"Ġtool":11229,"Ġsingleton":11230,"readOrdinaryObject":11231,"Ġ150":11232,"Ġreached":11233,"Ġmusic":11234,"ĠSession":11235,"ĠSASL":11236,"anges":11237,"Tracker":11238,"ClassModel":11239,"ClassCodeVisitorSupport":11240,"TestRestTemplate":11241,"928":11242,"preInstantiate":11243,"ChannelFile":11244,"SearchPhaseController":11245,"1814":11246,"JavaKeyStore":11247,"ĠCO":11248,"493":11249,"Ġbutton":11250,"ErrorController":11251,"DataFrame":11252,"Ġsum":11253,"ToTarget":11254,"DefaultHttpHeaders":11255,"ĠĠĠĠĠĠĠĠĠĠĠĠĠĠĠĠĠĠĠĠĠĠĠĠĠĠĠĠĠĠĠĠĠĠĠĠĠĠĠĠĠĠĠ":11256,"KeyedState":11257,"ĠDocument":11258,"ĠGiven":11259,"PipelineFuser":11260,"Transact":11261,"ResultImpl":11262,"584":11263,"WrapperValve":11264,"BlobSynchronizer":11265,"LocalCluster":11266,"UpdateRequest":11267,"Ġplay":11268,"JUnitStarter":11269,"Ġbackend":11270,"Ġqual":11271,"mapFont":11272,"ĠThen":11273,"Ġdatanode":11274,"BufferChannelFile":11275,"TreeMap":11276,"StandardWrapperValve":11277,"Ġshowing":11278,"BulkScorer":11279,"subscribeOn":11280,"okie":11281,"AuthenticatorBase":11282,"AuthenticationManager":11283,"StackOverflowError":11284,"OzoneManagerRequestHandler":11285,"ReplicaFetcherThread":11286,"CompilerOptionsQueryMerger":11287,"Ġgraphs":11288,"HeapKeyedState":11289,"NodeTableNative":11290,"Sniffer":11291,"Ġintroducing":11292,"attach":11293,"XContentParserUtils":11294,"OzoneManagerProtocolServerSideTranslatorPB":11295,"IdeaTestRunner":11296,"VirtualHostImpl":11297,"Ġ2147483647":11298,"StandardEngineValve":11299,"GreedyPipelineFuser":11300,"CoyoteAdapter":11301,"StandardHostValve":11302,"IgnitionEx":11303,"preInstantiateSingletons":11304,"HeapKeyedStateBackend":11305,"()));":11306,"439":11307,"539":11308,"686":11309,"DONE":11310,"Ok":11311,"Sphere":11312,"TG":11313,"XD":11314,"fuzzy":11315,"Ġillegal":11316,"member":11317,"Ġnb":11318,"abs":11319,"Ġconcrete":11320,"classloader":11321,"Ġsizes":11322,"Exit":11323,"prop":11324,"Ġexperi":11325,"Ġprio":11326,"Unique":11327,"ĠWork":11328,"JavaCompiler":11329,"ĠCache":11330,"executeNextPhase":11331,"Ġweight":11332,"names":11333,"Upgrade":11334,"Introspec":11335,"resolver":11336,"Ġrestoring":11337,"Internals":11338,"endpoints":11339,"Commands":11340,"VersionUID":11341,"Ġmodified":11342,"CLUSTER":11343,"handlers":11344,"SimpleUrl":11345,"UnknownFields":11346,"Transformer":11347,"Ġadvance":11348,"DocIdSet":11349,"Ġservices":11350,"Ġinterrupt":11351,"].[":11352,"summary":11353,"Ġparents":11354,"Ġserialized":11355,"Describe":11356,"brown":11357,"Ġmanual":11358,"Ġlarger":11359,"MockMvc":11360,"ElasticsearchIOTest":11361,"America":11362,"223372036854775807":11363,"SimpleUrlHandlerMapping":11364,"625":11365,"987":11366,"Cas":11367,"Cross":11368,"EOF":11369,"uk":11370,"ãģ":11371,"Ġ${":11372,"ĠCombine":11373,"Ġnid":11374,"alone":11375,"locale":11376,"compress":11377,"android":11378,"Ġ149":11379,"2011":11380,"getResource":11381,"SearchContext":11382,"Ġexpects":11383,"TaskTransportChannel":11384,"ebdac":11385,"Ġpress":11386,"Ġprints":11387,"RunBefore":11388,"1369":11389,"ChannelInbound":11390,"ĠFuseki":11391,"JavaCut":11392,"ĠCREATE":11393,"ĠNone":11394,"451":11395,"ĠMockito":11396,"Ġfollowed":11397,"DefaultIcon":11398,"mainWithout":11399,"LogEvent":11400,"EndPoint":11401,"EndpointRequest":11402,"RecoveryTransportRequestHandler":11403,"MessageBus":11404,"Ġremoving":11405,"NimbusBlobStore":11406,"ĠRemove":11407,"ualDiff":11408,"Ġaren":11409,"StartRecoveryTransportRequestHandler":11410,"ExporterSpi":11411,"ConfigurationClassEnhancer":11412,"Ġmaximum":11413,"JsonResponseException":11414,"ExpressionResolver":11415,"Roots":11416,"andidates":11417,"AnalyzerProvider":11418,"GoogleJsonResponseException":11419,"ConditionalOnProperty":11420,"ForkJoin":11421,"Ġsmaller":11422,"Ġkeeps":11423,"DiscoveryClient":11424,"annotateIcon":11425,"DistributedUpdateProcessor":11426,"authenticateAsync":11427,"Ġedit":11428,"Ġdiscussion":11429,"Configurable":11430,"ĠSLF":11431,"NaN":11432,"Ġcircum":11433,"SeedInfo":11434,"CasualDiff":11435,"ChannelInboundHandlerAdapter":11436,"JavaCutAction":11437,"DefaultIconButton":11438,"mainWithoutErrorHandling":11439,"*\"":11440,"541":11441,"620":11442,"616":11443,"758":11444,"<>(":11445,"ARE":11446,"BAL":11447,"Lat":11448,"Selection":11449,"gq":11450,"xD":11451,"zilla":11452,"Ġcloud":11453,"algorithm":11454,"external":11455,"quota":11456,"Ġincomplete":11457,"Ġwaits":11458,"1049":11459,"ĠShould":11460,"ĠSep":11461,"AbstractLogger":11462,"Ġcompression":11463,"1353":11464,"flatMap":11465,"RequestFilterChain":11466,"][/":11467,"Deferred":11468,"Ġdeliver":11469,"648":11470,"Ġlayer":11471,"Ġ52":11472,"Ġ55":11473,"cludes":11474,"ĠGMT":11475,"ReadWrite":11476,"Endpoints":11477,"ĠRoot":11478,"servlets":11479,"ĠInternal":11480,"ITE":11481,"transfer":11482,"0000000":11483,"backends":11484,"matchAll":11485,"ĠURLs":11486,"IndexShardRestoreFailedException":11487,"Ġdiff":11488,"fnexecution":11489,"Aggregators":11490,"ĠKotlin":11491,"Serial":11492,"Ġbuilding":11493,"ModuleClassLoader":11494,"============":11495,"Ġadver":11496,"ArrayListSpliterator":11497,"ÂłÂłÂłÂłÂłÂłÂłÂłÂłÂłÂłÂłÂłÂłÂłÂłÂłÂłÂłÂłÂłÂłÂłÂłÂłÂłÂł":11498,"JsonGenerator":11499,"reload":11500,"multiple":11501,"Ġextension":11502,"Ġmajor":11503,"Ġpreced":11504,"Ġprecision":11505,"Ġpotential":11506,"ServletWebServerFactory":11507,"stdout":11508,"Ġtreated":11509,"Ġholds":11510,"freemarker":11511,"Style":11512,"Ġoriginally":11513,"Ġmilliseconds":11514,"TIONS":11515,"square":11516,"ouchbase":11517,"IfNeeded":11518,"registry":11519,"BALAN":11520,"*`":11521,"592":11522,"535":11523,"DV":11524,"NS":11525,"PTOperator":11526,"Reroute":11527,"Raft":11528,"YX":11529,"because":11530,"cen":11531,"fly":11532,"fbb":11533,"rist":11534,"ustr":11535,"vice":11536,"onApplicationEvent":11537,"oced":11538,"real":11539,"anodes":11540,"integTest":11541,"javadoc":11542,"Ġwatch":11543,"ourcen":11544,"Ġslight":11545,"Information":11546,"Ġctx":11547,"grades":11548,"ĠSelect":11549,"ĠSchema":11550,"Ġhint":11551,"ActionProviderImpl":11552,"Ġexamples":11553,"048":11554,"INCT":11555,"805":11556,"usters":11557,"Column":11558,"../":11559,"fair":11560,"Ġstarter":11561,"TransportAnalyze":11562,"createDirectory":11563,"ĠFlyway":11564,"ĠWait":11565,"ObjectStream":11566,"021":11567,"QueryIterator":11568,"857":11569,"ĠAm":11570,"2615":11571,"nummer":11572,"HttpServerTransport":11573,"ORK":11574,"ĠDuring":11575,"BaseBlobs":11576,"ĠGroup":11577,"573":11578,"AdapterActionFuture":11579,"Ġenv":11580,"ĠLocation":11581,"977":11582,"SSS":11583,"Ġidle":11584,"AsIOException":11585,"MonoIgnore":11586,"TransformExecutor":11587,"aether":11588,"2009":11589,"FunctionScore":11590,"Ġstops":11591,"DocLookup":11592,"FluxConcatMap":11593,"Changing":11594,"expired":11595,"Ġapplies":11596,"SLF":11597,"âĢĻ":11598,"Ġpatterns":11599,"ĠHiya":11600,"ĠDoes":11601,"Ġescape":11602,"COMMON":11603,"TraceFilter":11604,"datasourcen":11605,"PartialForwardingClientCallListener":11606,"Ġconverted":11607,"Timers":11608,"SendThread":11609,"appender":11610,"Ġdevice":11611,"ServerCallListener":11612,"refCount":11613,"rethrowAsIOException":11614,"Ġcircumstances":11615,"ocedure":11616,"TransportAnalyzeAction":11617,"ObjectStreamClass":11618,"datasourcenpe":11619,"'].":11620,"338":11621,"724":11622,"810":11623,":+":11624,"FKA":11625,"Hot":11626,"Mb":11627,"Pass":11628,"SU":11629,"VJ":11630,"VY":11631,"bolt":11632,"histo":11633,"ohn":11634,"yon":11635,"Ġ38":11636,"exit":11637,"lead":11638,"strength":11639,"modifiable":11640,"points":11641,"atingViewResolver":11642,"hancement":11643,"Ġdiscovered":11644,"20640":11645,"Ġreindex":11646,"Repack":11647,"Throttled":11648,"Ġmock":11649,"1064":11650,"Seq":11651,"pecially":11652,"RunWith":11653,"Ġcoming":11654,"2420640":11655,"flux":11656,"036":11657,"000019":11658,"UTDOWN":11659,"clientId":11660,"StateStorage":11661,"Ġsufficient":11662,"ĠAss":11663,"Ġtracking":11664,"StoreException":11665,"\\\"\"":11666,"mitt":11667,"sck":11668,"ByNodeAction":11669,"processRequest":11670,"Android":11671,"15228087":11672,"reeMarker":11673,"Calls":11674,"469":11675,"database":11676,"SecurityManager":11677,"15228106":11678,"Ġrelates":11679,"ĉĉĉĉĉĉ":11680,"Ġ9223372036854775807":11681,"Related":11682,"Whitelabel":11683,"Highlight":11684,"restoreShard":11685,"SSLHandshake":11686,"oterApplication":11687,"Ġdesign":11688,"ĠignoreUnknownFields":11689,"ĠOnly":11690,"ĠSearchParseException":11691,"Ġrecovering":11692,"1782420640":11693,"Ġmerging":11694,"Assertions":11695,"YEIR":11696,"StackTrace":11697,"Ġcapable":11698,"uzziness":11699,"IdleStateHandler":11700,"IRIResolver":11701,"Variable":11702,"TransportBroadcastByNodeAction":11703,"COLLECT":11704,"UnsupportedOperationException":11705,"unctu":11706,"Ġvenues":11707,"(*":11708,"=$":11709,"=\\\"":11710,"Bi":11711,"Gather":11712,"JS":11713,"Mq":11714,"tick":11715,"tuple":11716,"}.":11717,"ĠKey":11718,"ided":11719,"alf":11720,"alVersionUID":11721,"threshold":11722,"Ġrule":11723,"Ġconsum":11724,"role":11725,"004":11726,"Ġarrays":11727,"proved":11728,"Ġmath":11729,"Ġcompared":11730,"TransportIndexAction":11731,"tiles":11732,"Ġever":11733,"ObjectOutputStream":11734,"ErrorView":11735,"ipelines":11736,"SpringRunner":11737,"ĠPartition":11738,"\\\";":11739,"Locator":11740,"Ġsomebody":11741,"WithRetry":11742,"WithOpts":11743,"Ġrecreate":11744,"encoding":11745,"gear":11746,"Shape":11747,"xmlns":11748,"775":11749,"GlobalWindow":11750,"applyInternal":11751,"MapperParsingException":11752,"683":11753,"posting":11754,"WebMvcMetricsFilter":11755,"Ġinterrupted":11756,"Ġobtain":11757,"ClientCalls":11758,"Hosts":11759,"Ġdesired":11760,"serialize":11761,"ĠserialVersionUID":11762,"RetryLoop":11763,"Mouse":11764,"ReplicaManager":11765,"ĠYet":11766,"Ġshutting":11767,"MiniOzone":11768,"ĠFixes":11769,"TempFileResults":11770,"Ġdistance":11771,"AnalysisService":11772,"cano":11773,"ISTINCT":11774,"ĠDisposable":11775,"Ġconfiguring":11776,"Ġconflicts":11777,"sku":11778,"GatherTempFileResults":11779,"448":11780,"708":11781,"Below":11782,"Debug":11783,"Kv":11784,"Micro":11785,"Managers":11786,"PO":11787,"QTime":11788,"[<":11789,"[\\\"":11790,"ju":11791,"ople":11792,"xw":11793,"Ġact":11794,"ĠRuntimeException":11795,"Ġanswer":11796,"ĠAccept":11797,"Ġ(-":11798,"exporter":11799,"retrie":11800,"ung":11801,"illed":11802,"Ġbox":11803,"Ġcaller":11804,"Ġ`[":11805,"spanner":11806,"Ġcompound":11807,"Tested":11808,"ĠWAIT":11809,"doWith":11810,"STORM":11811,"ĠMore":11812,"}}'":11813,"Ġnewly":11814,"Ġlifecycle":11815,"ĠJul":11816,"Ġshape":11817,"Ġshared":11818,"eried":11819,"Ġpersist":11820,"Ġautocom":11821,"Ġquali":11822,"Ġqueried":11823,"Ġlisten":11824,"Customizers":11825,"Ġbroke":11826,"Ġportable":11827,"Ġstopping":11828,"Ġaccessed":11829,"Ġhandles":11830,"EmbeddedServletContainerAutoConfiguration":11831,"Ġhadn":11832,"waitUntil":11833,"Ġbrokers":11834,"ĠAdded":11835,"Parameters":11836,"FirstPhase":11837,"KAFKA":11838,"responseHeader":11839,"ĠNotice":11840,"Ġexpressions":11841,"ĠIllegalStateException":11842,"Outcomes":11843,"Ġretention":11844,"Authorizer":11845,"Ġ}{[":11846,"Resolvable":11847,"limiter":11848,"ĠWAITING":11849,"(+":11850,"*\\\",\\":11851,"603":11852,"632":11853,"Aio":11854,"BB":11855,"BM":11856,"Del":11857,"Destination":11858,"EE":11859,"Fsck":11860,"JECT":11861,"KTABLE":11862,"Rh":11863,"Ribbon":11864,"]\"}},\"":11865,"hS":11866,"iol":11867,"kb":11868,"Ġ88":11869,"ĠConsumer":11870,"Ġacked":11871,"Ġaver":11872,"ĠObserveOnSingleObserver":11873,"ĠPossible":11874,"incubator":11875,"abab":11876,"edic":11877,"composite":11878,"Ġ\"+":11879,"adoop":11880,"additional":11881,"aptor":11882,"Ġ{:":11883,"Ġfs":11884,"runInContext":11885,"1230":11886,"ĠId":11887,"AbstractOnSubscribe":11888,"AbstractAsyncFuture":11889,"AbstractPartialFunction":11890,"1500":11891,"logout":11892,"ChannelFuture":11893,"ChannelLink":11894,"ChannelReaper":11895,"cripted":11896,"FilterCache":11897,"FilterInstance":11898,"QueryWithout":11899,"WebGroup":11900,"AsyncChannelFuture":11901,"minimal":11902,"DefaultParDoFnFactory":11903,"KeyHandler":11904,"Ġupstream":11905,"BaseDel":11906,"ĠGeo":11907,"ReadCompletionListener":11908,"1522809":11909,"677":11910,"AppTest":11911,"Capabilities":11912,"GetKeyHandler":11913,"Ġdiscard":11914,"771":11915,"ancing":11916,"MBeanHelper":11917,"ĠReport":11918,"publishEvent":11919,"Ġwhereas":11920,"MonoDefer":11921,"arns":11922,"postings":11923,"894":11924,"Models":11925,"Ġdetection":11926,"Already":11927,"Ġinputs":11928,"HealthEndpoint":11929,"prepareTestInstance":11930,"shouldSkip":11931,"GenericContainer":11932,"StormClusterStateImpl":11933,"FlatMapMain":11934,"TransportSearchDfs":11935,"JarFileArchive":11936,"Jsse":11937,"Ġclusters":11938,"ImportSelector":11939,"TermsAggregator":11940,"NDQ":11941,"Ġdeployment":11942,"ĠYour":11943,"annotateName":11944,"Sorted":11945,"ConfigureUtil":11946,"Ġexiting":11947,"Ġmigr":11948,"UCCESS":11949,"ÂłÂłÂłÂłÂłÂłÂłÂłÂłÂłÂłÂłÂłÂłÂłÂłÂłÂłÂłÂłÂłÂłÂłÂłÂłÂłÂłÂłÂłÂłÂłÂłÂłÂłÂłÂłÂłÂłÂłÂłÂłÂłÂłÂłÂłÂłÂłÂłÂłÂłÂłÂłÂłÂłÂłÂłÂłÂłÂłÂłÂłÂłÂłÂł":11950,"OAuthBearer":11951,"FilteredQuery":11952,"DocumentMapperParser":11953,"Configurator":11954,"ĠDocker":11955,"WCChannelLink":11956,"GuardFsck":11957,"Ġpossibly":11958,"HikariDataSource":11959,"ozShell":11960,"Ġautodetected":11961,"filesystems":11962,"Ġcommun":11963,"multicastEvent":11964,"Ġslightly":11965,"ThrottledChannelReaper":11966,"gearpump":11967,"AioReadCompletionListener":11968,"FilterInstanceWrapper":11969,"BaseDelAction":11970,"TransportSearchDfsQueryThenFetchAction":11971,"433":11972,"506":11973,"698":11974,"865":11975,"966":11976,"Broker":11977,"FX":11978,"Fa":11979,"GC":11980,"Router":11981,"Watermark":11982,"aec":11983,"aight":11984,"linux":11985,"sys":11986,"Ġ35":11987,"Ġvolume":11988,"onRefresh":11989,"invalid":11990,"Ġconversion":11991,"Ġfielddata":11992,"separ":11993,"radi":11994,"javase":11995,"ĠĠĠčĊ":11996,"structing":11997,"Ġtools":11998,"Ġtables":11999,"Ġslot":12000,"Ġaudit":12001,"Ġrewrite":12002,"ĠSpec":12003,"ĠSkip":12004,"States":12005,"1545":12006,"ertificate":12007,"ĠCap":12008,"ĠNULL":12009,"DataFile":12010,"ĠPublish":12011,"ContainerBase":12012,"Double":12013,"Ġpopul":12014,"550":12015,"Flatten":12016,"Decode":12017,"Ġdefines":12018,"EnvironmentEndpoint":12019,"681":12020,"riding":12021,"ConfigurationPropertiesRebinder":12022,"DirectExecutorService":12023,"period":12024,"ĠClosing":12025,"ĠSearchStrategy":12026,"Ġcollect":12027,"Ġemail":12028,"Ġselected":12029,"!/,":12030,"lowercase":12031,"Ġleaks":12032,"ragments":12033,"ĠStopped":12034,"Ġskipped":12035,"Ġbasically":12036,"predicate":12037,"Submitter":12038,"FunctionScoreQuery":12039,"COLLECTION":12040,"Ġqualifying":12041,"(\\\"":12042,"548":12043,"885":12044,"985":12045,"957":12046,"967":12047,":--":12048,">.":12049,"Bag":12050,"BrokenConfigProperties":12051,"Catch":12052,"Cores":12053,"Ljava":12054,"YZ":12055,"bra":12056,"delta":12057,"languages":12058,"ĉĠ":12059,"Ġation":12060,"ĠCh":12061,"Ġ48":12062,"ĠIntel":12063,"Ġmalformed":12064,"enu":12065,"enode":12066,"ensor":12067,"atively":12068,"ecode":12069,"arily":12070,"icense":12071,"chy":12072,"Ġinser":12073,"lop":12074,"amenode":12075,"bef":12076,"Ġtitle":12077,"Ġsaw":12078,"Ġsink":12079,"InProcess":12080,"vers":12081,"Std":12082,"1536":12083,"803":12084,"1111":12085,"()`,":12086,"Fill":12087,"antMatchers":12088,"Unbounded":12089,"outed":12090,"000002":12091,"ĠNested":12092,"ResourceHttpRequestHandler":12093,"ARCH":12094,"hosts":12095,"Deleting":12096,"869":12097,"ForExisting":12098,"HttpExporter":12099,"closes":12100,"Ġmet":12101,"TypeChecking":12102,"notice":12103,"encing":12104,"440":12105,"Ġintention":12106,"ConfigEmbeddedWebApplicationContext":12107,"FieldCapabilities":12108,"Scalar":12109,"initSec":12110,"background":12111,"ĠĠĠĠĠĠĠĠĠĠĠĠĠĠčĊ":12112,"ĠUnknown":12113,"BlobStoreFormat":12114,"InfoClassPathImplementation":12115,"ProcessElement":12116,"ModuleInfoClassPathImplementation":12117,"IndicesFieldData":12118,"Ġguide":12119,"Cancellable":12120,"SSLConfiguration":12121,"ĠStarted":12122,"ConverterNotFoundException":12123,"BindingResult":12124,"atica":12125,"waitFor":12126,"Ġretried":12127,"ACTIVE":12128,"NestedConfigProperties":12129,"Buckets":12130,"submitRequest":12131,"=>:":12132,"Ġvarious":12133,"spective":12134,"UndertowEmbeddedServletContainerFactory":12135,"OnErrorResume":12136,"ĠPipelineOptions":12137,"LRU":12138,"Ġbrown":12139,"Ġremains":12140,"JCQueueTest":12141,"Ġconstructed":12142,"JenaSystem":12143,"singletonList":12144,"lookForExisting":12145,"MAPRED":12146,"BeanPropertyBindingResult":12147,"Ġadverti":12148,"MonoIgnoreThen":12149,"radius":12150,"ĠationConfigEmbeddedWebApplicationContext":12151,"TypeCheckingVisitor":12152,"initSecContext":12153,"IndicesFieldDataCache":12154,"lookForExistingAuthentication":12155,"/<":12156,"10000":12157,"726":12158,"Cell":12159,"Mk":12160,"[],":12161,"]'":12162,"cid":12163,"east":12164,"lVQ":12165,"nexmark":12166,"ske":12167,"sink":12168,"|}":12169,"Ġarch":12170,"ĠMetrics":12171,"stub":12172,"style":12173,"compare":12174,"permit":12175,"ĠĠĠĊ":12176,"Ġdied":12177,"lygon":12178,"ĠSending":12179,"ĠonError":12180,"AbstractXContentParser":12181,"Produce":12182,"under":12183,"ustache":12184,"Ġproduced":12185,"anted":12186,"synthetic":12187,"037":12188,"ClientStreamListenerImpl":12189,"lobally":12190,"doAs":12191,"Ġresolving":12192,"Ġlatter":12193,"029":12194,"StreamOutput":12195,"xyz":12196,"ĠAug":12197,"URRE":12198,"Ġseed":12199,"Upload":12200,"ĠPT":12201,"ĠPHP":12202,"scalar":12203,"LogCleaner":12204,"Restarter":12205,"ĠOff":12206,"Ġ31":12207,"Ġ30000":12208,"KafkaServer":12209,"15228055":12210,"Ġencode":12211,"Ġenabling":12212,"442":12213,"ĠLOG":12214,"foobar":12215,"Ġnear":12216,"Ġanyway":12217,"UserGroup":12218,"Apps":12219,"TargetException":12220,"loaders":12221,"Programs":12222,"GroupAlso":12223,"ĠThu":12224,"Ġcompaction":12225,"Prep":12226,"Functions":12227,"WebMvcConfiguration":12228,"lnBE":12229,"Supported":12230,"Which":12231,"Ġ256":12232,"ANS":12233,"Ġstraight":12234,"Offsets":12235,"stacktrace":12236,"ĠREBALAN":12237,"HashSet":12238,"OutOfMemoryError":12239,"Ġautowired":12240,"Ġimportant":12241,"Ġcleared":12242,"Ġdynamically":12243,"Ġrollover":12244,"ifferent":12245,"RedisAutoConfiguration":12246,"Ġindicate":12247,"JavaBinUpdateRequest":12248,"ĠBigQueryIO":12249,"Ġconflict":12250,"scaling":12251,"Platforms":12252,"XmlBeanDefinitionReader":12253,"metic":12254,"Ġpeople":12255,"ZKlVQ":12256,"AUTH":12257,"Ġqtp":12258,"checkForErrors":12259,"Gdh":12260,"XpVt":12261,"skearns":12262,"permitAll":12263,"UserGroupInformation":12264,"lnBEGdh":12265,"JavaBinUpdateRequestCodec":12266,"ZKlVQFu":12267,"XpVtZKlVQFu":12268,"518":12269,"838":12270,">\"":12271,">:":12272,"CR":12273,"Dhadoop":12274,"Ddt":12275,"False":12276,"\\.":12277,"]=":12278,"aaf":12279,"coder":12280,"dump":12281,"driver":12282,"distributed":12283,"fra":12284,"jw":12285,"rv":12286,"si":12287,"tb":12288,"tf":12289,"xz":12290,"Ã¤":12291,"Ġubuntu":12292,"peed":12293,"elcast":12294,"Ġindefin":12295,"Ġattributes":12296,"ago":12297,"Instant":12298,"filebase":12299,"face":12300,"Ġdistribution":12301,"terface":12302,"Ġaware":12303,"readAll":12304,"Ġmachines":12305,"1228":12306,"1269":12307,"ĠISO":12308,"Ġjavadoc":12309,"AbstractNestedCondition":12310,"undred":12311,"1138":12312,"1772":12313,"BeanInstanti":12314,"ASSP":12315,"ĠTASK":12316,"TransportFieldCapabilities":12317,"invokeFilters":12318,"recognized":12319,"ĠCall":12320,"QueryPF":12321,"ĠMBeans":12322,"ResourceRequestHandler":12323,"WebExceptionHandler":12324,"TextQueryPF":12325,"NodeLib":12326,"KeyInputStream":12327,"azelcast":12328,"568":12329,"Ġtimezone":12330,"autom":12331,"070":12332,"processResponse":12333,"projectui":12334,"ControllerTest":12335,"ĠvCores":12336,"Notifier":12337,"InternalIndexShard":12338,"PropertyAccessor":12339,"ÂłÂłÂłÂłÂłÂłÂłÂłÂłÂłÂłÂłÂłÂłÂł":12340,"Ġ149219":12341,"Ġusername":12342,"ĠFormat":12343,"ĠcontainerNode":12344,"Changelog":12345,"PROD":12346,"DirectTransformExecutor":12347,"Boost":12348,"LeaderEl":12349,"StreamingContainerParent":12350,"ĠignoreInvalid":12351,"Ġcontents":12352,"MemoryIndex":12353,"='/":12354,"Ġgeohash":12355,"registering":12356,"Nonblocking":12357,"XMLDocument":12358,"connections":12359,"Ġconnectors":12360,"Ġskipping":12361,"Ġdisplayed":12362,"Ġdelayed":12363,"ĠPlugin":12364,"Trusted":12365,"Ġreplicate":12366,"Placeholder":12367,"ConsumerGroupCommand":12368,"WhitelabelErrorView":12369,"URRENT":12370,"ĠPTContainer":12371,"filebasedfs":12372,"BeanInstantiationException":12373,"ASSPATH":12374,"ĠignoreInvalidFields":12375,"NonblockingServer":12376,"WhitelabelErrorViewConfiguration":12377,"517":12378,"691":12379,"9206":12380,":\",":12381,"EQ":12382,"Gss":12383,"Hibernate":12384,"HiddenHttpMethodFilter":12385,"Kb":12386,"Wal":12387,"fec":12388,"jon":12389,"rj":12390,"screen":12391,"Ġflow":12392,"stra":12393,"Ġrounding":12394,"ften":12395,"retries":12396,"anos":12397,"asList":12398,"urge":12399,"Ġincoming":12400,"Ġrepositories":12401,"finity":12402,"Ġanonymous":12403,"Ġping":12404,"Ġpush":12405,"TransportClient":12406,"DevTools":12407,"ĠFunction":12408,"EventLogger":12409,"Ġlat":12410,"timezone":12411,"executeLocally":12412,"470":12413,"Ġcoordin":12414,"Ġjolokia":12415,"streamId":12416,"560":12417,"Ġhasn":12418,"Ġmember":12419,"990":12420,"Ġ62":12421,"Ġbehave":12422,"Counting":12423,"Ġ70":12424,"Ġpersistent":12425,"Ġability":12426,"dbd":12427,"Serialization":12428,"PreCommit":12429,"Ġadmin":12430,"Highlighter":12431,"CustomizerBeanPostProcessor":12432,"related":12433,"FAILURE":12434,"Ġsubscriber":12435,"TransportShardSingleOperationAction":12436,"Ġmissed":12437,"SortBuilder":12438,"ĠOracle":12439,"Ġmaint":12440,"Ġtraffic":12441,"Ġcombination":12442,"Ġreplacement":12443,"Ġmeaning":12444,"Ġsensitive":12445,"AllocationService":12446,"incremental":12447,"ĠHealth":12448,"TOPOLOGY":12449,"QuotaManager":12450,"ĠDELTA":12451,"BeamFnData":12452,"ReentrantLock":12453,"Renderer":12454,"Ġusually":12455,"BiConsumer":12456,"GssKrb":12457,"416":12458,"449":12459,"621":12460,"709":12461,"791":12462,">`":12463,"Gl":12464,"Lang":12465,"Pending":12466,"Uu":12467,"broadcast":12468,"kt":12469,"lexer":12470,"rdf":12471,"wer":12472,"yellow":12473,"|_|":12474,"}[":12475,"}\\":12476,"Ġenhance":12477,"ĠChannel":12478,"ĠPo":12479,"ĠLoad":12480,"ĠâĶ":12481,"err":12482,"peg":12483,"existing":12484,"Ġrare":12485,"Ġleg":12486,"Ġconditional":12487,"andbox":12488,"Ġdenied":12489,"External":12490,"Ġbounds":12491,"Ġfox":12492,"Real":12493,"Ġcategory":12494,"Threshold":12495,"1026":12496,"Ġbeam":12497,"Stash":12498,"getKey":12499,"getType":12500,"Christ":12501,"1342":12502,"invokeTarget":12503,"Quad":12504,"IndexOutput":12505,"647":12506,"Adaptor":12507,"Queryable":12508,"ĠML":12509,"ĠMin":12510,"ĠMath":12511,"/_/_":12512,"DefaultGradle":12513,"StoreChangelog":12514,"LogManager":12515,"Loggers":12516,"Ġupper":12517,"closure":12518,"trict":12519,"Ġ|_":12520,"575":12521,"ĠRx":12522,"handleUpstream":12523,"Ġexecutable":12524,"Ġ\\\".":12525,"596":12526,"ĠUnregistering":12527,"770":12528,"954":12529,"781":12530,"Fails":12531,"Ġbuilds":12532,"TransformTranslator":12533,"JobManager":12534,"SessionTr":12535,"Ġspaces":12536,"AdminService":12537,"ĠVector":12538,"ReportEndpoint":12539,"\":[\"":12540,"Ġbuffers":12541,"Ġemits":12542,"ĠClassCastException":12543,"NonProxy":12544,"Ġespecially":12545,"QueryParseElement":12546,"ĠOpening":12547,"LinkedHashMap":12548,"VERS":12549,"SearchHitRowSet":12550,"Ġretrieved":12551,"ĠDAYOF":12552,"Ġcomputation":12553,"MultipartResolver":12554,"ReifyView":12555,"Ġretain":12556,"salary":12557,"Ġuploaded":12558,"PropertySourcesPropertyResolver":12559,"Ġreceiving":12560,"ĠInitializing":12561,"Ġ8600":12562,"âĶĢâĶĢ":12563,"20180503":12564,"developertools":12565,"Behavior":12566,"Ġdatasource":12567,"ĠRegistering":12568,"181495":12569,"structingObjectParser":12570,"DefaultGradleLauncher":12571,"StoreChangelogReader":12572,",-":12573,"/@":12574,"516":12575,"610":12576,"697":12577,"Duplicates":12578,"Git":12579,"KV":12580,"Kerberos":12581,"Live":12582,"Slow":12583,"ebe":12584,"hs":12585,"km":12586,"lass":12587,"lup":12588,"mith":12589,"nl":12590,"oid":12591,"vectors":12592,"watermark":12593,"Ġord":12594,"ĠProperties":12595,"ĠCondition":12596,"ĠORDER":12597,"stone":12598,"includes":12599,"obin":12600,"ableException":12601,"Ġconcat":12602,"aspect":12603,"roubles":12604,"etadata":12605,"amz":12606,"Ġsave":12607,"pler":12608,"Ġ}`":12609,"props":12610,"Ġcum":12611,"ĠĠĠĠĠĠĠĠĠĠĠĠĠĠĠĠĠĠĠĠĠĠĠĠĠĠĠĠ":12612,"1021":12613,"ĠSun":12614,"Executing":12615,"indexlifecycle":12616,"802":12617,"Ġcomplain":12618,"ĠText":12619,"doBuild":12620,"ĠNew":12621,"STRING":12622,"ĠMetadata":12623,"850":12624,"494":12625,"ĠAWS":12626,"Ġ];":12627,"ĠDB":12628,"Setter":12629,"WrapperSimple":12630,"LocalContainer":12631,"Ġreporting":12632,"553":12633,"881":12634,"Dispatching":12635,"Ġpercol":12636,"Ġpercolate":12637,"Ġverification":12638,"760":12639,"checkPermission":12640,"Ġ14487":12641,"Ġcontained":12642,"ĠNoNode":12643,"MultiMatchQuery":12644,"felix":12645,"Ġgoal":12646,"Ġlombok":12647,"StaticTypeCheckingVisitor":12648,"WEEK":12649,"Ġrecoveries":12650,"UPLE":12651,"Ġsignature":12652,"ĠIDs":12653,"ÂłĠÂłĠÂłĠÂłĠÂłĠÂłĠÂłĠÂłĠ":12654,"MatcherAssert":12655,"allowed":12656,"Ġhighlighting":12657,"ExistsException":12658,"sales":12659,"Ġfoobar":12660,"postgresql":12661,"Html":12662,"Ġaverage":12663,"Ġenhancement":12664,"(()":12665,"897":12666,":\"":12667,"Af":12668,"BR":12669,"CING":12670,"EZ":12671,"IF":12672,"IDE":12673,"Kenzo":12674,"Packer":12675,"Tiles":12676,"Ua":12677,"XPack":12678,"bW":12679,"cannot":12680,"disk":12681,"mac":12682,"rable":12683,"uZ":12684,"Ġ65":12685,"ĠRecord":12686,"arg":12687,"atron":12688,"alt":12689,"abin":12690,"above":12691,"imchy":12692,"asure":12693,"otation":12694,"avabin":12695,"andra":12696,"Ġalpha":12697,"Ġds":12698,"Ġmail":12699,"AbstractProcessor":12700,"AbstractRefactoring":12701,"Ġforcing":12702,"ThreadLocal":12703,"Stuff":12704,"SearchHits":12705,"Clatron":12706,"indexTime":12707,"Classes":12708,"MethodProxy":12709,"TestEventLogger":12710,"setSniff":12711,"ApplicationDeployment":12712,"ĠTUPLE":12713,"determine":12714,"EventThread":12715,"ĠWed":12716,"Another":12717,"doPost":12718,"doForward":12719,"Adding":12720,"QueryScore":12721,"pts":12722,"IOCallback":12723,"loaded":12724,"1094":12725,"Ġ57":12726,"OnTimeout":12727,"computeSingle":12728,"ContainerPacker":12729,"LogWorker":12730,"876":12731,"Restorer":12732,"TypeParser":12733,"ĠDown":12734,"ĠOP":12735,"075":12736,"processForward":12737,"AndParse":12738,"buildResponse":12739,"subdiv":12740,"CacheServletWrapper":12741,"startCompositionUnit":12742,"FieldHit":12743,"Verifying":12744,"datafeed":12745,"CollectionAction":12746,"Ġheavy":12747,"defaults":12748,"ĠKV":12749,"FailOnTimeout":12750,"MultiObserver":12751,"ElementHandle":12752,"JarLauncher":12753,"Syntax":12754,"Ġkilled":12755,"ModuleImpl":12756,"Scripts":12757,"collImpl":12758,"Hello":12759,"Attr":12760,"DateFormat":12761,"FSDirectory":12762,"SSLUtils":12763,"ObservableConcatMapMaybe":12764,"tokens":12765,"CompositionUnitImpl":12766,"ExtClassLoader":12767,"bugs":12768,"ScheduledRunnable":12769,"ĠĠĠĠĠĠĠĠĠĠĠĠĠĠĠĠĠĠĠĠĠĠĠĠĠĊ":12770,"Ġsignal":12771,"MockBean":12772,"ManagedChannel":12773,"ProtectionClassLoader":12774,"AppenderControl":12775,"Ð½Ð°":12776,"FlowableObserveOn":12777,"DeployedModuleImpl":12778,"Ġcontrolled":12779,"LeafDocLookup":12780,"NodeTableCache":12781,"CompoundClassLoader":12782,"Ġmsg":12783,"RunAfterTestClassCallbacks":12784,"BlockingMultiObserver":12785,"Ġattempted":12786,"Ġcorruption":12787,"ĠLocalCluster":12788,"ÑĤÐµ":12789,"Ġsemant":12790,"CredentialsUtil":12791,"ĠSubscri":12792,"JavaSecurityAccessWrapper":12793,"performRequestAndParse":12794,"NumericToken":12795,"TimeZoneRounding":12796,"Ġprivileges":12797,"installed":12798,"KrbTgsReq":12799,"TarContainerPacker":12800,"runAsSystem":12801,"ĠAggreg":12802,"MILLISECONDS":12803,"Ġ'{}',":12804,"UncheckedExecutionException":12805,"WhereUsed":12806,"CheckedAccessControlContext":12807,"RunBeforeTestClassCallbacks":12808,"RaftLogWorker":12809,"SSLHandshakeIOCallback":12810,"WebGroupImpl":12811,"177280":12812,"BiConsumerSingleObserver":12813,"1342177280":12814,"AdminServiceCommands":12815,"TilesRequestProcessor":12816,"Clatronic":12817,"ApplicationDeploymentCollectionAction":12818,"computeSingleResult":12819,"processForwardConfig":12820,"subdivision":12821,"FieldHitExtractor":12822,"performRequestAndParseEntity":12823,"%`":12824,"513":12825,"501":12826,"817":12827,"8268":12828,"916":12829,"936":12830,"905":12831,"=*":12832,"DRPC":12833,"Latest":12834,"NONE":12835,"Spy":12836,"Solution":12837,"Symbol":12838,"bage":12839,"bfa":12840,"kotlin":12841,"world":12842,"}];":12843,"}\")":12844,"ĠDELETE":12845,"ĠKeeperException":12846,"erce":12847,"arbage":12848,"once":12849,"oned":12850,"onExecute":12851,"pel":12852,"located":12853,"Ġrely":12854,"ano":12855,"Ġconstruct":12856,"Ġconcurrency":12857,"ditionally":12858,"Ġalter":12859,"upgra":12860,"Ġtab":12861,"ConstructingObjectParser":12862,"alis":12863,"Ġcar":12864,"Ġmvn":12865,"grails":12866,"ĠSlash":12867,"getNode":12868,"Tracked":12869,"TestMethod":12870,"BeanWrapper":12871,"RequestExecutor":12872,"LEn":12873,"Ġ},\\":12874,"ChannelActive":12875,"synonyms":12876,"FilterAutoConfiguration":12877,"27084":12878,"000001":12879,"doScope":12880,"JavaRefactoring":12881,"JavaWhereUsed":12882,"Ġlen":12883,"QueryPlugin":12884,"Ġchance":12885,"ĠBE":12886,"loadOr":12887,"loadBeanDefinitions":12888,"Stores":12889,"1096":12890,"Deletes":12891,"056":12892,"067":12893,"TextOutput":12894,"ĠHDFS":12895,"Logback":12896,"ĠĠĠĠĠĠĠĠĠĠĠĠĠĠĠĠĠĠĠĠĠĠĠĠĠĠĠĠĠĠĠĠĠĠĠĠĠĠĠĠĠĠĠĠĠĠĠ":12897,"569":12898,"EndpointAutoConfiguration":12899,"Ġunauthorized":12900,"ĠOM":12901,"15228088":12902,"subphase":12903,"Compute":12904,"Ġ{{@":12905,"982":12906,"ĠEc":12907,"Ġstatistics":12908,"ExecuteQueryPhase":12909,"ArgumentResolver":12910,"Ġcouldn":12911,"Split":12912,"TreeModel":12913,"ĠwindowSize":12914,"ILTER":12915,"istributor":12916,"ĠTherefore":12917,"ĠAnalyzer":12918,"Ġperforming":12919,"Ġloaders":12920,"~~~~":12921,"microsoft":12922,"Ġcontinues":12923,"ĠGeneric":12924,"WeakListenerImpl":12925,"simp":12926,"spell":12927,"aunchedURLClassLoader":12928,"AndRecordFailures":12929,"ReroutePhase":12930,"unctuation":12931,"CatchAndRecordFailures":12932,"SSLConfigurationReloader":12933,"PrepRequestProcessor":12934,"ĠSlasher":12935,"JavaRefactoringPlugin":12936,"JavaWhereUsedQueryPlugin":12937,"loadOrExecuteQueryPhase":12938,"402":12939,"587":12940,"820":12941,"AH":12942,"Both":12943,"CI":12944,"EW":12945,"FRecord":12946,"HO":12947,"Jvm":12948,"KStream":12949,"LB":12950,"LL":12951,"UES":12952,"bridge":12953,"dist":12954,"either":12955,"gog":12956,"hit":12957,"ival":12958,"junction":12959,"mix":12960,"ng":12961,"native":12962,"never":12963,"norm":12964,"pm":12965,"sandbox":12966,"vector":12967,"zax":12968,"Ġâ":12969,"Ġbin":12970,"Ġlang":12971,"ĠReceived":12972,"ĠQU":12973,"members":12974,"Ġnavig":12975,"Ġredis":12976,"valves":12977,"assandra":12978,"ulation":12979,"avor":12980,"classfile":12981,"searchType":12982,"ardown":12983,"Ġtomb":12984,"Ġawait":12985,"Ġreq":12986,"Ġreindexing":12987,"Ġreactive":12988,"ĠSer":12989,"Ġhundred":12990,"ssh":12991,"getResources":12992,"keyvalue":12993,"antsku":12994,"SHUTDOWN":12995,"TransportLayer":12996,"ListTasks":12997,"Unparsed":12998,"ĠFri":12999,"000003":13000,"ObjectField":13001,"ĠCI":13002,"executeFetchPhase":13003,"executeUnparsed":13004,"ipped":13005,"dataSource":13006,"AsyncAuthorizer":13007,"ĠAtomic":13008,"DefaultTestContext":13009,"FileException":13010,"FileStructure":13011,"ĠOp":13012,"KafkaStreams":13013,"Configs":13014,"ĠLast":13015,"Ġplan":13016,"Ġdataflow":13017,"WindowStore":13018,"....`":13019,"CodeGenerator":13020,"ategies":13021,"Ġgenerating":13022,"694":13023,"Ġignoring":13024,"Ġcompute":13025,"Ġcompiler":13026,"SECS":13027,"geohash":13028,"FluxSwitchIfEmpty":13029,"TERN":13030,"prefixed":13031,"ackingMode":13032,"CollectorImpl":13033,"requires":13034,"Ġextended":13035,"ConcurrentClassLoader":13036,"Ġserialize":13037,"Segments":13038,">>>":13039,"Ġtriggering":13040,"WatcherIndexTemplate":13041,"Stacktrace":13042,"TranslogOperations":13043,"Ġlocations":13044,"documents":13045,"Ġproto":13046,"Ġgrep":13047,"BoltExecutor":13048,"Ġwonder":13049,"ĠIndexShardRecoveryException":13050,"Trainer":13051,"InternalFactoryTo":13052,"Ġvisible":13053,"ImportsContextCustomizer":13054,"TridentSpoutExecutor":13055,"RECOVER":13056,"ĠJarFile":13057,"ĠInterruptedException":13058,"Central":13059,"ENDING":13060,"retrieve":13061,"SessionTrackingMode":13062,"zaxxer":13063,"WatcherIndexTemplateRegistry":13064,"']":13065,"508":13066,"742":13067,">&":13068,"GROUP":13069,"KIP":13070,"Let":13071,"Narayana":13072,"PW":13073,"Power":13074,"TTransportException":13075,"fect":13076,"noop":13077,"svn":13078,"Ġ^":13079,"Ġstructure":13080,"onPhase":13081,"cookie":13082,"forID":13083,"repackage":13084,"ulative":13085,"javapath":13086,"Ġ\",\"":13087,"Ġder":13088,"Ġdangling":13089,"Extract":13090,"Ġ154":13091,"usable":13092,"omic":13093,"Ġ`<":13094,"getContext":13095,"fined":13096,"finalize":13097,"MethodInterceptor":13098,"whitespace":13099,"opens":13100,"Ġpipelines":13101,"038":13102,"determin":13103,"ĠFrame":13104,"Ġprox":13105,"026":13106,"ippo":13107,"phan":13108,"Ġfailover":13109,"dataformat":13110,"ContainerStateMachine":13111,"StringBuilder":13112,"MainImpl":13113,"RestStatus":13114,"991":13115,"mycompany":13116,"Disposable":13117,"Percolate":13118,"WrapProcessor":13119,"583":13120,"PostCon":13121,"Ġcloses":13122,"Ġplain":13123,"Compiled":13124,"ĠEOF":13125,"Ġdelegate":13126,"PostProcessors":13127,"TargetClass":13128,"____":13129,"BootClassLoader":13130,"ĠUnfortunately":13131,"LOAD":13132,"ebugger":13133,"device":13134,"udson":13135,"Ġfilesystem":13136,"Ġadapter":13137,"FailureDelay":13138,"Ġprovides":13139,"Ġfacet":13140,"ĠWebApplicationContext":13141,"balancing":13142,"Ġprocessors":13143,"Ġnorm":13144,"Ġdefinitions":13145,"FlinkRunner":13146,"PageInfo":13147,"Ġredirect":13148,"writes":13149,"Ġinvoking":13150,"ĠOrigin":13151,"Ġcontribution":13152,"optimizer":13153,"triple":13154,"submitTopologyWithOpts":13155,"Ġreceives":13156,"Migrate":13157,"ĠRUNNING":13158,"ycler":13159,"SupportedVersion":13160,"Ġstraightforward":13161,"aspectj":13162,"732":13163,"729":13164,"848":13165,"Discover":13166,"Flyway":13167,"FETCH":13168,"GRE":13169,"Godot":13170,"Hi":13171,"IU":13172,"Jk":13173,"LIN":13174,"Mj":13175,"MIN":13176,"MRed":13177,"Mobile":13178,"NV":13179,"OOT":13180,"Other":13181,"Pu":13182,"TDO":13183,"Vectors":13184,"Wrong":13185,"cX":13186,"dp":13187,"eth":13188,"eureka":13189,"gx":13190,"ira":13191,"mime":13192,"rote":13193,"yD":13194,"zOD":13195,"}/_":13196,"Ġack":13197,"Ġpayload":13198,"Ġ({":13199,"idle":13200,"methe":13201,"ech":13202,"Ġsit":13203,"Ġsav":13204,"runRequestInterceptor":13205,"Ġcxid":13206,"Ġ`{":13207,"bose":13208,"testframework":13209,"AbstractTask":13210,"AbstractJsse":13211,"Props":13212,"Ġcompare":13213,"oggle":13214,"appClassLoader":13215,"Unexpected":13216,"Unicast":13217,"SNEL":13218,"ops":13219,"ĠFeb":13220,"Ġev":13221,"StateAction":13222,"65256":13223,"WebRequest":13224,"WebappClassLoader":13225,"Ġcancell":13226,"DefaultTask":13227,"DefaultIndexing":13228,"junits":13229,"3333":13230,"ateri":13231,"873":13232,"878":13233,"Ġtimestamps":13234,"ledTextOutput":13235,"ĠJun":13236,"ĠJPA":13237,"ĠDec":13238,"ĠGSS":13239,"ĠGdx":13240,"paths":13241,"570":13242,"BasicErrorController":13243,"997":13244,"4444":13245,"nodeD":13246,"ĠIndices":13247,"ĠIngest":13248,"PropertyChangeListener":13249,"rypt":13250,"Interrupt":13251,"772":13252,"Validates":13253,"newInstantiator":13254,"Ġlists":13255,"Ġreload":13256,"ENE":13257,"Prevent":13258,"Overrid":13259,"ConstructorBinding":13260,"bulkindex":13261,"ĠServerProperties":13262,"CustomizerProvider":13263,"GradleCustomizerProvider":13264,"OutputStreamAppender":13265,"ÂłÂłÂłÂłÂłÂłÂłÂłÂłÂłÂłÂłÂłÂłÂłÂłÂłÂłÂł":13266,"FileSystemCompiler":13267,"InvocationTargetException":13268,"Ġproviding":13269,"commits":13270,"Ġrespond":13271,"Ġcounts":13272,"Ġpostings":13273,"Ġzxid":13274,"ĠLogStash":13275,"DeleteBuilderImpl":13276,"Ġdecode":13277,"ÐµÑĦ":13278,"GrpcReplication":13279,"Rolling":13280,"Ġgreater":13281,"DynamicObject":13282,"holders":13283,"TopicPartition":13284,"Ġincreasing":13285,"allel":13286,"ZooKeeperClient":13287,"MavenCli":13288,"JavacTaskImpl":13289,"Ġinstantiation":13290,"TabbedController":13291,"StyledTextOutput":13292,"------------------------------------------------------------------------":13293,"AAAAAAAAAAAAAAAAAAAAAAAAAAAAAAAAAAAAAAAAAAAAAAAAAAAAAAAAAAAAAAAAAAAAAAAAAAAAAAAAAAAAAAAAAAAAAAAAAAAAAAAAAAAAAAAAAAAAAAAAAAAAAAAA":13294,
[...]
